<unk>	0
<s>	0
</s>	0
,	-2.71311
▁	-2.95738
。	-3.19436
的	-3.91632
0	-5.14066
和	-5.25867
是	-5.30226
了	-5.30435
?	-5.31098
在	-5.37986
我	-5.64261
:	-5.68341
1	-5.68356
我们	-5.72463
▁我们	-5.85746
▁我	-5.86998
”	-5.96672
“	-6.00958
2	-6.04666
、	-6.07603
一个	-6.10758
▁在	-6.11676
中	-6.1681
你	-6.18721
有	-6.19013
他们	-6.23661
.	-6.23885
上	-6.25903
它	-6.36291
5	-6.36653
时	-6.39972
这个	-6.45839
这些	-6.45867
▁他们	-6.47975
来	-6.53216
说	-6.54224
▁所以	-6.54487
他	-6.56661
到	-6.58617
▁但是	-6.59307
——	-6.60629
▁“	-6.63155
9	-6.66076
人	-6.66192
里	-6.67553
▁但	-6.67958
对	-6.67975
这	-6.67982
被	-6.68205
3	-6.69617
的人	-6.69669
的时候	-6.70257
年	-6.73223
▁这是	-6.75548
会	-6.76035
去	-6.76952
都	-6.78588
不	-6.80723
▁因为	-6.81193
从	-6.81849
--	-6.81988
呢	-6.83157
▁他	-6.83305
▁这	-6.83604
。”	-6.8391
▁而	-6.84049
就是	-6.8545
用	-6.88672
与	-6.89511
4	-6.89595
可以	-6.90862
也	-6.9102
就	-6.91839
一些	-6.9217
▁它	-6.92276
▁你	-6.93729
▁现在	-6.94798
地	-6.95771
开始	-6.96282
那些	-7.01661
为	-7.0233
·	-7.04236
8	-7.04656
没有	-7.05213
要	-7.08754
个	-7.0958
自己	-7.09933
吗	-7.10869
6	-7.11074
▁然后	-7.11108
▁是	-7.14057
她	-7.14617
它们	-7.14844
一样	-7.17333
把	-7.17945
7	-7.19123
将	-7.20516
▁这些	-7.22122
工作	-7.22733
或	-7.23567
能	-7.26482
而	-7.27817
做	-7.29998
人们	-7.30723
着	-7.32218
问题	-7.34172
%	-7.34515
)	-7.35779
那	-7.36573
▁和	-7.36949
需要	-7.38193
▁而且	-7.38676
这种	-7.38919
▁并且	-7.40624
大	-7.41735
你们	-7.42781
过	-7.43275
▁这个	-7.43768
!	-7.46171
后	-7.46673
▁从	-7.47
:“	-7.47321
▁因此	-7.47706
下	-7.47857
▁她	-7.48648
的东西	-7.4958
现在	-7.49592
研究	-7.49957
-	-7.51977
一	-7.52711
▁一个	-7.5328
▁那么	-7.5368
非常	-7.54188
进行	-7.5465
这样	-7.55315
想	-7.55634
▁它们	-7.56336
已经	-7.56509
或者	-7.56814
很	-7.56916
什么	-7.57214
以	-7.58346
使用	-7.5877
世界	-7.59382
看	-7.59485
▁如果	-7.59486
并	-7.59804
像	-7.59992
好	-7.60188
很多	-7.60543
更	-7.606
设计	-7.60653
性	-7.60935
一种	-7.61784
?”	-7.63417
者	-7.63792
小	-7.64477
人类	-7.6522
给	-7.65304
因为	-7.654
我的	-7.65613
最	-7.65934
"	-7.66213
通过	-7.66589
的地方	-7.67154
系统	-7.67712
不是	-7.67824
多	-7.68279
发现	-7.6829
所	-7.68887
吧	-7.69291
技术	-7.69604
改变	-7.69609
得	-7.69736
点	-7.70065
▁或者	-7.70173
比	-7.70636
▁当	-7.71739
让	-7.72612
所有	-7.74426
▁并	-7.74477
的话	-7.75104
▁以及	-7.75405
这是	-7.75753
▁--	-7.75912
可能	-7.77013
,“	-7.77359
▁还有	-7.77375
们	-7.77506
▁事实上	-7.77705
之后	-7.77851
能够	-7.78012
那个	-7.78654
▁我想	-7.78804
又	-7.79963
信息	-7.80267
时间	-7.80583
关于	-7.81164
数据	-7.8183
还是	-7.82137
▁那	-7.82597
▁如果你	-7.82919
▁就是	-7.83073
我们的	-7.83598
美国	-7.83635
都是	-7.83825
还	-7.83982
出	-7.84707
看到	-7.85216
选择	-7.86477
于	-7.86575
你的	-7.86985
▁当然	-7.87289
公司	-7.87971
;	-7.88494
的问题	-7.91228
▁这就是	-7.91364
以及	-7.92503
之前	-7.93262
▁来	-7.93406
来说	-7.94404
水	-7.96208
生活	-7.97055
的是	-7.97124
的方式	-7.97966
▁有	-7.98158
这样的	-7.98317
国家	-7.98662
知道	-7.98988
是一个	-7.99053
可	-7.99194
不同	-7.99434
前	-7.99434
得到	-7.99888
▁(	-8.00611
任何	-8.01122
但	-8.01703
如何	-8.02591
新	-8.02777
拥有	-8.02802
如果	-8.03105
当	-8.03605
▁那些	-8.03749
成为	-8.04363
城市	-8.05177
▁♫	-8.05272
组织	-8.05528
▁比如	-8.06107
▁对	-8.06444
孩子	-8.07448
只有	-8.07458
再	-8.07533
社会	-8.0779
决定	-8.08006
》	-8.08321
只	-8.08848
然后	-8.09199
跟	-8.09607
还有	-8.09711
却	-8.11393
发展	-8.12477
▁然而	-8.1452
科学	-8.14539
学习	-8.15291
▁也	-8.16433
认为	-8.16674
啊	-8.17271
正在	-8.17283
▁不过	-8.1763
来自	-8.17922
方式	-8.17938
《	-8.18129
真的	-8.18326
他们的	-8.18666
我想	-8.18871
教育	-8.19393
的事情	-8.19487
生命	-8.19584
(	-8.20166
让我	-8.20178
中的	-8.21033
▁人们	-8.21422
▁通过	-8.21473
向	-8.21867
对于	-8.22014
应该	-8.22076
由	-8.22345
新的	-8.22595
大脑	-8.23248
作为	-8.23337
网络	-8.23366
其他	-8.23404
动物	-8.23479
▁就像	-8.23831
希望	-8.23843
东西	-8.24186
的故事	-8.24324
▁就	-8.24406
一起	-8.24425
家	-8.24569
▁这是一个	-8.2522
▁我认为	-8.25484
▁这种	-8.25559
不能	-8.25574
政府	-8.25595
理解	-8.25781
为什么	-8.26007
是什么	-8.26077
完全	-8.26423
高	-8.2659
发生	-8.27055
▁都	-8.27499
项目	-8.27503
之间	-8.27538
运动	-8.27717
真正	-8.28268
变得	-8.28459
有一个	-8.28466
一点	-8.28493
故事	-8.28556
♫	-8.28705
不会	-8.29211
一下	-8.29517
一次	-8.29546
了解	-8.29627
也是	-8.30006
生物	-8.31164
▁你们	-8.3139
但是	-8.31672
找到	-8.32018
成	-8.32171
音乐	-8.32622
正	-8.3267
叫	-8.32839
长	-8.33154
▁实际上	-8.33347
科技	-8.33402
车	-8.33541
▁这样	-8.33591
影响	-8.33601
TED	-8.33843
所有的	-8.33948
控制	-8.34078
细胞	-8.34237
女性	-8.34593
只是	-8.34621
整个	-8.34691
大家	-8.34727
▁你可以	-8.34748
地球	-8.34835
并且	-8.34872
▁而是	-8.34992
环境	-8.35168
方法	-8.35776
计划	-8.36082
内	-8.36096
行为	-8.36994
之一	-8.37092
经济	-8.37378
思考	-8.37428
继续	-8.37768
这里	-8.3788
就像	-8.38266
没	-8.38356
事情	-8.38577
其	-8.38749
等	-8.39256
如此	-8.39366
合作	-8.39934
创造	-8.40201
▁最后	-8.40237
岁	-8.40336
产生	-8.40357
那么	-8.40677
有些	-8.41443
自己的	-8.42192
各种	-8.4254
光	-8.42733
到了	-8.42922
不同的	-8.43373
空间	-8.43395
如果你	-8.43434
个人	-8.43622
▁同时	-8.43758
让我们	-8.44157
进入	-8.44244
许多	-8.44394
才	-8.44464
提供	-8.44777
相信	-8.44846
起来	-8.45307
他的	-8.45318
学校	-8.45319
两个	-8.46007
起	-8.4623
学生	-8.46347
的方法	-8.46375
的事	-8.46574
有关	-8.46597
更多	-8.46753
之	-8.47071
▁用	-8.47124
想要	-8.47129
未来	-8.4747
万	-8.47762
活动	-8.47859
在这里	-8.47878
▁当我	-8.47966
▁去	-8.48049
食物	-8.48132
走	-8.48222
爱	-8.48355
部分	-8.48414
那样	-8.48478
方面	-8.485
是个	-8.4853
问	-8.48577
▁所以我	-8.48786
尝试	-8.48922
喜欢	-8.48962
变化	-8.49294
更加	-8.49346
制造	-8.49696
利用	-8.49922
结果	-8.49966
▁那就是	-8.50361
她们	-8.50382
感觉	-8.50415
▁对于	-8.50569
模式	-8.50778
事	-8.50849
电脑	-8.51154
成功	-8.51188
就会	-8.51273
机器人	-8.51277
▁以	-8.51377
建筑	-8.51463
▁当你	-8.51612
开	-8.51886
▁没有	-8.52026
处理	-8.52171
▁所以我们	-8.52638
▁我们可以	-8.52739
关注	-8.52816
子	-8.52983
治疗	-8.53014
上的	-8.53062
存在	-8.53307
甚至	-8.53488
艺术	-8.53493
▁关于	-8.53544
过去	-8.5358
头	-8.54006
▁如果我们	-8.54107
▁他说	-8.54177
太	-8.5446
学	-8.54572
情况	-8.54656
讲	-8.5471
帮助	-8.54831
吃	-8.55053
▁可以	-8.55136
语言	-8.55191
▁将	-8.55244
年前	-8.55322
讨论	-8.55382
把它	-8.55506
支持	-8.5562
▁于是	-8.55621
实验	-8.55787
这一	-8.55999
解决	-8.56006
▁为什么	-8.56363
非洲	-8.5689
市场	-8.56908
基因	-8.57026
解释	-8.57092
▁让	-8.57147
写	-8.57379
里面	-8.57516
打	-8.57707
斯	-8.57741
拉	-8.57757
文化	-8.57878
工具	-8.58264
▁把	-8.5827
比较	-8.58351
其实	-8.5853
那里	-8.58589
保护	-8.5861
▁与	-8.58691
挑战	-8.58695
结构	-8.5878
的一个	-8.58838
美元	-8.59043
努力	-8.59203
我们可以	-8.59553
无	-8.59699
▁我们需要	-8.59817
而且	-8.59915
▁当我们	-8.59921
听	-8.59978
”。	-8.5998
十分	-8.60072
一直	-8.60093
做的	-8.60599
获得	-8.60831
出来	-8.60884
实际上	-8.61025
最后	-8.61221
▁或	-8.6127
游戏	-8.61381
测试	-8.61464
天	-8.61478
医生	-8.61946
我在	-8.61957
▁也许	-8.62084
无法	-8.62093
种	-8.62161
最终	-8.6246
接受	-8.62987
全球	-8.63056
▁而不是	-8.63113
使	-8.63187
▁这里	-8.63367
分享	-8.63374
带	-8.63706
花	-8.63834
看看	-8.63928
自然	-8.64285
出现	-8.64349
产品	-8.64378
等等	-8.64396
的时间	-8.64433
参与	-8.64701
当然	-8.64708
为了	-8.65128
意识到	-8.65154
完成	-8.65246
演讲	-8.65353
叫做	-8.65458
机器	-8.65592
自我	-8.65658
三	-8.65835
所以	-8.66006
图	-8.66024
觉得	-8.66265
▁我说	-8.66418
今天	-8.66444
也许	-8.66851
声音	-8.66855
模型	-8.67079
一切	-8.67357
并不	-8.67391
手	-8.67468
必须	-8.67812
观察	-8.67939
▁首先	-8.6821
回到	-8.68234
政治	-8.68351
安全	-8.68402
每	-8.68419
想法	-8.68434
▁其实	-8.68478
月	-8.68862
一位	-8.69039
些	-8.69289
化	-8.693
自由	-8.6935
数	-8.69396
世纪	-8.69633
大概	-8.69653
关系	-8.69708
▁为了	-8.69966
资源	-8.70116
s	-8.7012
过程	-8.70493
钱	-8.70523
汽车	-8.70539
死亡	-8.70561
生产	-8.70938
展示	-8.70953
分	-8.7108
能力	-8.7126
病人	-8.71284
▁那是	-8.71338
印度	-8.71769
▁甚至	-8.71878
有点	-8.71965
放	-8.72022
的工作	-8.72142
服务	-8.72178
名	-8.72415
...	-8.72666
的原因	-8.73153
▁但我	-8.73165
更多的	-8.73208
投资	-8.73336
都有	-8.73371
▁也就是	-8.73509
行动	-8.73658
听到	-8.73665
已	-8.73834
你可以	-8.73848
有人	-8.74064
癌症	-8.74088
▁让我们	-8.74148
移动	-8.74176
▁我在	-8.7472
好的	-8.74732
的人们	-8.74829
DNA	-8.749
离开	-8.74977
怎样	-8.74997
大学	-8.75019
▁我们在	-8.75187
变成	-8.75242
其中	-8.75758
特别	-8.75779
制作	-8.76027
别人	-8.76177
四	-8.76238
创新	-8.76476
具有	-8.76764
另一个	-8.76773
▁像	-8.77024
健康	-8.77028
是否	-8.77266
地方	-8.77499
是在	-8.77559
则	-8.77612
有很多	-8.77768
有着	-8.77775
家庭	-8.77952
地区	-8.78055
年代	-8.78368
重新	-8.78493
这么	-8.7851
的一部分	-8.78511
目标	-8.78666
有个	-8.78814
这个问题	-8.78835
心	-8.78873
力	-8.79129
本身	-8.79186
▁例如	-8.79343
价值	-8.79511
计算	-8.79615
线	-8.79654
▁—	-8.80023
的世界	-8.80183
数字	-8.80184
行	-8.80263
如	-8.80402
日	-8.80711
中国	-8.80737
计算机	-8.80767
社区	-8.80809
亿	-8.80864
该	-8.811
么	-8.81154
区域	-8.81225
经历	-8.81279
生	-8.81427
代表	-8.81859
身体	-8.82239
感到	-8.82328
当时	-8.82441
画	-8.82616
原因	-8.82632
大约	-8.83176
电影	-8.83236
交流	-8.83691
疾病	-8.83911
身上	-8.83921
谁	-8.84065
朋友	-8.84113
书	-8.84214
探索	-8.84218
科学家	-8.84363
战争	-8.84403
同时	-8.84669
的孩子	-8.84762
知识	-8.84794
植物	-8.8489
总是	-8.84927
告诉我	-8.84964
▁♪	-8.85023
直接	-8.8503
我们需要	-8.85071
中心	-8.85091
并没有	-8.85163
号	-8.85229
我要	-8.8554
以后	-8.85547
买	-8.85654
照片	-8.85868
一个人	-8.85924
寻找	-8.85941
建立	-8.86083
鱼	-8.86225
材料	-8.86268
才能	-8.8663
教	-8.86733
做了	-8.86896
谈论	-8.86959
超过	-8.86991
是一种	-8.87129
老师	-8.87142
量	-8.8722
并不是	-8.87226
机会	-8.87341
▁要	-8.87523
一张	-8.87813
最大的	-8.87856
的声音	-8.87918
历史	-8.87927
的能力	-8.87933
联系	-8.88158
特	-8.88376
观众	-8.88396
它的	-8.88405
简单	-8.88505
发	-8.88534
管理	-8.88675
受	-8.88721
记录	-8.89056
你知道	-8.89091
真	-8.89139
分子	-8.89255
次	-8.89313
当你	-8.89397
的信息	-8.89608
的照片	-8.89745
▁因为我们	-8.9028
一条	-8.9042
分析	-8.90516
准备	-8.90621
▁或是	-8.90693
拿	-8.90723
明白	-8.90731
每个	-8.90755
▁"	-8.90818
机	-8.90918
这样做	-8.90961
的想法	-8.9097
米	-8.91442
领域	-8.91549
▁今天	-8.91669
法	-8.91902
不断	-8.91923
将会	-8.92086
我认为	-8.9217
玩	-8.92225
女人	-8.92308
及	-8.92369
很好	-8.92504
▁-	-8.92521
宇宙	-8.92703
反应	-8.92717
功能	-8.92864
克	-8.93056
确实	-8.93073
设备	-8.93103
▁虽然	-8.93235
做出	-8.9338
都会	-8.93404
考虑	-8.93406
巨大的	-8.93415
同样	-8.93674
快乐	-8.93736
同	-8.93847
药物	-8.93868
互联网	-8.93908
的数据	-8.93976
民主	-8.93996
两	-8.94056
每天	-8.94103
加	-8.94166
事实上	-8.94198
先	-8.94324
的国家	-8.94503
力量	-8.94794
▁被	-8.94837
▁我觉得	-8.94893
理论	-8.94944
在那里	-8.95022
作	-8.95061
也有	-8.95083
海洋	-8.95147
实验室	-8.95341
保持	-8.95409
看起来	-8.95437
▁会	-8.9555
A	-8.95703
不要	-8.95791
能源	-8.95897
手机	-8.9591
鼓掌	-8.95921
▁它是	-8.96028
减少	-8.96068
数学	-8.96102
声	-8.96241
证明	-8.96373
上帝	-8.96464
男人	-8.96504
至	-8.96517
我会	-8.96537
的生活	-8.96573
机构	-8.96656
想象	-8.96802
▁不是	-8.96932
病毒	-8.96961
▁你知道	-8.97038
宗教	-8.9715
这么做	-8.9718
▁好	-8.9735
而言	-8.9736
▁所有	-8.97616
请	-8.97731
比如	-8.97924
法律	-8.98015
几乎	-8.98291
卡	-8.98362
对吧	-8.98477
▁到	-8.98493
面	-8.9854
训练	-8.9866
进化	-8.98705
这就是	-8.98735
事件	-8.98792
儿童	-8.99133
告诉我们	-8.99502
德	-8.99537
事物	-8.99703
视频	-8.99765
以前	-8.99792
共同	-8.99795
内容	-8.99821
回	-9.00131
间	-9.00603
几个	-9.00662
D	-9.00844
也会	-9.00889
倍	-9.00993
▁还是	-9.00999
答案	-9.01222
器	-9.01346
媒体	-9.01628
马	-9.01886
度	-9.01994
非	-9.02285
•	-9.02404
▁让我	-9.02499
多少	-9.02594
来到	-9.02657
实现	-9.02662
第一次	-9.02717
▁因为我	-9.02749
其他人	-9.02848
外	-9.03024
石油	-9.03053
▁为	-9.03066
▁我会	-9.03173
事实	-9.03432
受到	-9.03728
年的	-9.03856
要求	-9.03898
最好的	-9.03956
同样的	-9.04087
的例子	-9.04267
发生在	-9.04313
孩子们	-9.04436
能量	-9.04568
显示	-9.04694
连接	-9.04908
在一起	-9.04969
一场	-9.04995
我们在	-9.05336
之中	-9.05348
她的	-9.05487
是如何	-9.058
第一个	-9.05837
▁但我们	-9.05837
低	-9.05911
给我	-9.05919
重	-9.05926
是因为	-9.06055
曾经	-9.06067
增长	-9.06201
▁你会	-9.06256
......	-9.06442
谢谢	-9.065
感	-9.06514
的力量	-9.06622
增加	-9.06746
的影响	-9.06842
风	-9.06978
五	-9.06998
或是	-9.07068
生活在	-9.07125
半	-9.07144
快	-9.07427
真正的	-9.07494
很多人	-9.07509
暴力	-9.07626
」	-9.07731
体	-9.07928
▁还	-9.08095
区	-9.08173
道	-9.08178
全	-9.08221
本	-9.08226
达到	-9.08521
软件	-9.0894
很难	-9.0898
传播	-9.09139
▁再	-9.09208
复杂	-9.09229
▁尽管	-9.09231
▁最终	-9.09342
企业	-9.09435
哦	-9.09499
担心	-9.09588
经过	-9.09624
▁她们	-9.09654
英国	-9.09705
都在	-9.09797
▁只有	-9.09935
应用	-9.09949
了一个	-9.10076
给你	-9.10087
专家	-9.1014
打开	-9.10151
飞	-9.10219
一只	-9.10266
形成	-9.10375
其它	-9.10407
作品	-9.1044
别	-9.10515
就能	-9.10518
死	-9.10519
球	-9.10602
数量	-9.1062
那种	-9.10653
自	-9.10838
传统	-9.10858
▁当时	-9.11002
物质	-9.11028
放在	-9.11058
物	-9.11157
预测	-9.1129
▁我知道	-9.11619
时代	-9.11665
就可以	-9.11758
▁好吧	-9.1183
表演	-9.12199
建造	-9.12273
大量	-9.123
美	-9.12475
有了	-9.12506
一段	-9.12728
面对	-9.12929
干	-9.12991
包括	-9.13027
认识	-9.13053
想到	-9.13058
门	-9.13162
现实	-9.13175
相当	-9.13425
人口	-9.13588
一般	-9.13621
▁因为他们	-9.13642
分钟	-9.13816
热	-9.13883
体验	-9.13937
而不是	-9.14036
飞机	-9.1405
▁其中	-9.14077
细菌	-9.14098
▁我要	-9.14227
▁我们必须	-9.1428
让人	-9.14376
▁作为	-9.14418
这一点	-9.14729
一年	-9.14787
树	-9.14888
气	-9.14906
提高	-9.14925
▁在我	-9.14929
艺术家	-9.1508
变	-9.15333
▁直到	-9.15333
飞行	-9.154
手术	-9.1555
电话	-9.15585
这些人	-9.15654
当中	-9.15659
调查	-9.157
▁不	-9.15761
条	-9.16021
让他们	-9.16121
找	-9.16127
商业	-9.16187
的结果	-9.16371
不知道	-9.16553
太阳	-9.16564
▁这是个	-9.16615
到达	-9.16701
怎么	-9.1672
重要	-9.16783
位	-9.16784
一定	-9.16854
▁可能	-9.16863
每年	-9.16891
试图	-9.16964
物种	-9.17328
发明	-9.17605
表达	-9.17625
▁却	-9.17653
令人	-9.17727
边	-9.17763
回答	-9.17788
开发	-9.18014
目前	-9.18082
妇女	-9.18148
错误	-9.18285
的感觉	-9.18334
读	-9.18353
团队	-9.18448
的情况	-9.18792
的行为	-9.1887
基本	-9.19053
进	-9.19354
▁接着	-9.19443
因	-9.19612
C	-9.19625
加入	-9.19756
就在	-9.1978
▁能够	-9.19915
作用	-9.20041
的过程	-9.20223
▁一种	-9.20306
实际	-9.2032
火	-9.20324
里的	-9.20349
告诉你	-9.20377
山	-9.20385
▁我们要	-9.20545
带着	-9.20601
仅仅	-9.20604
电	-9.20631
至少	-9.20638
▁包括	-9.20664
医疗	-9.20873
「	-9.20922
入	-9.20959
生存	-9.21106
▁但是我们	-9.21142
性的	-9.21167
压力	-9.21172
一块	-9.21211
测量	-9.21225
试着	-9.21268
图像	-9.21356
不可能	-9.21417
▁只是	-9.21509
病	-9.21606
上面	-9.21706
大量的	-9.21825
这是一个	-9.21848
坐在	-9.21925
效果	-9.22178
利	-9.22298
困难	-9.22422
类似	-9.22754
阅读	-9.22774
医院	-9.22875
在美国	-9.2292
不再	-9.22936
曾	-9.22976
持续	-9.22985
思想	-9.23059
它是	-9.2307
▁即	-9.23108
网站	-9.23154
处	-9.23213
速度	-9.23264
新闻	-9.23282
很重要	-9.23299
▁我的	-9.2332
▁一些	-9.23323
▁谢谢	-9.23441
某种	-9.23602
带来	-9.23731
电视	-9.2376
女孩	-9.23764
一天	-9.23873
住	-9.23884
程度	-9.24021
▁比如说	-9.24048
转	-9.24114
阶段	-9.24342
结束	-9.24422
欧洲	-9.24536
主要	-9.24761
这个世界	-9.24814
男性	-9.2486
提出	-9.2493
老	-9.25004
更好的	-9.25092
靠	-9.25235
式	-9.2524
拍摄	-9.25261
神	-9.25287
▁能	-9.25308
当我	-9.25309
信号	-9.25432
彼此	-9.25464
道德	-9.25553
▁我也	-9.2592
▁人类	-9.26019
的研究	-9.26236
形式	-9.26241
肯定	-9.26268
▁我们有	-9.26303
因素	-9.26417
当我们	-9.26428
收集	-9.26491
时期	-9.26525
住在	-9.26585
处于	-9.26668
B	-9.26857
这件事	-9.26897
▁比	-9.2693
几	-9.26983
表示	-9.27019
▁如今	-9.27142
程序	-9.27273
让你	-9.27284
似乎	-9.27575
好吧	-9.27732
率	-9.27773
图片	-9.27938
失去	-9.27949
世界上	-9.28016
政策	-9.28021
而是	-9.28063
停止	-9.28104
充满	-9.28111
我们要	-9.28116
尔	-9.28222
告诉	-9.2824
那是	-9.28283
路	-9.28345
或许	-9.28482
现象	-9.28483
试验	-9.28594
回来	-9.28595
▁因为它	-9.28628
人民	-9.28677
概念	-9.28702
▁在这个	-9.28786
对话	-9.28874
去做	-9.28926
我觉得	-9.28932
便	-9.2898
简单的	-9.29036
方向	-9.29075
把它们	-9.29144
在这个	-9.29189
!”	-9.29288
模拟	-9.29322
神经	-9.29513
幸福	-9.29525
如果我们	-9.29537
一家	-9.29771
中间	-9.29829
意义	-9.29842
愿意	-9.29846
三个	-9.2996
管	-9.30172
看见	-9.30194
是我们	-9.30286
时刻	-9.30379
状态	-9.30418
呼吸	-9.30445
建议	-9.30596
到底	-9.30633
在一个	-9.30643
白	-9.30695
▁除了	-9.30715
全部	-9.30721
通常	-9.30831
去了	-9.30987
相互	-9.31027
▁我可以	-9.31118
仍然	-9.31136
水平	-9.31146
生长	-9.31193
风险	-9.31206
一项	-9.31355
我是	-9.31385
属于	-9.31482
▁我们知道	-9.31563
近	-9.31577
卖	-9.31825
经验	-9.31949
危险	-9.31985
规则	-9.32173
▁然后我们	-9.32295
会议	-9.32305
▁都是	-9.32355
来看	-9.32358
部	-9.32457
的机会	-9.32651
的小	-9.32722
过来	-9.32781
▁或许	-9.32859
▁看看	-9.32866
表现	-9.3295
更好	-9.32971
描述	-9.33077
流	-9.33159
互动	-9.33234
是由	-9.33238
离	-9.3331
▁我希望	-9.33339
只能	-9.33572
改善	-9.33647
互相	-9.33655
国际	-9.33677
▁可是	-9.33803
每个人	-9.33835
说话	-9.33851
装置	-9.34105
某些	-9.34202
的样子	-9.34249
意识	-9.34285
▁只要	-9.34356
你会	-9.34488
用来	-9.34499
S	-9.34533
期	-9.34666
发生了	-9.34721
此	-9.34816
我自己	-9.34842
我就	-9.34865
我们有	-9.35069
▁结果	-9.3507
首先	-9.35193
颜色	-9.35263
狗	-9.35268
▁由	-9.35296
标准	-9.35305
▁即使	-9.35313
设计师	-9.35318
可能会	-9.35454
运用	-9.35535
掉	-9.35589
绝对	-9.35663
站在	-9.35695
成了	-9.35734
公开	-9.35758
气候变化	-9.35779
害怕	-9.35781
▁你可以看到	-9.3584
相	-9.36001
和我	-9.36019
小孩	-9.36047
难	-9.36161
接触	-9.36171
父母	-9.36258
▁如果我	-9.36292
操作	-9.36441
船	-9.36442
有什么	-9.36574
投入	-9.36748
▁接下来	-9.36798
连	-9.36854
谈	-9.36856
精神	-9.36962
▁或者是	-9.37146
介绍	-9.3715
海	-9.37195
▁我们会	-9.37289
差不多	-9.37317
地图	-9.37371
电子	-9.37457
类	-9.37635
]	-9.37655
▁已经	-9.37738
威胁	-9.37793
二	-9.37837
▁大家	-9.37862
越	-9.37926
真实	-9.37965
▁他们会	-9.3805
动	-9.38104
活	-9.38134
改变了	-9.38143
患者	-9.38157
的概念	-9.38169
根据	-9.38264
▁但是我	-9.38299
一系列	-9.38332
来自于	-9.38346
任务	-9.38355
▁我们也	-9.38446
这一切	-9.38495
工程	-9.38499
您	-9.3851
感受	-9.38519
发生的	-9.38528
创作	-9.38593
▁而我们	-9.3868
▁那时	-9.38712
运行	-9.38726
妈妈	-9.38866
▁另外	-9.38928
因此	-9.38953
看到的	-9.39004
组	-9.39103
看着	-9.39178
▁最	-9.39213
反	-9.39223
逐渐	-9.39224
全世界	-9.39284
有一些	-9.3935
说明	-9.39361
定义	-9.39374
▁我们的	-9.39483
很大	-9.39484
假设	-9.39638
下面	-9.39777
▁从而	-9.39782
▁我们现在	-9.3983
不用	-9.40028
开放	-9.40052
▁美国	-9.40097
危机	-9.40099
大多数	-9.40115
需求	-9.4013
工业	-9.40146
在哪里	-9.40166
网	-9.40194
给他们	-9.40199
这个词	-9.40203
情绪	-9.40229
我可以	-9.40354
选	-9.40403
这些东西	-9.40412
伟大的	-9.40425
例子	-9.40489
限制	-9.40524
经常	-9.40623
梦想	-9.40624
▁也是	-9.4072
动作	-9.40923
确定	-9.4094
下来	-9.40946
视觉	-9.41066
没有任何	-9.41093
出去	-9.4115
失败	-9.41161
参加	-9.41257
美国人	-9.41427
达	-9.41438
六	-9.41453
得到了	-9.41454
口	-9.41518
▁那个	-9.41537
自身	-9.41614
突然	-9.41641
远	-9.41673
总	-9.41704
▁但这	-9.41922
给我们	-9.41987
现代	-9.42015
▁如何	-9.42181
森林	-9.42204
教授	-9.42249
在我	-9.42265
进步	-9.42302
是不是	-9.42406
组成	-9.42431
还没有	-9.42565
接近	-9.42573
▁我们发现	-9.42638
记忆	-9.42798
而已	-9.42927
眼睛	-9.42955
▁而我	-9.42992
大部分	-9.43017
年轻人	-9.43235
绿色	-9.43249
八	-9.43254
会有	-9.43324
对我	-9.43386
恐惧	-9.4352
西	-9.43673
关心	-9.43716
T	-9.43781
反对	-9.43847
并非	-9.4388
金	-9.43973
相关	-9.43985
▁有些	-9.44022
称	-9.4404
我们现在	-9.44088
称为	-9.44107
不到	-9.44108
严重	-9.44128
▁这是我	-9.4417
发现了	-9.44198
母亲	-9.44328
享受	-9.44354
再次	-9.44368
▁每	-9.44372
按	-9.44385
课程	-9.44427
老鼠	-9.44441
之间的	-9.44474
坚持	-9.44535
旅行	-9.44602
嗯	-9.44711
所有人	-9.44739
警察	-9.44762
过程中	-9.44837
的学生	-9.44864
和平	-9.44928
作为一个	-9.44979
黑	-9.45001
变成了	-9.45041
婴儿	-9.45127
意味着	-9.45296
这次	-9.45322
出现了	-9.45517
▁很多	-9.45792
▁也就是说	-9.4581
年轻	-9.45855
倒	-9.46029
▁后来	-9.46047
用于	-9.46051
承认	-9.46093
穿	-9.4623
负责	-9.4623
工程师	-9.46348
挺	-9.46538
词	-9.46541
空	-9.46619
层	-9.46722
每一个	-9.46722
值得	-9.46779
坐	-9.46999
不得不	-9.47054
我们必须	-9.4707
的确	-9.47152
土地	-9.47199
深	-9.47229
▁就在	-9.47256
不过	-9.47303
周围	-9.47305
的设计	-9.47375
刚刚	-9.47461
观点	-9.47622
▁嗯	-9.4763
降低	-9.47691
转变	-9.47729
▁每个	-9.4773
这个项目	-9.47858
▁我们就	-9.47895
人员	-9.47949
文字	-9.48176
银行	-9.48249
尼	-9.48295
X	-9.48489
以为	-9.48507
导致	-9.48518
房子	-9.48597
可能是	-9.48857
沟通	-9.4892
E	-9.49013
当地	-9.49172
还要	-9.49181
往	-9.49184
片	-9.49211
的关系	-9.49223
使得	-9.49336
做什么	-9.4935
▁更	-9.49363
y	-9.49366
调	-9.49457
的变化	-9.49467
注意	-9.4954
冲突	-9.49717
的位置	-9.4974
成本	-9.49822
感染	-9.49901
灯	-9.49907
也没有	-9.4991
昆虫	-9.50013
检查	-9.50039
型	-9.50121
刚	-9.5024
▁我们将	-9.50432
罗	-9.50504
年里	-9.50569
你能	-9.50601
一件	-9.50747
站	-9.50749
e	-9.5088
工厂	-9.50983
出来的	-9.51007
情感	-9.51027
▁请	-9.51063
有趣	-9.51217
博物馆	-9.51331
K	-9.51348
▁第一	-9.5136
演奏	-9.5137
空气	-9.51546
距离	-9.51609
▁好的	-9.51669
▁来自	-9.51707
儿	-9.51722
的速度	-9.51777
▁这是我们	-9.5178
拍	-9.51788
后来	-9.51832
约	-9.51884
单	-9.51896
o	-9.51943
▁我相信	-9.51953
团体	-9.52091
英语	-9.52128
权力	-9.52235
亿美元	-9.5231
革命	-9.52324
英里	-9.52396
仅仅是	-9.5242
一份	-9.52517
讲述	-9.52517
装	-9.52609
▁是的	-9.52719
很快	-9.52788
监狱	-9.52791
消失	-9.52793
个体	-9.52797
十	-9.52863
除了	-9.52901
物体	-9.52911
错	-9.52954
每个人都	-9.53248
红	-9.53295
行业	-9.53425
成长	-9.53447
越来越	-9.53649
跑	-9.53704
▁目前	-9.53788
最近	-9.53975
先生	-9.54033
适应	-9.54047
收入	-9.54051
做到	-9.54066
的技术	-9.54094
正是	-9.54124
感兴趣	-9.54256
塑料	-9.54382
女	-9.54387
州	-9.54438
只要	-9.54457
了很多	-9.54463
痛苦	-9.54588
你在	-9.54632
援助	-9.54649
都没有	-9.54657
不需要	-9.54719
基础	-9.54731
建设	-9.54791
体系	-9.54798
广告	-9.54804
第一	-9.54807
记得	-9.55066
的情况下	-9.55189
小时	-9.55218
是这样的	-9.55256
相比	-9.55446
/	-9.55455
星系	-9.55505
基本上	-9.55524
药	-9.55638
也就是	-9.55651
文	-9.55686
变革	-9.55686
▁第二	-9.55731
神经元	-9.55752
▁她说	-9.55818
对此	-9.55852
恢复	-9.55925
牌	-9.56105
眼	-9.56119
获取	-9.56207
我也	-9.56235
台	-9.56238
资金	-9.5626
足够	-9.56263
疫苗	-9.5627
回家	-9.56393
检测	-9.56412
他人	-9.56413
人生	-9.56439
▁我们已经	-9.5646
阻止	-9.56461
应	-9.56508
注意到	-9.5651
▁可	-9.56562
快速	-9.56602
物理	-9.56605
▁如	-9.56628
墙	-9.56649
得以	-9.56793
i	-9.56863
国	-9.56914
场	-9.56971
身	-9.56972
这类	-9.57195
我们自己	-9.57232
M	-9.57239
且	-9.57257
语	-9.57313
条件	-9.57351
行星	-9.57423
—	-9.57501
房间	-9.57502
▁我的意思是	-9.57528
卫星	-9.57529
质量	-9.57567
平衡	-9.57588
少	-9.57621
▁他们说	-9.57659
创造了	-9.57676
▁我是	-9.57682
▁这意味着	-9.57794
派	-9.57838
缺乏	-9.57841
一边	-9.57913
塔	-9.57914
极	-9.57934
虽然	-9.57957
取得	-9.57993
学会	-9.58037
种族	-9.58066
我们能	-9.58069
的观点	-9.58071
大型	-9.58113
脚	-9.58137
内部	-9.5824
张	-9.58241
运作	-9.58244
恐龙	-9.58251
波	-9.58319
复杂的	-9.58378
刺激	-9.58406
u	-9.58526
让它	-9.58527
提	-9.58617
还在	-9.58762
之外	-9.58813
蛋白质	-9.58906
▁我开始	-9.5895
值	-9.58956
体内	-9.58991
正常	-9.59004
杂志	-9.59029
G	-9.59075
a	-9.5909
秒	-9.59105
信	-9.59133
皮	-9.59243
▁使	-9.59258
最重要的	-9.59289
所谓的	-9.59321
满足	-9.59396
我们会	-9.59452
诊断	-9.59462
那时	-9.59482
设计的	-9.59522
搜索	-9.59586
由于	-9.59707
认识到	-9.59709
信仰	-9.59749
感觉到	-9.59811
▁然后我	-9.59873
▁正如	-9.59952
化学	-9.59958
领导	-9.59965
我们已经	-9.60021
见	-9.60117
位置	-9.60143
排	-9.60208
会说	-9.60233
有可能	-9.60314
我们对	-9.60337
培养	-9.60349
温度	-9.60368
超	-9.60379
不仅仅是	-9.60459
下降	-9.60516
搞	-9.60523
一片	-9.60536
千	-9.60561
▁由于	-9.60619
很少	-9.60696
话	-9.60697
▁有时	-9.60775
某个	-9.60841
照	-9.60922
的未来	-9.60946
长大	-9.60948
针对	-9.60976
成为了	-9.61016
▁我就	-9.61026
购买	-9.61072
信任	-9.61177
笑	-9.61182
下去	-9.61184
输入	-9.61198
我知道	-9.61202
▁其	-9.61269
农业	-9.61349
色	-9.61445
的作品	-9.61446
哪	-9.61483
其他的	-9.61566
▁现在我们	-9.61575
很简单	-9.61585
鼓励	-9.61626
P	-9.61635
的内容	-9.61699
人体	-9.61727
肿瘤	-9.61744
问我	-9.6179
重复	-9.61809
牛	-9.61884
也可以	-9.61894
建	-9.61926
▁于是我	-9.62003
的项目	-9.62075
▁有时候	-9.62082
另外	-9.62219
难以	-9.62319
生物学	-9.62347
草	-9.62355
独立	-9.62414
英尺	-9.62548
长期	-9.62569
放到	-9.62625
▁看	-9.62701
基于	-9.62728
▁这不是	-9.62731
的名字	-9.62744
的经历	-9.62798
的新	-9.62903
和其他	-9.62933
永远	-9.63099
总统	-9.63142
强	-9.63155
花费	-9.63218
▁同样	-9.63327
▁给	-9.63477
权利	-9.6361
我们就	-9.63617
看到了	-9.63625
根本	-9.63674
弄	-9.63802
在这	-9.63831
形状	-9.63835
很有趣	-9.63847
▁这就	-9.63887
我们都	-9.63908
人的	-9.63911
所有这些	-9.6394
阿	-9.64033
规模	-9.64064
▁而这	-9.64078
穿过	-9.64135
一名	-9.64143
在于	-9.6418
从事	-9.64313
专业	-9.64373
部门	-9.64395
破坏	-9.64403
习惯	-9.64439
军队	-9.64482
武器	-9.64602
公共	-9.64604
扫描	-9.64608
蓝色	-9.64612
噢	-9.64638
高度	-9.64643
▁有人	-9.64749
纽约	-9.6476
器官	-9.64811
▁它会	-9.64811
他说	-9.64828
唯一	-9.64829
任何人	-9.64864
放弃	-9.64914
消耗	-9.65003
期间	-9.65008
重要的	-9.65146
冰	-9.65211
的所有	-9.6522
▁又	-9.65289
万人	-9.65297
很容易	-9.65313
医学	-9.6538
容易	-9.65382
背景	-9.65437
就有	-9.65447
脑	-9.65491
的朋友	-9.65537
两种	-9.65572
财富	-9.65604
▁好了	-9.65616
表面	-9.65654
想想	-9.65657
后面	-9.65658
下一个	-9.65661
则是	-9.65778
蜜蜂	-9.65892
播放	-9.65921
▁我们还	-9.65996
指	-9.66041
都能	-9.66074
情	-9.66086
结合	-9.66088
跳	-9.66197
攻击	-9.66199
走向	-9.66201
父亲	-9.66238
花了	-9.66269
制度	-9.66321
你要	-9.66485
业	-9.66497
所做的	-9.66504
直到	-9.66558
%。	-9.66574
▁在我们	-9.6663
▁之后	-9.66694
明显	-9.66702
▁但在	-9.66743
一群	-9.6676
状况	-9.66868
价格	-9.66901
有效	-9.67135
▁你看	-9.67142
的社会	-9.67184
▁我喜欢	-9.67223
选举	-9.67254
用户	-9.67284
左右	-9.67293
男孩	-9.67364
年龄	-9.6739
保证	-9.67453
竞争	-9.67501
早	-9.67563
▁根据	-9.67596
▁他是	-9.67852
这些数据	-9.67888
提到	-9.67953
块	-9.67977
费	-9.68005
交通	-9.68022
是为了	-9.68088
▁基本上	-9.68114
零	-9.68122
字	-9.68137
‘	-9.68334
的发展	-9.68436
阿富汗	-9.68447
一直在	-9.68506
很棒	-9.68514
玩具	-9.68549
你自己	-9.68557
是我	-9.68617
蚂蚁	-9.68637
即	-9.68725
▁我将	-9.68865
证据	-9.68893
接	-9.68899
▁我是说	-9.68935
复制	-9.69035
喝	-9.69048
拯救	-9.69052
面包	-9.69079
纳	-9.69088
出了	-9.69109
我们将	-9.692
安	-9.69256
的历史	-9.6932
上升	-9.69383
科	-9.6939
进行了	-9.69416
▁CA	-9.69423
气候	-9.69436
认知	-9.69461
污染	-9.69462
怎么样	-9.69528
四个	-9.69616
一部	-9.69621
名字	-9.69638
那就是	-9.69644
油	-9.69647
的工具	-9.69717
t	-9.69911
象	-9.69948
哈	-9.69978
的看法	-9.69994
成功的	-9.70077
’	-9.70145
公民	-9.70155
的部分	-9.70173
有能力	-9.70524
怀疑	-9.7059
范围	-9.70646
▁但他们	-9.70667
这是个	-9.70677
▁对我来说	-9.70687
把这些	-9.70717
贫穷	-9.7072
火星	-9.70755
表	-9.70773
这样一个	-9.70801
坏	-9.7081
收到	-9.70815
拒绝	-9.70855
原则	-9.70875
比赛	-9.70886
才会	-9.71123
它们的	-9.71144
文明	-9.71163
从未	-9.71188
相同的	-9.71254
给予	-9.71296
采用	-9.71317
布	-9.71373
的数量	-9.71538
机制	-9.71588
开车	-9.71592
好了	-9.71599
▁这些是	-9.71614
也能	-9.71634
▁我们都	-9.7166
发出	-9.71688
我说	-9.71756
方案	-9.71765
贫困	-9.71771
我们应该	-9.71782
的作用	-9.71784
人物	-9.71801
n	-9.71886
积极	-9.7195
▁他们是	-9.71964
不喜欢	-9.72015
满	-9.72048
真实的	-9.72054
▁克里斯	-9.72079
细节	-9.72116
好像	-9.72172
▁我不知道	-9.72307
玩耍	-9.72309
我对	-9.72327
大众	-9.72335
贡献	-9.72394
记者	-9.72416
权	-9.72444
H	-9.72445
都可以	-9.72497
元素	-9.72526
来了	-9.72568
其中的	-9.72744
依靠	-9.72775
如果我	-9.72775
特征	-9.7291
的事物	-9.72939
非常重要	-9.72946
队	-9.72978
主义	-9.7298
▁在这里	-9.7298
邀请	-9.73022
创意	-9.73048
▁我对	-9.73161
法国	-9.73176
伤害	-9.73229
愤怒	-9.73251
位于	-9.73278
看上去	-9.73288
照顾	-9.7334
是关于	-9.73348
一台	-9.7338
▁于是我们	-9.73449
日本	-9.73538
差	-9.73546
星球	-9.7362
的目标	-9.73627
巴	-9.73792
每次	-9.73819
关键	-9.73826
对方	-9.73843
群体	-9.73915
肉	-9.73932
可以在	-9.74012
成为一个	-9.74014
的书	-9.74016
成员	-9.74058
普通	-9.74064
公众	-9.74092
随着	-9.74126
告诉你们	-9.74134
市	-9.7414
报道	-9.74143
找出	-9.74209
格	-9.74244
七	-9.74366
把他们	-9.74397
同意	-9.7444
的反应	-9.74502
制	-9.7452
智慧	-9.74576
屏幕	-9.74619
产生了	-9.74706
做过	-9.7472
应对	-9.74793
迅速	-9.74834
员	-9.74868
▁这是一种	-9.74994
灾难	-9.74997
定	-9.75011
仍	-9.75012
出生	-9.75086
机械	-9.75112
黑人	-9.75121
er	-9.75183
办法	-9.75193
报告	-9.75212
差异	-9.75244
算	-9.75282
动力	-9.75288
林	-9.75319
有机会	-9.75373
圈	-9.75387
交易	-9.75402
行走	-9.7542
吸引	-9.7552
▁现在我	-9.7558
走进	-9.75594
▁但它	-9.75601
▁让他们	-9.75605
▁这就是我	-9.7563
电池	-9.7563
找到了	-9.75695
相对	-9.75808
哪些	-9.75896
对我来说	-9.75943
让人们	-9.75943
造成	-9.75971
相关的	-9.75987
▁那里	-9.76066
聪明	-9.76093
▁尤其是	-9.76106
▁然后你	-9.76173
追求	-9.76222
▁我们应该	-9.76257
部落	-9.76263
称之为	-9.76286
F	-9.7629
▁不要	-9.76373
▁当他们	-9.76405
期待	-9.7648
现场	-9.76525
博士	-9.76543
巨大	-9.76554
不仅	-9.76594
这儿	-9.76605
德国	-9.76616
调整	-9.76754
附近	-9.76755
的一些	-9.76828
▁他们在	-9.76891
的公司	-9.76923
根	-9.76951
过的	-9.76953
另	-9.77053
时候	-9.7706
改革	-9.77075
的大脑	-9.77083
鸟	-9.7709
进去	-9.77123
哪里	-9.77129
心理	-9.7718
▁这些人	-9.77276
尽管	-9.77373
群	-9.77382
观看	-9.77391
回去	-9.7747
托	-9.77485
犯罪	-9.77488
课	-9.77501
家里	-9.77577
公园	-9.77583
依赖	-9.77618
?“	-9.77718
不错	-9.77719
目的	-9.77808
这个人	-9.7783
发展中国家	-9.7788
有多	-9.77913
面前	-9.77916
艾滋病	-9.78016
维持	-9.78057
超级	-9.78081
这个故事	-9.78096
▁通常	-9.78134
麻烦	-9.78183
造	-9.78261
死去	-9.7828
对我们	-9.78327
曲线	-9.78404
另外一个	-9.78432
表明	-9.78563
教师	-9.78585
尽	-9.78645
食品	-9.78656
执行	-9.78739
不太	-9.78748
改进	-9.78803
律师	-9.78819
失去了	-9.78827
生命的	-9.78848
会被	-9.78901
谈谈	-9.78919
▁正是	-9.78925
我已经	-9.78944
▁大约	-9.78954
大的	-9.78959
常	-9.79002
极其	-9.79095
技能	-9.79118
R	-9.79173
碳	-9.79408
像这样	-9.79419
▁我们能	-9.79483
发表	-9.79533
正确的	-9.79566
兴奋	-9.79591
太阳能	-9.79649
的城市	-9.79649
纸	-9.79655
取	-9.79713
职业	-9.79715
把我	-9.79744
▁「	-9.79855
发生了什么	-9.7986
所说的	-9.79885
的存在	-9.79915
教学	-9.79984
其实是	-9.79994
▁无论	-9.79994
是这样	-9.80008
▁我发现	-9.80036
地点	-9.80078
恩	-9.80084
▁你会发现	-9.80092
电力	-9.80105
有多少	-9.80131
投票	-9.80136
面临	-9.80315
真是	-9.80337
完成了	-9.80355
马上	-9.80362
我们知道	-9.80385
生活中	-9.80433
翻译	-9.80474
微生物	-9.80525
判断	-9.80546
伊	-9.80623
消费者	-9.80662
商品	-9.80751
在这儿	-9.80805
走到	-9.80851
▁正在	-9.81044
人类的	-9.81102
第二	-9.81148
呀	-9.81156
是从	-9.81195
将其	-9.81205
完美	-9.81291
谈到	-9.81291
平均	-9.81314
▁使得	-9.81332
相同	-9.81378
进一步	-9.81404
才是	-9.81416
▁我还	-9.81421
重建	-9.81427
角度	-9.81461
特殊	-9.81462
存在于	-9.81509
一点点	-9.81549
这些问题	-9.81625
矛盾	-9.81625
遇到	-9.81632
酒	-9.81639
▁另一个	-9.81642
▁第一个	-9.81646
正确	-9.81688
件	-9.81714
▁我们把	-9.81842
核	-9.81848
另一种	-9.81926
各位	-9.81935
个小时	-9.81955
穆斯林	-9.82028
推动	-9.82096
在我们	-9.82103
做一个	-9.82115
一座	-9.8212
类似的	-9.82133
识别	-9.82167
什么是	-9.82172
按照	-9.82178
实践	-9.82186
模仿	-9.8219
河	-9.82202
唱	-9.82342
这本书	-9.82368
我想要	-9.82415
极端	-9.82463
一本	-9.825
还没	-9.82514
应该是	-9.82542
出现在	-9.82669
▁我现在	-9.82681
停	-9.82682
萨	-9.82709
旋转	-9.82725
产	-9.82733
阳光	-9.82745
▁在美国	-9.82778
也不会	-9.82828
糖	-9.82903
被称为	-9.82955
角色	-9.82998
对吗	-9.8303
办公室	-9.83046
▁你能	-9.83217
金钱	-9.83268
看过	-9.83288
见到	-9.83343
▁跟	-9.83382
西方	-9.83391
大小	-9.83393
未来的	-9.83539
▁作为一个	-9.8355
去年	-9.83602
错了	-9.83644
维	-9.8368
毛	-9.83696
合	-9.8371
板	-9.83718
弹	-9.83742
▁因为他	-9.83748
不一样	-9.83805
穷人	-9.83862
是怎么	-9.83897
激励	-9.84004
未	-9.84025
确保	-9.84056
不想	-9.84093
种植	-9.84101
建筑师	-9.84116
的空间	-9.84119
衣服	-9.84162
▁他在	-9.84174
产生的	-9.84214
接下来	-9.84273
指出	-9.8431
拿着	-9.84311
有时	-9.84388
没有人	-9.84506
N	-9.84567
爆炸	-9.84619
很大的	-9.8462
如今	-9.84676
▁B	-9.84761
把这个	-9.84791
不好	-9.84793
呈现	-9.848
作出	-9.8482
循环	-9.84843
性别	-9.84856
方	-9.84859
放大	-9.84877
原子	-9.84932
浪费	-9.84967
前面	-9.8501
交谈	-9.85109
责任	-9.85127
共享	-9.85165
是非常	-9.85169
拿到	-9.85192
障碍	-9.85283
▁但是他们	-9.85306
一套	-9.85356
练习	-9.85357
意	-9.85364
是怎样	-9.85388
▁需要	-9.85399
游	-9.85446
▁在那里	-9.85467
说过	-9.85503
基金会	-9.85509
英雄	-9.85512
思维	-9.85636
说到	-9.8567
还会	-9.85703
富有	-9.8573
来做	-9.85751
▁想象一下	-9.85763
枪	-9.85829
有些人	-9.85853
平	-9.86042
自动	-9.86177
充满了	-9.86222
毒品	-9.86377
培训	-9.8639
策略	-9.86395
演示	-9.86403
可以看到	-9.86408
奖励	-9.86433
的能量	-9.86593
'	-9.866
包	-9.8662
古	-9.86622
来的	-9.86848
▁这些都是	-9.86883
免费	-9.86887
也在	-9.8689
依然	-9.86901
感知	-9.86915
员工	-9.86933
一些东西	-9.86993
年后	-9.87001
避免	-9.87038
品	-9.87069
私人	-9.87099
▁这就是为什么	-9.87111
▁任何	-9.87113
那样的	-9.87126
这点	-9.87154
上了	-9.87162
不应该	-9.87162
感受到	-9.87397
靠近	-9.87409
平等	-9.875
乐观	-9.87533
智能	-9.8754
云	-9.87554
决策	-9.87564
视	-9.8757
记住	-9.87586
这个想法	-9.87602
给大家	-9.87614
有两个	-9.87676
▁有一个	-9.87689
平台	-9.87694
大家都	-9.87727
换	-9.87742
的钱	-9.87755
啦	-9.87929
以下	-9.87979
生活的	-9.88017
美丽的	-9.88027
▁这也是	-9.88066
沙	-9.88111
南	-9.88119
技巧	-9.88134
有一种	-9.88134
带来了	-9.88181
我不知道	-9.88266
告诉他们	-9.88286
不了	-9.88311
▁《	-9.88337
他们会	-9.88372
的可能性	-9.8839
一个问题	-9.88407
对待	-9.88504
把自己	-9.88528
什么样的	-9.88535
黑猩猩	-9.8856
▁我当时	-9.88565
特定	-9.88577
玻璃	-9.88595
销售	-9.8862
▁所有的	-9.8872
形	-9.88744
▁至少	-9.88777
一个新的	-9.88833
▁谁	-9.88854
▁中国	-9.88952
美丽	-9.89021
旁边	-9.89091
理由	-9.89097
▁而这些	-9.8918
漫画	-9.89218
上学	-9.8922
太空	-9.89275
b	-9.89337
成就	-9.89409
了解到	-9.89435
▁你需要	-9.89449
的生物	-9.89473
你可以看到	-9.89507
不仅仅	-9.8956
自行车	-9.89562
推	-9.89672
留下	-9.89692
个月	-9.89705
▁因为你	-9.89752
倾听	-9.89761
的时代	-9.89775
秘密	-9.89781
辩论	-9.89799
---	-9.89805
的女性	-9.89812
地球上	-9.8982
养	-9.8982
▁你就	-9.89888
▁是一个	-9.89907
就要	-9.89951
是谁	-9.90017
集体	-9.90069
资料	-9.90148
舞蹈	-9.90159
获得了	-9.90231
太多	-9.90268
标记	-9.90287
往往	-9.903
那儿	-9.90414
▁问题是	-9.90479
更大	-9.90483
人群	-9.90485
效应	-9.90503
引起	-9.90529
▁开始	-9.90558
珊瑚	-9.90654
启发	-9.90654
层面	-9.90697
联合国	-9.9075
▁这一	-9.90771
大自然	-9.90789
评论	-9.90797
也不	-9.90854
▁才能	-9.90906
▁许多	-9.90932
▁整个	-9.90939
▁并不是	-9.90942
不断地	-9.90946
▁但他	-9.91057
▁他们都	-9.91061
冷	-9.91091
,"	-9.91152
我现在	-9.91155
旧	-9.91241
解决方案	-9.91263
燃料	-9.91295
脆弱	-9.91339
姆	-9.91388
腿	-9.91394
追踪	-9.91436
▁叫做	-9.91451
切	-9.91466
身份	-9.9147
寻求	-9.91473
做一些	-9.91516
采取	-9.91517
打算	-9.91566
多么	-9.91571
这不是	-9.91572
的一切	-9.91589
星	-9.91623
稍微	-9.91722
将它	-9.91751
▁不管	-9.91773
因为我	-9.91827
混乱	-9.91885
我能	-9.91935
给他	-9.91937
实施	-9.92008
待	-9.92031
公	-9.92107
音	-9.92152
明	-9.92187
工	-9.92227
解决问题	-9.92247
尊重	-9.92277
可能性	-9.92379
▁每个人都	-9.92441
一半	-9.92499
慢慢	-9.9253
了吗	-9.92575
疟疾	-9.92581
用了	-9.92593
▁特别是	-9.92604
爸爸	-9.92604
早期	-9.9264
伊朗	-9.92667
别的	-9.92697
▁是因为	-9.92703
掌握	-9.92746
粒子	-9.92767
猪	-9.92785
渴望	-9.92824
短	-9.92881
没有什么	-9.92882
我们也	-9.92896
作家	-9.92922
基	-9.92943
是很	-9.92962
同一个	-9.93085
红色	-9.93119
一辆	-9.93125
结论	-9.93154
室	-9.93157
的需求	-9.93227
▁最近	-9.9324
的过程中	-9.93254
强调	-9.93277
一些人	-9.93327
途径	-9.93358
式的	-9.93404
投	-9.93483
有所	-9.93522
▁哦	-9.93551
你需要	-9.93563
发布	-9.93569
双	-9.93618
产业	-9.93684
主	-9.93726
去看	-9.93801
战	-9.93811
期望	-9.93948
▁显然	-9.93962
发明了	-9.93968
生态	-9.94009
创造出	-9.94021
这张	-9.94037
没什么	-9.94058
他们在	-9.94084
迪	-9.94091
话题	-9.94122
因为我们	-9.94123
通	-9.94172
展现	-9.94178
▁我们希望	-9.94199
见过	-9.9426
深入	-9.94266
哇	-9.94358
公里	-9.94363
一幅	-9.94426
干细胞	-9.94436
却是	-9.94453
瓦	-9.94505
为此	-9.94526
的运动	-9.94528
在你	-9.94529
不够	-9.9456
支付	-9.94565
▁大概	-9.94584
▁因此我们	-9.94609
也不是	-9.94708
右边	-9.94741
普	-9.94778
▁这也	-9.94905
角	-9.94933
▁每天	-9.94961
等待	-9.94975
前进	-9.95004
约翰	-9.95034
笔	-9.95054
看来	-9.95097
▁过去	-9.95098
这位	-9.95121
▁几乎	-9.95179
石	-9.95199
伤	-9.95304
我将	-9.95313
改造	-9.95326
听说过	-9.95358
样本	-9.95363
▁A	-9.95384
I	-9.95483
的角度	-9.95492
▁你必须	-9.95497
很好的	-9.95505
接着	-9.95574
工人	-9.95722
当地的	-9.95744
▁非常	-9.95816
同情	-9.95821
▁一旦	-9.95845
的动物	-9.9586
为我们	-9.95907
集中	-9.95914
代码	-9.95956
我们所	-9.95972
▁我们对	-9.96028
预防	-9.96071
毫无	-9.96073
修复	-9.96079
假	-9.96085
这条	-9.96085
送	-9.96118
这张照片	-9.96126
▁观众	-9.96141
不是吗	-9.96297
的角色	-9.96322
惊人的	-9.96423
制定	-9.96568
▁这就是我们	-9.96594
塞	-9.9663
我喜欢	-9.96638
农民	-9.96724
就开始	-9.96861
系	-9.96972
巴西	-9.96981
晚上	-9.96992
第二个	-9.97029
创建	-9.97059
报纸	-9.97115
会在	-9.97123
传递	-9.97161
热爱	-9.97166
雷	-9.9719
提供了	-9.97192
移民	-9.97265
火箭	-9.97301
像是	-9.9731
步骤	-9.9732
生态系统	-9.97441
释放	-9.97523
利益	-9.97538
糟糕	-9.97547
乱	-9.97549
的环境	-9.97558
做得	-9.97565
即将	-9.97574
具体	-9.97622
够	-9.97628
占	-9.97676
岁的时候	-9.97686
沙漠	-9.97736
采访	-9.9779
▁所以他们	-9.97792
骨	-9.97854
冒险	-9.97882
黑客	-9.97892
腐败	-9.97908
不可	-9.97939
▁[	-9.97957
的核心	-9.97979
穿着	-9.98003
理想	-9.98039
对我说	-9.98058
心脏	-9.98083
清楚	-9.98097
虫	-9.98102
的生命	-9.98192
谷歌	-9.9821
就是这样	-9.98231
的时刻	-9.98256
常常	-9.9827
▁我已经	-9.98397
的重要性	-9.98469
的价值	-9.98532
扩大	-9.98552
的区域	-9.98561
走了	-9.98572
比例	-9.98582
在那儿	-9.98601
▁或者说	-9.98716
一部分	-9.98731
允许	-9.98798
页	-9.98839
了一些	-9.98861
肌肉	-9.98877
什么时候	-9.98903
一旦	-9.9897
客户	-9.98995
苹果	-9.99027
真相	-9.99047
森	-9.99082
保留	-9.9911
展示了	-9.99141
自闭症	-9.99163
覆盖	-9.9917
慢	-9.99197
看待	-9.99219
仅	-9.99246
事业	-9.99262
我希望	-9.99291
设想	-9.99315
整	-9.99359
奥	-9.99386
▁我们从	-9.99446
创造力	-9.99522
你就	-9.99534
有一天	-9.99549
恒星	-9.99568
俄罗斯	-9.99616
基础设施	-9.99636
金融	-9.99679
之所以	-9.99689
的结构	-9.99692
彻底	-9.997
提升	-9.99701
演员	-9.99741
统计	-9.99898
物品	-9.9992
美国的	-9.99964
的一种	-10
d	-10.0006
是有	-10.0008
岛	-10.0021
或者是	-10.0024
强大	-10.0024
博客	-10.0026
级	-10.0037
使我们	-10.004
几年	-10.0054
各	-10.0055
这两个	-10.0055
带到	-10.0056
没法	-10.0056
的食物	-10.0069
理念	-10.007
说的	-10.0074
状	-10.0075
亚	-10.0086
普遍	-10.0087
▁T	-10.0089
相似	-10.0094
启动	-10.0102
文件	-10.0103
九	-10.0106
估计	-10.011
最初	-10.0111
▁随着	-10.012
将要	-10.012
▁在一个	-10.0124
皮肤	-10.0133
经济学家	-10.0133
我们发现	-10.0137
街	-10.0139
稳定	-10.014
雕塑	-10.0144
已经被	-10.0144
亿人	-10.0145
文章	-10.0146
带有	-10.0147
版本	-10.0149
谈话	-10.0156
企鹅	-10.0159
的人口	-10.0162
进来	-10.0163
承诺	-10.0166
动画	-10.0166
有趣的	-10.0167
原	-10.017
工作的	-10.0173
的图片	-10.0177
周	-10.0183
对抗	-10.0187
受伤	-10.0189
▁每年	-10.0189
带来的	-10.0191
字母	-10.0201
世	-10.0206
宣传	-10.0211
望远镜	-10.0213
鲨鱼	-10.0217
听过	-10.0219
死于	-10.0223
娱乐	-10.0226
▁你可能	-10.0226
留	-10.0228
促进	-10.0229
▁所以说	-10.0229
传统的	-10.0231
今年	-10.0231
更为	-10.0231
出发	-10.0232
吸收	-10.0234
▁S	-10.0237
即使	-10.024
它会	-10.0245
密码	-10.0245
▁我们认为	-10.0249
最大	-10.025
为你	-10.025
为何	-10.0251
猴子	-10.0251
能否	-10.0253
不只是	-10.0257
的意义	-10.0258
我开始	-10.026
▁这里是	-10.0266
你们的	-10.0267
▁因为这	-10.0271
合成	-10.0274
展开	-10.0279
例如	-10.0283
跟我	-10.0284
摄影	-10.0287
资助	-10.0289
停下来	-10.03
看不到	-10.0301
成果	-10.0307
报	-10.031
岁的	-10.0312
灵感	-10.0313
较	-10.0331
样	-10.0331
你必须	-10.0333
不平等	-10.0336
写的	-10.034
构建	-10.034
疯狂	-10.0342
可怕的	-10.0346
驾驶	-10.0346
节目	-10.0347
欣赏	-10.0353
传感器	-10.0354
包含	-10.0358
我们认为	-10.0358
c	-10.0361
给了	-10.0363
分离	-10.0363
消费	-10.0368
传	-10.0368
论	-10.037
趋势	-10.0373
安排	-10.0375
血	-10.0375
伦敦	-10.0382
然	-10.0383
▁在这	-10.0385
问题是	-10.0386
天空	-10.0391
同性恋	-10.0393
▁是在	-10.0394
显然	-10.0396
的演讲	-10.0398
有时候	-10.04
万美元	-10.0406
效率	-10.0411
我相信	-10.0412
跟踪	-10.0413
收	-10.0416
可以通过	-10.0417
有许多	-10.0418
编辑	-10.0418
列	-10.0422
▁世界上	-10.0423
品牌	-10.0423
衡量	-10.0426
▁去年	-10.0429
这么说	-10.0434
猫	-10.0439
都要	-10.0443
保存	-10.0445
处在	-10.0446
年来	-10.0451
这么多	-10.0453
食	-10.0461
所在	-10.0462
贴	-10.0465
海豚	-10.0466
重视	-10.0466
家人	-10.0469
情况下	-10.047
▁因此我	-10.0472
岁时	-10.0475
我所	-10.0476
交	-10.048
▁但是在	-10.0488
听起来	-10.0489
激发	-10.049
拿出	-10.0496
符号	-10.0501
一个小	-10.0505
紧张	-10.0506
强大的	-10.0512
理性	-10.0518
氧气	-10.0518
熟悉	-10.0518
百分之	-10.0521
发挥	-10.0524
二氧化碳	-10.0525
经历了	-10.0529
奖	-10.0537
界	-10.0543
最好	-10.0544
繁殖	-10.0547
运输	-10.0548
众多	-10.0548
鱼类	-10.0555
的组织	-10.0562
之类的	-10.0564
没错	-10.0566
在我的	-10.0572
给你们	-10.058
冲	-10.0592
▁我把	-10.0602
在印度	-10.0606
符合	-10.0608
的病人	-10.061
做的事情	-10.061
志愿者	-10.0611
他们自己	-10.0612
民众	-10.0614
摄像机	-10.0615
对你	-10.062
流动	-10.0621
前往	-10.0622
♪	-10.0624
睡眠	-10.0625
▁换句话说	-10.063
城	-10.0631
质	-10.0632
就这样	-10.0646
还能	-10.0651
争论	-10.0651
地面	-10.0652
相当于	-10.0652
伊拉克	-10.0656
居住	-10.0663
不行	-10.0664
的基因	-10.0665
规划	-10.0666
▁我们正在	-10.0671
左边	-10.0672
完	-10.0676
探讨	-10.0678
消息	-10.0682
都被	-10.0684
赋予	-10.0685
的形式	-10.0687
得多	-10.0687
好奇	-10.0696
犯	-10.0697
的语言	-10.0702
什么呢	-10.0706
以来	-10.0707
翻	-10.0708
打破	-10.0713
社交	-10.0725
▁我从	-10.0728
我们能够	-10.0729
高中	-10.073
意外	-10.0734
O	-10.0737
特性	-10.0741
研发	-10.0748
供应	-10.075
▁不仅仅是	-10.0753
过了	-10.0765
一切都	-10.0769
画面	-10.0776
理	-10.0777
大象	-10.0777
全球化	-10.0784
逻辑	-10.0787
朝	-10.0794
一件事	-10.0795
不管	-10.0795
L	-10.0796
说道	-10.08
的知识	-10.0807
立	-10.0807
▁很多人	-10.0811
试	-10.0811
观念	-10.0815
无论	-10.0821
得到的	-10.0823
▁我们用	-10.0825
抓住	-10.0827
▁它可以	-10.0827
为我	-10.084
想知道	-10.0844
的话题	-10.0846
点击	-10.0848
r	-10.0852
外面	-10.0854
商	-10.0855
能在	-10.0856
土壤	-10.086
亚洲	-10.0864
老人	-10.0871
图表	-10.0872
多了	-10.0877
协调	-10.0882
珊瑚礁	-10.0882
得知	-10.0883
变得更	-10.0885
全国	-10.0886
鞋	-10.0888
那么多	-10.0889
实	-10.0891
开心	-10.0893
仪器	-10.0893
▁只	-10.0894
嘿	-10.0899
伟大	-10.0902
第	-10.0907
▁孩子们	-10.0916
发射	-10.0919
帮	-10.0922
镜头	-10.0923
懂得	-10.0933
▁它们是	-10.0934
奇	-10.0937
在此	-10.0937
举	-10.094
和你	-10.094
黑洞	-10.0941
人性	-10.0941
从来没有	-10.0942
刚才	-10.0949
一组	-10.095
年轻的	-10.0952
终于	-10.0958
▁进行	-10.0961
禁止	-10.0961
Google	-10.097
的不同	-10.0982
▁你要	-10.0983
核心	-10.0985
的实验	-10.0987
▁一位	-10.099
引擎	-10.1006
细	-10.1006
混合	-10.1006
▁我记得	-10.1006
能看到	-10.1009
书籍	-10.1009
哪个	-10.1011
看一下	-10.1015
确实是	-10.1017
所需的	-10.1018
黑暗	-10.1026
有没有	-10.1031
你想	-10.1037
症状	-10.1038
设施	-10.1039
代	-10.1049
轻	-10.1051
写了	-10.1053
早上	-10.1056
笑声	-10.1059
完成的	-10.106
的同时	-10.1062
超越	-10.1062
金属	-10.1069
微笑	-10.1081
突破	-10.1084
规定	-10.1085
相机	-10.1085
恐怖主义	-10.1093
▁我想要	-10.11
之处	-10.1103
▁就会	-10.1103
之下	-10.1116
同事	-10.1125
库	-10.1129
圣	-10.113
好处	-10.113
直	-10.1131
想象一下	-10.1132
经	-10.1134
杀死	-10.1135
流行	-10.1137
的主要	-10.114
商店	-10.1143
环保	-10.1151
步	-10.1152
哲学	-10.1152
完美的	-10.1153
蓝	-10.1155
磅	-10.1155
青少年	-10.1156
仪式	-10.1156
宣布	-10.1157
组成的	-10.1163
气体	-10.1166
预算	-10.1169
教堂	-10.117
放进	-10.1172
结婚	-10.1175
某	-10.1181
图书馆	-10.1181
网上	-10.1185
诗	-10.1188
离开了	-10.1194
▁笑声	-10.1194
可以用	-10.1195
优势	-10.1209
诊所	-10.1212
诗歌	-10.1217
有一点	-10.122
回应	-10.1222
世界的	-10.1225
袭击	-10.1226
交换	-10.1227
落	-10.123
▁你的	-10.123
原本	-10.1231
让他	-10.1232
的活动	-10.1232
居民	-10.1235
联系起来	-10.1236
▁但事实上	-10.1238
更大的	-10.1239
改变世界	-10.1241
很可能	-10.1247
学院	-10.1251
患有	-10.1253
热情	-10.1254
来讲	-10.1258
你不能	-10.1258
架	-10.126
这项	-10.126
人工	-10.1263
安德森	-10.1265
▁而在	-10.1266
措施	-10.1269
雪	-10.1285
那天	-10.1287
费用	-10.1294
p	-10.1296
治愈	-10.1297
儿子	-10.1302
▁使用	-10.1303
命	-10.1304
存活	-10.131
药品	-10.1313
个国家	-10.1315
女儿	-10.1316
地下	-10.1318
难民	-10.1319
到处	-10.1322
立刻	-10.1324
展览	-10.1326
同情心	-10.1329
心脏病	-10.1329
鸡	-10.1333
奇怪	-10.1333
木	-10.1334
的模式	-10.1336
小组	-10.1336
查看	-10.1337
师	-10.1341
在那	-10.1347
美好	-10.1352
的效果	-10.1359
毕业	-10.1364
底	-10.1364
很明显	-10.1365
房	-10.1367
庆祝	-10.1367
这只	-10.1367
图案	-10.1373
街道	-10.1377
白人	-10.1379
曼	-10.1379
致力于	-10.1381
非洲的	-10.1384
损失	-10.1386
进展	-10.1387
漂亮	-10.1388
铁	-10.1389
雨	-10.1389
推广	-10.1393
十年	-10.1394
▁在过去的	-10.1394
随机	-10.1398
在非洲	-10.14
适合	-10.1405
有效的	-10.1407
人士	-10.142
究竟	-10.1421
这个国家	-10.1425
▁希望	-10.1428
修	-10.1434
m	-10.1434
这段	-10.1434
的意思	-10.1438
扩张	-10.144
地理	-10.144
舞台	-10.1441
▁有些人	-10.1446
异	-10.1446
这些信息	-10.1447
唯一的	-10.1449
没人	-10.1451
手段	-10.1454
经济增长	-10.1455
乐	-10.1463
他们是	-10.1467
写作	-10.1478
压	-10.1478
着手	-10.1479
▁这里有	-10.148
种类	-10.1481
算法	-10.1486
咖啡	-10.1489
的音乐	-10.149
特定的	-10.1493
▁如果他们	-10.1494
编	-10.1495
重大	-10.1495
短信	-10.1502
看了	-10.1505
的第一个	-10.1506
座	-10.1511
取决于	-10.1512
▁因为在	-10.1517
在你的	-10.1522
▁当时我	-10.1522
▁有着	-10.1537
两次	-10.1539
的状态	-10.1539
百万	-10.155
好消息	-10.1554
史	-10.1556
士兵	-10.156
▁C	-10.1565
走出	-10.157
将来	-10.1575
环境中	-10.1577
南非	-10.1577
领导者	-10.1579
原始	-10.1581
融合	-10.1588
其中一个	-10.1604
建立一个	-10.1605
主题	-10.1611
加拿大	-10.1617
今天的	-10.1617
定位	-10.1617
任	-10.1619
组合	-10.162
赛	-10.1627
▁他们可以	-10.1628
五个	-10.1638
异常	-10.164
连续	-10.1643
幻灯片	-10.1644
这场	-10.1646
丝	-10.1648
战斗	-10.165
些什么	-10.1651
奴隶	-10.1655
▁全球	-10.1663
某人	-10.1665
评估	-10.1665
奇迹	-10.1672
关	-10.1673
方面的	-10.1674
的理论	-10.1689
▁每一个	-10.1696
学家	-10.1698
的理念	-10.1698
▁无论是	-10.17
的态度	-10.1701
an	-10.1703
各种各样的	-10.1703
生成	-10.1703
▁就能	-10.1708
我们如何	-10.1712
历史上	-10.1726
正如	-10.1726
神奇的	-10.1728
生意	-10.173
饥饿	-10.173
旁	-10.173
建筑物	-10.173
克服	-10.1731
酷	-10.1731
疼痛	-10.1731
转移	-10.1731
▁但是这	-10.1735
的产品	-10.1737
的基础	-10.1739
的建筑	-10.1739
供	-10.1742
▁第三	-10.1744
▁完全	-10.1748
▁一	-10.175
鸟类	-10.1753
我父亲	-10.1757
可是	-10.1773
加上	-10.1774
▁向	-10.1774
很有	-10.1774
清	-10.1774
▁这对	-10.178
勒	-10.1783
慈善	-10.1786
的系统	-10.1793
光线	-10.1794
正义	-10.1797
的风险	-10.1799
利润	-10.1803
▁我们看到	-10.1806
资本主义	-10.181
▁政府	-10.1811
刀	-10.1816
总结	-10.1818
洞穴	-10.1825
会发生	-10.1834
遭受	-10.1834
告诉大家	-10.1836
女士	-10.1846
非常好	-10.1851
▁大多数	-10.1856
厕所	-10.1859
手指	-10.1861
发送	-10.1863
▁是否	-10.1863
标签	-10.1863
▁是我们	-10.1867
死了	-10.187
帮助我们	-10.1872
活跃	-10.1874
诺	-10.1875
繁荣	-10.1876
片段	-10.1876
边缘	-10.1878
你看	-10.188
燃烧	-10.188
亲	-10.1881
在我们的	-10.189
一个国家	-10.1891
在纽约	-10.1899
灭绝	-10.1899
▁这是在	-10.19
不可思议的	-10.1907
的孩子们	-10.1917
有机	-10.1921
存在着	-10.1921
动态	-10.1924
▁我们想	-10.1926
集	-10.1926
你是	-10.1933
▁我有	-10.1938
斗争	-10.1944
过去的	-10.1945
物理学	-10.1945
小小的	-10.1949
羊	-10.195
基因组	-10.1951
粮食	-10.1954
质疑	-10.1955
就像是	-10.1955
但我	-10.1957
那边	-10.1958
构造	-10.1959
墨西哥	-10.1964
设置	-10.1964
一系列的	-10.1966
企业家	-10.1978
直觉	-10.1981
摆脱	-10.1984
▁此外	-10.1986
▁我们开始	-10.1987
爆发	-10.199
当他们	-10.199
我们是	-10.1999
背后	-10.2
更高	-10.2001
蚊子	-10.2005
开展	-10.2016
懂	-10.2029
是对的	-10.203
的文化	-10.2033
al	-10.2035
若	-10.2037
这边	-10.2038
二十	-10.2057
▁想想	-10.2057
感官	-10.2058
典型的	-10.2062
各个	-10.2064
以色列	-10.207
付出	-10.2073
他在	-10.2086
编程	-10.2091
盖	-10.2091
实际上是	-10.2099
受害者	-10.2099
使用的	-10.2099
任何一个	-10.2103
是指	-10.2104
烟	-10.2105
湖	-10.2105
熊	-10.2105
道路	-10.211
一同	-10.2111
在线	-10.2112
分散	-10.2113
更容易	-10.2119
演出	-10.2121
在网上	-10.2129
夫	-10.2133
指导	-10.2137
年间	-10.2138
的方向	-10.2141
对象	-10.2142
在想	-10.2144
同一	-10.2147
的物种	-10.2148
的办法	-10.2155
▁我需要	-10.2157
飞行器	-10.2163
实在	-10.2164
做这个	-10.2168
录像	-10.2168
省	-10.2169
兰	-10.2173
感谢	-10.2174
▁就像是	-10.2179
本地	-10.2181
・	-10.2183
广泛	-10.2184
的答案	-10.2185
般	-10.2189
的中心	-10.2194
解	-10.2195
卫生	-10.2197
穿越	-10.2204
建立了	-10.2208
的资源	-10.2212
服用	-10.2214
▁我看到	-10.2219
分开	-10.2222
都不	-10.2227
言	-10.2229
原理	-10.223
讲话	-10.2233
小型	-10.2235
:"	-10.2238
种子	-10.2242
份	-10.225
的目的	-10.2256
贸易	-10.2259
▁成为	-10.2259
将这些	-10.226
纤维	-10.226
顿	-10.2264
两者	-10.2265
自杀	-10.2267
所有人都	-10.2273
涉及	-10.2279
已经在	-10.2279
一本书	-10.2279
▁利用	-10.2282
▁看到	-10.2285
足	-10.2292
▁随后	-10.2293
非常非常	-10.2293
歌	-10.2294
中有	-10.2305
许多人	-10.2307
一致	-10.2309
这里的	-10.2312
只有一个	-10.2316
▁用来	-10.2321
V	-10.2327
▁这次	-10.2328
店	-10.2331
固定	-10.2333
兄弟	-10.2333
玩家	-10.2334
冰川	-10.2338
贷款	-10.2339
演化	-10.2339
物理学家	-10.2343
对比	-10.2348
▁但如果你	-10.2348
以上	-10.2349
的表现	-10.2349
▁然后他	-10.2356
一定要	-10.2356
排放	-10.236
不再是	-10.2361
一颗	-10.2369
那时候	-10.2372
反馈	-10.2383
案例	-10.2385
古老的	-10.2387
一间	-10.2393
莫	-10.2395
血管	-10.2397
令	-10.2397
in	-10.2398
构成	-10.2402
人权	-10.2403
学到	-10.2403
洗	-10.2408
房屋	-10.2412
奇怪的	-10.2413
体制	-10.2413
学者	-10.2414
祈祷	-10.2418
en	-10.2419
区别	-10.2425
出版	-10.2426
走路	-10.2429
▁我意识到	-10.2433
植入	-10.2433
▁就好像	-10.2434
针	-10.2435
▁这是因为	-10.2443
东	-10.2448
瞬间	-10.245
谢谢你	-10.245
因为他们	-10.245
沿着	-10.2451
军	-10.2454
▁但如果	-10.2459
克里斯	-10.2462
整体	-10.2463
会产生	-10.2466
显得	-10.247
面积	-10.2475
贝	-10.2479
便宜	-10.248
一个非常	-10.2485
名叫	-10.2488
只会	-10.2489
生物学家	-10.249
要去	-10.2491
▁仅仅	-10.2492
能让	-10.2494
GDP	-10.2497
爱情	-10.2499
▁甚至是	-10.25
美分	-10.2502
不停地	-10.2504
法案	-10.2506
因为它	-10.2508
▁J	-10.2508
一把	-10.2515
参与到	-10.2522
▁超过	-10.2524
▁都有	-10.2528
态度	-10.2529
推进	-10.2529
买了	-10.2531
世纪的	-10.2535
查	-10.2543
比如说	-10.2546
引导	-10.2548
在这些	-10.2552
把这	-10.2561
洞	-10.2568
非常简单	-10.2572
监控	-10.2572
▁该	-10.2577
运动员	-10.2579
一生	-10.2581
班	-10.2581
一层	-10.2584
▁才	-10.2585
独特的	-10.2589
▁世界	-10.259
提取	-10.2594
几年前	-10.2594
顶	-10.2595
▁确实	-10.2596
在上面	-10.2598
规律	-10.2599
指数	-10.2601
随	-10.2602
不知	-10.2605
最为	-10.2609
当作	-10.2615
可以被	-10.2615
好好	-10.2619
▁这时	-10.2623
统治	-10.263
等于	-10.2636
的问题是	-10.2643
神奇	-10.2643
碰到	-10.2644
大脑的	-10.2645
▁如果你想	-10.2645
国会	-10.2646
自信	-10.265
一千	-10.2651
军事	-10.2654
▁它是一个	-10.2657
阻碍	-10.2658
盒子	-10.2658
福	-10.2658
首次	-10.2658
母	-10.2659
他们可以	-10.2663
一样的	-10.267
气球	-10.267
婚姻	-10.2671
▁不幸的是	-10.2676
印	-10.2682
的经验	-10.2686
确认	-10.2687
美金	-10.2688
▁经过	-10.2689
我的工作	-10.2691
澳大利亚	-10.2691
树木	-10.2694
端	-10.2697
绝	-10.2701
的家庭	-10.2702
接受了	-10.2705
这项技术	-10.2708
桥	-10.2708
J	-10.2708
忘记	-10.2712
微	-10.2715
一周	-10.2716
之内	-10.2716
基金	-10.2717
▁然后他们	-10.272
版	-10.272
盘	-10.2721
U	-10.2723
一根	-10.2725
宇宙的	-10.2736
棒	-10.2736
惩罚	-10.2738
是多么	-10.2739
游泳	-10.2739
哺乳动物	-10.2739
增强	-10.2739
恐怖分子	-10.274
后果	-10.2749
让自己	-10.2753
▁正	-10.2754
▁所有这些	-10.2755
难题	-10.2758
▁其中一个	-10.2759
每天都	-10.276
几个月	-10.2763
▁将会	-10.2766
芯片	-10.2772
辐射	-10.2774
做了一个	-10.2787
远离	-10.279
一个叫	-10.2792
手臂	-10.2793
是通过	-10.2794
证明了	-10.2796
千万	-10.2798
饮食	-10.2801
站起来	-10.2801
家族	-10.2807
心理学	-10.2811
衣	-10.2811
的地区	-10.2813
诗人	-10.2815
剂	-10.2816
护士	-10.2816
焦虑	-10.282
疗法	-10.2821
天堂	-10.2822
四处	-10.2827
驱动	-10.2829
得了	-10.2833
好吗	-10.2836
▁而且我	-10.2841
▁因为它们	-10.2843
▁我曾经	-10.2844
放入	-10.2845
那个人	-10.2847
这些事情	-10.285
间的	-10.2855
▁拥有	-10.2861
套	-10.2862
▁而现在	-10.2864
▁印度	-10.2865
在他	-10.2878
结	-10.2878
大规模	-10.2878
推特	-10.2879
是吧	-10.288
很小	-10.2882
的选择	-10.2882
ra	-10.2886
楼	-10.2886
▁举个例子	-10.2892
得出	-10.2892
的身份	-10.2895
著名的	-10.29
伯	-10.29
洛杉矶	-10.2902
了这个	-10.2902
抱怨	-10.2903
收获	-10.2904
之上	-10.2904
无知	-10.2905
的理解	-10.291
做成	-10.2913
赚钱	-10.2917
▁那么我们	-10.2918
▁第二个	-10.2924
▁假如	-10.293
办	-10.2932
▁他们也	-10.2933
火车	-10.2934
标志	-10.2935
中的一个	-10.2937
加州	-10.2942
▁您	-10.2942
海岸	-10.2943
交给	-10.2945
特殊的	-10.2946
回报	-10.2947
我们所有人	-10.2948
都很	-10.2951
成绩	-10.2952
为自己	-10.2952
储存	-10.2953
代表着	-10.2956
价值观	-10.2956
专利	-10.2958
绿	-10.2958
▁当他	-10.2958
兴趣	-10.2959
▁K	-10.296
无比	-10.2961
求	-10.2961
原来	-10.2964
爱因斯坦	-10.2967
出现的	-10.2968
携带	-10.2973
普通的	-10.2973
几天	-10.2973
能找到	-10.2974
太阳系	-10.2978
睡觉	-10.298
抗生素	-10.2983
浏览	-10.2985
部件	-10.2988
合适的	-10.299
打击	-10.299
使我	-10.2999
说服	-10.3003
是如此	-10.3005
的任务	-10.3007
记	-10.301
加速	-10.3016
专注于	-10.3017
就不会	-10.3018
▁要知道	-10.3019
意见	-10.302
高兴	-10.303
认同	-10.3031
领袖	-10.3034
邻居	-10.3043
跨越	-10.3044
幻想	-10.3046
打印	-10.3051
运转	-10.3052
增加了	-10.3054
[	-10.3057
打电话	-10.3058
税	-10.3064
无限	-10.3066
博	-10.3066
应当	-10.3069
反复	-10.3071
每一个人	-10.3074
的形状	-10.3077
l	-10.3081
我还	-10.3086
民族	-10.3096
▁所以你	-10.3097
是一样的	-10.3097
机场	-10.3103
▁下面	-10.3105
轨道	-10.3109
作业	-10.3109
的感受	-10.3113
朋友们	-10.3115
▁我和	-10.3121
▁大部分	-10.3126
强烈	-10.3127
▁同时也	-10.3131
事故	-10.3131
▁女性	-10.3133
▁与此同时	-10.3135
▁我们是	-10.3138
夜	-10.3139
分类	-10.3144
回顾	-10.315
以外	-10.3151
回收	-10.3153
我有	-10.3154
悲伤	-10.3156
字体	-10.3158
传输	-10.316
隐私	-10.3161
精力	-10.3162
存	-10.3163
脸	-10.3167
陷入	-10.3168
轮	-10.317
中东	-10.3178
承担	-10.3178
我一直	-10.3181
差别	-10.3182
是真的	-10.3186
会不会	-10.3198
会发生什么	-10.3204
不必	-10.3205
花粉	-10.3207
严重的	-10.321
的大小	-10.3212
消除	-10.3213
身处	-10.3219
形态	-10.3229
昨天	-10.3233
把我们	-10.3235
保险	-10.3235
经营	-10.3236
立即	-10.3237
框架	-10.3238
龙	-10.3239
替代	-10.324
便是	-10.3241
机遇	-10.3241
成功了	-10.3242
参与者	-10.3244
漂亮的	-10.3246
在乎	-10.3253
争议	-10.3254
是一名	-10.3254
了我	-10.3256
的呢	-10.327
▁就可以	-10.3281
▁真的	-10.3281
▁你们知道	-10.3292
完善	-10.3293
大脑中	-10.3295
的材料	-10.3296
le	-10.3296
环	-10.3297
要做	-10.3298
特点	-10.3303
转换	-10.3306
不像	-10.3306
我们还	-10.3313
显著	-10.3314
周围的	-10.3315
给你们看	-10.3318
的梦想	-10.3319
竟然	-10.3321
神秘	-10.3323
疯狂的	-10.3326
移植	-10.3327
蝙蝠	-10.3327
不可思议	-10.3327
摄影师	-10.3328
家长	-10.333
小说	-10.333
都知道	-10.3332
亮	-10.3332
索	-10.3336
兹	-10.334
▁它的	-10.3341
达成	-10.3343
反射	-10.3346
具备	-10.3348
完整的	-10.3351
▁一直	-10.3351
的权利	-10.3352
准备好	-10.3356
风格	-10.3356
一种新的	-10.3358
那位	-10.3359
分布	-10.3359
形象	-10.3359
▁但是你	-10.3363
为他们	-10.3365
度过	-10.3368
救	-10.3369
▁也可以	-10.3371
小孩子	-10.3375
的大	-10.338
主动	-10.3385
k	-10.3385
有点像	-10.3387
你所	-10.3389
轴	-10.3394
去找	-10.3397
英文	-10.3398
地球的	-10.341
于是	-10.3413
酸	-10.3413
段	-10.3416
转向	-10.3419
酒店	-10.3419
区分	-10.3419
领导人	-10.3421
做些	-10.3422
on	-10.3423
多久	-10.3426
音乐家	-10.3428
部队	-10.3428
▁以至于	-10.3434
发生的事情	-10.3439
▁我是一个	-10.344
讨厌	-10.3441
▁有很多	-10.3441
餐厅	-10.3444
加入了	-10.3445
页面	-10.3446
帮我	-10.3452
节	-10.3454
正常的	-10.3458
硬	-10.3462
来到这里	-10.3462
在做	-10.3463
▁而且我们	-10.3464
的电影	-10.3465
的社区	-10.3466
▁所以在	-10.3467
的水	-10.347
是你	-10.3473
的思想	-10.3476
做好	-10.3477
▁这个是	-10.348
▁我们能够	-10.3482
射	-10.3492
客	-10.3493
重点	-10.3494
保障	-10.3494
送到	-10.3495
扩展	-10.3499
吹	-10.35
遭遇	-10.3501
争取	-10.3502
名为	-10.3503
感情	-10.3504
天才	-10.3505
引用	-10.3506
分裂	-10.3506
过滤	-10.3506
g	-10.3508
也要	-10.3509
▁似乎	-10.3511
▁而他们	-10.3512
聚会	-10.3515
跟你	-10.3517
听众	-10.3522
非法	-10.3533
他是	-10.3535
一开始	-10.3538
我发现	-10.3539
崩溃	-10.3539
毒	-10.3542
我们的生活	-10.3542
一堆	-10.3545
石头	-10.3547
症	-10.3551
你得	-10.3552
局	-10.3553
我需要	-10.3554
精确	-10.3563
正面	-10.3563
任何东西	-10.3565
战略	-10.3567
▁就这样	-10.3568
的做法	-10.3569
教室	-10.357
造成了	-10.3571
身边	-10.3572
消失了	-10.3584
他们说	-10.3584
减少了	-10.3589
评价	-10.3591
单位	-10.3591
整合	-10.3592
鲸鱼	-10.3593
小的	-10.3593
请求	-10.3593
▁不仅	-10.3597
创造一个	-10.3598
申请	-10.3599
开始了	-10.3603
▁是关于	-10.3604
充分	-10.3606
紧	-10.3606
令我	-10.3607
俩	-10.3607
关联	-10.361
▁他们的	-10.3611
的母亲	-10.3618
屋	-10.3621
re	-10.3624
我没有	-10.3631
我都	-10.3631
都没	-10.3634
讲故事	-10.3643
▁几年前	-10.3645
永远不会	-10.3645
遵循	-10.3646
委员会	-10.3648
走过	-10.365
激情	-10.3653
学科	-10.3661
的细胞	-10.3661
是用	-10.3662
▁都在	-10.3663
几分钟	-10.3663
▁必须	-10.3665
厨房	-10.3667
▁其他	-10.367
绝望	-10.367
在家里	-10.3673
内心	-10.3674
营养	-10.3675
一面	-10.3675
序列	-10.3676
华	-10.3676
厚	-10.3677
扔	-10.3678
协议	-10.3679
的事实	-10.3679
众笑	-10.368
车祸	-10.368
探险	-10.3681
尽量	-10.3682
▁它也	-10.3683
跳舞	-10.3684
▁有趣的是	-10.3685
我当时	-10.3689
和我们	-10.3689
尾	-10.3698
我们把	-10.3703
管道	-10.3704
▁不管是	-10.3705
这个系统	-10.3706
既	-10.3714
始终	-10.3721
的收入	-10.3724
我们正在	-10.3727
恐怖	-10.3729
用它	-10.373
▁那种	-10.3731
大多数人	-10.3731
设计了	-10.3733
服	-10.3735
睡	-10.3736
成人	-10.3738
的机器人	-10.3739
不安	-10.3741
噪音	-10.3742
▁应该	-10.3753
▁我们不能	-10.3753
的关键	-10.3755
影像	-10.3755
非洲人	-10.3759
菜	-10.376
一步	-10.3761
无关	-10.3763
百	-10.3764
罪犯	-10.3765
单一	-10.3765
拍摄的	-10.3768
显微镜	-10.3768
肥胖	-10.3769
联盟	-10.377
绘画	-10.377
流感	-10.3771
帮忙	-10.3771
猜测	-10.3771
▁这样的	-10.3775
黄	-10.3781
看不见	-10.3781
的那个	-10.3782
▁相反	-10.3787
叶	-10.3792
微小的	-10.3799
范围内	-10.3801
▁P	-10.3805
海底	-10.3809
▁它在	-10.3813
什么东西	-10.3813
来源	-10.3816
从来不	-10.3817
W	-10.3817
心中	-10.3818
我们人类	-10.3825
莱	-10.3825
发现的	-10.3828
活着	-10.383
富	-10.3832
牺牲	-10.3834
多样性	-10.3837
刺	-10.3838
非常的	-10.3839
男	-10.3841
岩石	-10.3842
▁且	-10.3846
天气	-10.3851
找不到	-10.3852
编码	-10.3855
▁突然	-10.3859
嘛	-10.386
巧克力	-10.3861
依旧	-10.3861
乡村	-10.3862
掌控	-10.3863
伊斯兰	-10.3865
背	-10.3867
造成的	-10.3875
▁但现在	-10.3877
隐藏	-10.3878
想像	-10.3878
多个	-10.3881
是什么样的	-10.3883
明天	-10.3886
大卫	-10.3886
还有很多	-10.3887
科学研究	-10.389
给出	-10.3896
已有	-10.3897
做的事	-10.3898
旅程	-10.3901
的那些	-10.3901
与我们	-10.3902
床	-10.3906
不确定	-10.3907
▁大脑	-10.3909
的本质	-10.3911
制作的	-10.3912
影片	-10.3921
的功能	-10.3926
极度	-10.3927
的原因是	-10.393
更有	-10.3933
▁G	-10.3935
最多	-10.3938
还有一个	-10.3939
埃及	-10.3944
▁都会	-10.3945
链接	-10.3946
部位	-10.3948
贵	-10.3949
和他	-10.395
聆听	-10.3952
拥抱	-10.3953
随便	-10.3953
▁每次	-10.3955
一个月	-10.3955
▁非洲	-10.3956
使用了	-10.3958
不足	-10.3958
缩小	-10.3959
错误的	-10.3959
礼物	-10.3962
进入了	-10.3963
这个东西	-10.3965
塑造	-10.3967
悲剧	-10.3969
信念	-10.3972
黄色	-10.3976
变得更加	-10.3982
案	-10.3985
妻子	-10.3992
寿命	-10.3994
意思	-10.3995
正式	-10.3999
很有意思	-10.4
人才	-10.4002
不存在	-10.4002
的动作	-10.4004
存在的	-10.4007
传达	-10.4007
▁非常感谢	-10.4012
同时也	-10.4012
我们今天	-10.4013
资本	-10.4022
改	-10.4024
▁到了	-10.4025
需	-10.4028
已经有	-10.4032
下午	-10.4035
惊人	-10.4035
希腊	-10.4035
宽	-10.4039
料	-10.4039
吉	-10.4043
解答	-10.4044
司机	-10.4045
iPhone	-10.4045
蛇	-10.4045
贫民窟	-10.4045
大陆	-10.4045
敏感	-10.4049
的视频	-10.4049
液体	-10.405
视角	-10.405
梦	-10.4052
散	-10.4056
村庄	-10.4059
外部	-10.4059
深海	-10.4059
▁我能	-10.4062
解放	-10.4064
农场	-10.4066
读者	-10.4066
忙	-10.4069
暗	-10.4069
承受	-10.4075
甚至是	-10.4075
源	-10.4078
肯尼亚	-10.408
场景	-10.4083
现在的	-10.4087
地震	-10.4089
的土地	-10.4093
成分	-10.4097
是最	-10.4099
撞	-10.4101
我得	-10.4102
敌人	-10.4103
它们是	-10.4112
鼠	-10.4113
付	-10.4114
升	-10.4114
▁但是它	-10.4115
你知道吗	-10.4116
法官	-10.4119
以一种	-10.412
土	-10.4123
喜爱	-10.4127
做个	-10.4128
丰富	-10.4133
通讯	-10.4133
苦	-10.4134
跟着	-10.4136
赢得	-10.4137
舒适	-10.4137
一起工作	-10.4137
▁那就	-10.4139
图形	-10.4141
潜水	-10.4142
高科技	-10.4146
▁同样的	-10.4152
▁所以这	-10.4153
做到了	-10.4153
聊天	-10.4153
:”	-10.4155
做些什么	-10.4159
从一个	-10.416
动机	-10.4163
越多	-10.4174
▁有一些	-10.4174
z	-10.4177
华盛顿	-10.418
地位	-10.418
骨头	-10.4184
层次	-10.4189
只需要	-10.4195
很有可能	-10.4197
所需要的	-10.42
强迫	-10.42
现状	-10.4202
有多少人	-10.4203
的网络	-10.4204
人们的	-10.4208
人造	-10.4209
花园	-10.4214
一定会	-10.4221
最基本的	-10.4223
所说	-10.4223
这也是	-10.4229
炸弹	-10.4229
我从	-10.4231
乔	-10.4231
】	-10.4233
GPS	-10.4233
微型	-10.4234
无聊	-10.4235
雄性	-10.4239
个孩子	-10.4239
伊斯兰教	-10.4246
乐队	-10.4249
的人来说	-10.425
▁这只是	-10.4251
我们开始	-10.4255
成年	-10.4259
给了我	-10.426
痛	-10.4267
在未来	-10.4276
▁这个人	-10.4278
太棒了	-10.428
的现象	-10.4284
滑	-10.4289
善	-10.4291
这句话	-10.4292
运	-10.4292
▁很明显	-10.4293
空中	-10.4297
蒙	-10.43
▁社会	-10.43
决定了	-10.4302
所看到的	-10.4303
很高	-10.4313
适用于	-10.4324
魔术	-10.4328
亲爱的	-10.4328
维护	-10.4328
界面	-10.4329
调节	-10.4333
综合	-10.4333
▁我们如何	-10.4334
创	-10.4334
染色体	-10.4339
想象力	-10.4339
将他们	-10.4341
▁而你	-10.4345
一个例子	-10.4345
数百万	-10.4349
▁除非	-10.4351
响	-10.4352
窗户	-10.4354
五年	-10.4364
让你们	-10.4366
抓	-10.4369
哭	-10.4369
约会	-10.437
开了	-10.4373
的精神	-10.4373
▁没有人	-10.4374
诞生	-10.4374
聚集	-10.4376
患	-10.4379
变得越来越	-10.4379
虚拟	-10.438
他们自己的	-10.438
怪	-10.4384
第三个	-10.439
的比例	-10.4392
主流	-10.4393
制造出	-10.4394
两年	-10.4399
失望	-10.44
不幸	-10.4406
▁也不是	-10.4409
一段时间	-10.441
倾向于	-10.4413
哲学家	-10.4413
视力	-10.4414
做出了	-10.4415
▁发现	-10.4415
负	-10.4417
用的	-10.4418
在学校	-10.4419
午餐	-10.4419
士	-10.4421
沉默	-10.4423
碎片	-10.4424
货币	-10.4424
来源于	-10.4425
全球变暖	-10.4426
生命中	-10.4437
天哪	-10.4439
我们从	-10.444
当今	-10.4442
团	-10.4444
的地图	-10.4447
数学家	-10.4448
▁你不能	-10.4448
体重	-10.445
移	-10.4461
魅力	-10.4463
脏	-10.4467
全新的	-10.4468
包含了	-10.4468
解决了	-10.447
被称作	-10.4472
能把	-10.4473
更新	-10.4475
这种情况	-10.4475
戴	-10.4476
注意力	-10.4477
的家伙	-10.4478
不对	-10.4479
这是我	-10.4482
不在	-10.4482
的年轻人	-10.4485
想出	-10.4485
▁所以他	-10.4487
的说法	-10.4489
南部	-10.449
真的是	-10.4492
化的	-10.4494
干净	-10.4499
取代	-10.4502
公司的	-10.4503
▁有关	-10.4505
所以我	-10.4506
雇佣	-10.4507
▁而且他们	-10.4508
多数	-10.4511
围绕	-10.4511
失	-10.4512
会导致	-10.4513
▁噢	-10.4515
大概是	-10.4516
洛	-10.4516
折叠	-10.4519
安装	-10.452
收益	-10.452
干预	-10.4521
必须要	-10.4522
票	-10.4526
被迫	-10.4529
一支	-10.453
上述	-10.453
最高	-10.4533
麦	-10.454
堆	-10.4542
高级	-10.4545
这片	-10.4547
大会	-10.455
具	-10.4557
一句	-10.456
句	-10.4562
明确	-10.4562
化石	-10.4563
你会发现	-10.4569
▁我没有	-10.4569
有多大	-10.457
的疾病	-10.4571
▁好像	-10.4573
欢迎	-10.4586
是一位	-10.4587
的最后	-10.4588
一会儿	-10.4588
烧	-10.4593
接收	-10.4594
▁但你	-10.4596
白色	-10.4597
卷	-10.4599
你有	-10.4601
革新	-10.4603
急	-10.4605
分配	-10.4605
毁灭	-10.4608
是基于	-10.4609
等着	-10.4613
北极	-10.4614
去到	-10.4615
狂	-10.4617
传染	-10.4618
的改变	-10.4618
在过去	-10.4618
我必须	-10.4623
笔记本电脑	-10.4623
简化	-10.463
拿起	-10.4631
要把	-10.4632
的经济	-10.4635
就越	-10.4637
可怕	-10.4638
▁它能	-10.4647
回忆	-10.4649
上网	-10.4652
解决这个问题	-10.4655
不去	-10.4668
访问	-10.4676
合理	-10.4677
的联系	-10.4679
划	-10.4679
采集	-10.468
网页	-10.4681
▁所以我想	-10.4681
现	-10.4681
▁像是	-10.4689
▁一个是	-10.4691
▁毕竟	-10.4691
致	-10.4694
数码	-10.4695
清洁	-10.4696
我们想	-10.4703
▁回到	-10.4706
王	-10.4708
你可能	-10.4709
能做到	-10.4713
影响力	-10.4713
的那种	-10.4714
带上	-10.4718
拍照	-10.4719
开关	-10.4721
这个实验	-10.4725
▁而这个	-10.4726
可以让	-10.4727
一个巨大的	-10.4731
不是一个	-10.4731
让大家	-10.4737
法则	-10.4739
h	-10.4743
偏见	-10.4744
宇宙中	-10.4746
在座的	-10.4755
▁什么是	-10.4755
最后的	-10.4755
退休	-10.4766
与你	-10.4767
巴基斯坦	-10.477
心里	-10.4775
过度	-10.4778
如同	-10.4778
上方	-10.478
人数	-10.4781
源于	-10.4782
很喜欢	-10.4784
还可以	-10.4787
这个过程	-10.4788
探测	-10.479
▁以便	-10.4793
仔细	-10.4795
▁变成	-10.4797
艾	-10.4799
国家的	-10.4805
月份	-10.4805
大约有	-10.4808
渐渐	-10.4809
康复	-10.4815
左	-10.4816
操纵	-10.4818
詹姆斯	-10.4818
纽约时报	-10.4819
真理	-10.482
游行	-10.4821
心灵	-10.4822
交配	-10.4822
给她	-10.4824
潜在的	-10.4824
弄清楚	-10.4826
▁我们没有	-10.483
杀	-10.4842
跟我说	-10.4844
夏天	-10.4845
在哪	-10.4846
的价格	-10.4846
的记忆	-10.4852
▁F	-10.4854
顾客	-10.4855
伙伴	-10.4855
被认为是	-10.4861
高速	-10.4863
意味着什么	-10.4868
丈夫	-10.4876
▁用于	-10.4878
听说	-10.4878
陌生人	-10.4879
的模型	-10.4883
公平	-10.4883
完整	-10.4887
涉及到	-10.4893
一些事情	-10.4894
作者	-10.4894
is	-10.4894
链	-10.4896
▁你在	-10.4897
▁否则	-10.4902
街区	-10.4903
和他们	-10.4909
大气	-10.4911
▁但是如果你	-10.4912
考	-10.4916
肯	-10.4918
幽默	-10.4918
干扰	-10.4918
脂肪	-10.4919
挖掘	-10.4919
打交道	-10.4919
创伤	-10.492
流程	-10.492
考试	-10.492
抽象	-10.4921
认可	-10.4921
达尔文	-10.4922
年内	-10.4925
说出	-10.4926
▁你得	-10.4926
圆	-10.4928
精神疾病	-10.4929
准确	-10.4932
▁然后再	-10.4934
这个数字	-10.4937
后的	-10.4938
速	-10.4938
放下	-10.4939
已经开始	-10.494
果蝇	-10.4942
给自己	-10.4948
描绘	-10.4949
步行	-10.495
尤其是	-10.495
我又	-10.495
兵	-10.4952
黑色	-10.4959
足够的	-10.4964
新技术	-10.4967
防止	-10.4969
忘了	-10.497
绕	-10.497
孤独	-10.4971
波士顿	-10.4971
无线	-10.4975
出售	-10.4977
没有办法	-10.4991
的男人	-10.4992
至关重要	-10.4994
▁M	-10.4997
北	-10.5002
被人	-10.5003
影	-10.5006
是可以	-10.5008
不断的	-10.501
把他	-10.501
的理由	-10.501
▁因为这是	-10.5014
中国人	-10.5016
丽	-10.5019
资产	-10.5021
指标	-10.5022
坚信	-10.5022
失明	-10.5023
独自	-10.5027
晚	-10.5028
解读	-10.5029
手中	-10.503
头发	-10.5032
就被	-10.5034
一所	-10.504
▁我只是	-10.5041
的文章	-10.5041
▁那是一个	-10.5042
一个新	-10.5043
三年	-10.5045
的标准	-10.5046
听到的	-10.5047
多种	-10.5054
代价	-10.5062
围绕着	-10.5064
一分钟	-10.5065
▁它将	-10.5066
和一个	-10.5068
▁有一天	-10.5073
左边的	-10.5075
▁当人们	-10.5077
椅子	-10.5077
年了	-10.5079
el	-10.5079
破	-10.508
▁你就会	-10.508
单词	-10.508
的房子	-10.5081
成为一名	-10.5082
血液	-10.5085
排列	-10.5092
公正	-10.5095
市长	-10.5098
▁在你	-10.5099
▁这就意味着	-10.51
▁我不想	-10.5101
最近的	-10.5101
没办法	-10.5101
上去	-10.5102
▁他们把	-10.5104
特别的	-10.5107
▁但是如果	-10.5109
蜘蛛	-10.5109
意大利	-10.5111
蓝色的	-10.5115
广播	-10.5116
挣扎	-10.5118
欺骗	-10.5123
玉米	-10.5124
众人笑	-10.5125
照明	-10.5125
镜子	-10.5126
巨型	-10.5126
同步	-10.5127
很高兴	-10.513
双手	-10.513
下一步	-10.5132
击	-10.5133
顺利	-10.5135
的图像	-10.5135
过于	-10.5136
他们都	-10.5136
的机器	-10.5136
脸上	-10.5138
气味	-10.5139
形成的	-10.514
非常感谢	-10.5142
沮丧	-10.5144
亚马逊	-10.5148
▁在这些	-10.5149
的身体	-10.515
海水	-10.5151
的颜色	-10.5151
家具	-10.5152
的科技	-10.5152
年中	-10.5153
留在	-10.5153
恶	-10.5156
▁想要	-10.5159
确信	-10.5161
延伸	-10.5163
▁但实际上	-10.5163
卡车	-10.5165
▁H	-10.5165
乘	-10.5171
▁曾经	-10.5172
下载	-10.5173
色彩	-10.5174
▁在他	-10.5176
含有	-10.5176
▁大家都	-10.5178
接触到	-10.5181
艰难	-10.5184
角落	-10.5184
▁所以当	-10.5184
设定	-10.5189
独立的	-10.5198
前所未有的	-10.52
公布	-10.5211
观测	-10.5213
瑞典	-10.5214
▁你会看到	-10.5214
弱	-10.5216
一半的	-10.5217
▁没错	-10.5221
这意味着	-10.5222
仪	-10.5223
在英国	-10.5225
居	-10.5226
没问题	-10.5226
▁今年	-10.5227
任意	-10.5228
和谐	-10.5228
抑制	-10.5229
黄金	-10.523
不受	-10.5232
说了	-10.5237
可持续性	-10.5237
观	-10.5237
经历过	-10.5239
一篇	-10.5239
钢琴	-10.524
方块	-10.5242
是正确的	-10.5243
的基本	-10.5246
案件	-10.5246
形成了	-10.5246
▁我必须	-10.5247
自主	-10.5249
从而	-10.525
▁及	-10.5254
类型	-10.5258
罪	-10.526
包装	-10.5261
com	-10.5262
▁如果你们	-10.5262
所能	-10.5273
▁其次	-10.5279
舞	-10.5281
融入	-10.5286
选择了	-10.5286
▁是由	-10.5287
▁那时我	-10.5287
他们就	-10.5288
在过去的	-10.5291
存储	-10.5294
聚	-10.5296
念	-10.5299
层面上	-10.5303
不过是	-10.5306
的帮助	-10.5307
绘制	-10.5315
捕捉	-10.5317
肺	-10.5318
健康的	-10.5331
困境	-10.5333
Facebook	-10.5334
蚊帐	-10.5334
农村	-10.5334
乳腺癌	-10.5336
的观念	-10.534
现今	-10.534
保护区	-10.5341
不少	-10.5343
很奇怪	-10.5343
海报	-10.5345
找到一个	-10.5346
怎么办	-10.5346
▁真正	-10.5348
文学	-10.5348
媒介	-10.5348
河流	-10.5349
想一想	-10.535
权威	-10.535
也同样	-10.5353
变为	-10.5356
一生中	-10.5363
明白了	-10.5367
那就	-10.5369
剩下的	-10.537
你将	-10.5371
亦	-10.5372
▁这个问题	-10.5375
偶然	-10.5376
的体验	-10.5381
自然的	-10.5381
生理	-10.5386
似的	-10.5386
爬	-10.539
价	-10.5402
批评	-10.5402
字典	-10.5404
进了	-10.5405
打印机	-10.5407
重量	-10.5408
拍的	-10.5408
混	-10.5409
不愿意	-10.541
▁他会	-10.541
袋	-10.541
的挑战	-10.5411
屋顶	-10.5413
糖尿病	-10.5415
推测	-10.5415
监视	-10.5422
乐器	-10.5422
惊喜	-10.5423
胜利	-10.5423
成年人	-10.5424
醒来	-10.5424
对这些	-10.5425
学生们	-10.5427
关闭	-10.5434
通信	-10.5437
单独	-10.5437
心理学家	-10.544
按钮	-10.544
蔓延	-10.544
──	-10.544
南极	-10.5441
我想说	-10.5441
询问	-10.5442
外星人	-10.5444
清理	-10.5444
▁基于	-10.5449
显示了	-10.5449
带给	-10.5449
或者说	-10.5451
擅长	-10.5456
▁这些都	-10.5457
至今	-10.5459
尼日利亚	-10.5464
营	-10.5465
能用	-10.5465
真正地	-10.5468
证实	-10.5468
的政治	-10.5469
成功地	-10.5471
做不到	-10.5475
一副	-10.5475
民	-10.5477
对自己	-10.548
导致了	-10.5481
▁要么	-10.5481
耳朵	-10.5482
向我	-10.5483
的距离	-10.5484
见面	-10.5488
骑	-10.5488
来这里	-10.5494
下一代	-10.5496
这件	-10.5496
▁W	-10.5498
算是	-10.5499
▁也有	-10.55
引入	-10.5506
上来	-10.5506
变成一个	-10.5507
厂	-10.5507
吃了	-10.5508
es	-10.5509
对他们	-10.5509
极大的	-10.551
▁他们有	-10.5512
两倍	-10.5513
系列	-10.5513
带领	-10.5514
招	-10.5515
将近	-10.5519
余	-10.5524
我们没有	-10.5524
集团	-10.5524
瑞士	-10.5526
整理	-10.5527
随意	-10.553
支撑	-10.5533
▁帮助	-10.5535
优秀	-10.5539
伦	-10.5542
就是一个	-10.5545
飞船	-10.5548
发育	-10.5548
居然	-10.5548
反抗	-10.5549
硬件	-10.5549
天然气	-10.5549
开采	-10.5549
题	-10.555
触摸	-10.5554
▁我曾	-10.5555
的眼睛	-10.5557
知	-10.5558
犹太人	-10.5558
道理	-10.556
给它	-10.5561
一百	-10.5567
▁你将	-10.5571
会把	-10.5571
的旅程	-10.5572
依赖于	-10.5572
镜	-10.5573
扎	-10.5576
大学的	-10.5577
考虑到	-10.558
最后一个	-10.558
方便	-10.5585
初	-10.5586
会成为	-10.559
追	-10.559
▁看起来	-10.5591
的游戏	-10.5591
其他国家	-10.5595
实时	-10.5597
大概有	-10.5605
为之	-10.5608
基本的	-10.561
领	-10.5611
房间里	-10.5612
发生过	-10.5612
有更多的	-10.5617
大气层	-10.5618
当下	-10.5621
体会	-10.5622
灵	-10.5624
看起来像	-10.5625
研究所	-10.5626
困扰	-10.5627
抗议	-10.5627
吸	-10.5628
是错误的	-10.563
瑞	-10.5635
几十年	-10.5637
想着	-10.5639
大楼	-10.5639
把你	-10.5641
坐着	-10.5643
这个概念	-10.5644
整个世界	-10.5644
Y	-10.5645
未知	-10.5647
只是一个	-10.5649
指挥	-10.5652
提出了	-10.5654
清单	-10.5654
愚蠢	-10.5654
当成	-10.5655
运营	-10.5657
反映	-10.5657
视为	-10.5657
这里有	-10.5657
疑问	-10.5658
探测器	-10.5658
放松	-10.5658
内战	-10.5662
系统中	-10.5662
共	-10.5663
高达	-10.5665
是什么呢	-10.5667
中央	-10.5673
的设备	-10.5674
芝加哥	-10.5678
是来自	-10.5678
长达	-10.5682
很清楚	-10.5683
很像	-10.5687
在里面	-10.569
拖	-10.5693
一个孩子	-10.5694
的来源	-10.5703
逃	-10.5706
果	-10.5706
的重要	-10.5711
难以置信的	-10.5711
中国的	-10.5715
领导力	-10.5718
希	-10.5718
更好地	-10.5719
经济学	-10.5722
是一件	-10.5727
不仅是	-10.5728
忽视	-10.5728
告诉他	-10.5729
节奏	-10.573
偏	-10.573
的成果	-10.5731
我们想要	-10.5738
的脸	-10.574
这些都是	-10.574
的唯一	-10.5741
表现出	-10.5741
▁提供	-10.5743
发展的	-10.5744
最佳	-10.5745
它就	-10.5746
一头	-10.5748
手工	-10.5751
灵魂	-10.5752
将它们	-10.5752
劳动力	-10.5759
大海	-10.576
撒谎	-10.576
要用	-10.5761
耳	-10.5762
我们看到	-10.5763
的女人	-10.5763
刚果	-10.5763
优秀的	-10.5764
圣经	-10.5765
校	-10.5765
苍蝇	-10.5766
Twitter	-10.5766
警告	-10.5766
我决定	-10.5767
缺少	-10.5768
盯着	-10.5769
一个关于	-10.5771
▁带着	-10.5773
的领域	-10.5774
临床	-10.5776
设	-10.5779
▁我一直	-10.5781
搭	-10.5785
箱	-10.5788
藏	-10.579
数字化	-10.5791
这些事	-10.5792
会怎样	-10.5799
另一	-10.5799
怀孕	-10.5808
的成本	-10.5816
你们知道	-10.5816
计	-10.5817
幕	-10.582
再生	-10.5824
旧金山	-10.5825
做了什么	-10.5827
大部分人	-10.5827
去过	-10.5827
的女孩	-10.5828
无数	-10.5829
核能	-10.5831
激素	-10.5836
的网站	-10.5842
的数字	-10.5845
注入	-10.5846
对这个	-10.5846
▁导致	-10.5849
用在	-10.5853
梅	-10.5854
的世界里	-10.5865
退	-10.5868
变异	-10.5876
及其	-10.5876
来到了	-10.5877
匹配	-10.5877
烹饪	-10.5877
喔	-10.5878
因特网	-10.5878
原料	-10.5878
代表了	-10.588
积累	-10.5881
般的	-10.5882
看到的是	-10.5883
试试	-10.5883
了我的	-10.5884
元	-10.5887
蚁群	-10.589
开启	-10.5891
不出	-10.5892
边界	-10.5892
的政府	-10.5893
当初	-10.5899
叙利亚	-10.5899
餐	-10.59
的兴趣	-10.5902
震动	-10.5903
▁你能看到	-10.5905
奇妙	-10.5906
的自由	-10.5906
在哪儿	-10.5907
会出现	-10.591
会觉得	-10.5912
的情绪	-10.5914
也一样	-10.592
却没有	-10.5927
一道	-10.5931
频率	-10.5931
鼓	-10.5932
劳动	-10.5934
挂	-10.5934
我不会	-10.5934
无人机	-10.5936
桶	-10.594
在地球上	-10.5947
的状况	-10.5947
密	-10.5948
一群人	-10.5948
注射	-10.5948
体现	-10.5949
这些孩子	-10.5951
现有的	-10.5952
是否有	-10.5954
可以把	-10.5955
。」	-10.5961
▁总之	-10.5962
相处	-10.5963
遗传	-10.5964
▁我今天	-10.5966
成熟	-10.5968
模糊	-10.5968
学术	-10.5969
▁他的	-10.5969
▁第一次	-10.5972
我们希望	-10.5973
休息	-10.5975
的父母	-10.5979
勇气	-10.5979
摆	-10.5981
or	-10.5982
膨胀	-10.5987
啤酒	-10.5989
例	-10.5989
议题	-10.599
扭曲	-10.599
谎言	-10.599
装备	-10.599
男子	-10.5993
反而	-10.5993
这两种	-10.5994
也很	-10.5995
安全的	-10.5997
自身的	-10.6
外界	-10.6004
一个大	-10.6018
绿色的	-10.6019
▁我想说	-10.6019
一个故事	-10.602
红色的	-10.6021
对称	-10.6027
本来	-10.6033
食用	-10.6037
▁然后在	-10.6037
说法	-10.6039
乐趣	-10.604
这个地方	-10.6042
了一下	-10.6043
有意思	-10.6044
▁看着	-10.6056
标	-10.6056
水源	-10.6066
要么	-10.6071
之前的	-10.6075
其它的	-10.6075
▁我被	-10.6076
车辆	-10.6077
见证	-10.6079
做着	-10.6079
成立	-10.6079
不懂	-10.6082
独	-10.6086
青	-10.6087
的学校	-10.6088
的质量	-10.6096
分成	-10.6099
要比	-10.61
印刷	-10.6102
议会	-10.6102
无处不在	-10.6104
并不能	-10.6104
列表	-10.6105
会让你	-10.6105
▁即使是	-10.6107
它可以	-10.6114
教会	-10.6117
断	-10.6118
成像	-10.6119
看法	-10.6121
ri	-10.6123
幻觉	-10.6132
的最	-10.6134
▁比起	-10.6137
的那样	-10.6137
被告知	-10.6138
嘴	-10.6148
荧光	-10.615
我们不能	-10.6151
▁一起	-10.6152
相反	-10.6158
我不	-10.6162
问他们	-10.6163
一般的	-10.6164
地表	-10.6165
我正在	-10.6167
电线	-10.617
灯泡	-10.6175
最多的	-10.6176
祖母	-10.6182
艺术品	-10.6184
在做什么	-10.6187
去了解	-10.6188
是我的	-10.6188
完全不同	-10.6189
全面	-10.6189
▁所	-10.619
卖给	-10.6191
象征	-10.6192
研究生	-10.6193
城市的	-10.6195
是以	-10.6195
▁他们就	-10.6196
从这里	-10.6198
再一次	-10.6198
非常有趣	-10.6203
项	-10.6207
何时	-10.6209
▁你们可以看到	-10.6211
称作	-10.6211
丰富的	-10.6212
上班	-10.6214
精英	-10.6214
这个话题	-10.6214
假装	-10.6216
右	-10.6217
地说	-10.6218
旅游	-10.6218
融化	-10.6218
验证	-10.6218
规范	-10.6219
演	-10.6219
ar	-10.6221
▁上面	-10.6222
做这些	-10.6226
小时候	-10.6226
f	-10.6228
遍布	-10.623
联合	-10.6232
是完全	-10.624
这部电影	-10.6243
真的很	-10.6246
的药物	-10.6247
ro	-10.6248
在其中	-10.6248
为例	-10.6249
很感兴趣	-10.625
用它来	-10.6253
早期的	-10.6258
了许多	-10.6259
谈判	-10.626
▁我不会	-10.6262
一遍	-10.6262
▁试图	-10.6264
了他的	-10.6269
玛	-10.6271
宝宝	-10.6274
这些照片	-10.6275
孔	-10.6278
的计划	-10.628
▁你有	-10.6281
坐下来	-10.6283
首	-10.6284
阿拉伯	-10.6286
货	-10.629
队伍	-10.6295
铺	-10.6296
简直	-10.6298
▁终于	-10.6299
看着我	-10.63
▁我父亲	-10.6302
日常	-10.6306
负担	-10.6307
抛弃	-10.6309
丹	-10.6313
在座的各位	-10.6316
望	-10.632
也许会	-10.6322
交互	-10.6322
▁即便	-10.6326
除	-10.6327
操控	-10.6332
‧	-10.6335
秩序	-10.6335
监测	-10.6335
鼠标	-10.6335
这样说	-10.6336
美妙的	-10.634
结合起来	-10.6341
▁更重要的是	-10.6343
与之	-10.6343
一句话	-10.6344
用一个	-10.6346
简单地	-10.6347
财政	-10.6349
一首	-10.6349
惊讶	-10.6351
斯特	-10.6352
到底是什么	-10.6354
聚在一起	-10.6356
广场	-10.6356
统一	-10.6357
友好	-10.6359
▁的确	-10.6362
帮助他们	-10.6364
经济发展	-10.6366
▁假如你	-10.6366
发光	-10.6369
分解	-10.6371
鼻子	-10.6372
能得到	-10.638
比我们	-10.6381
▁结果是	-10.6383
问自己	-10.6383
这样的人	-10.6394
政治家	-10.6395
居住在	-10.6395
也是如此	-10.6396
的危险	-10.6398
▁两个	-10.6398
▁但是现在	-10.6401
的教育	-10.6401
的道路	-10.6403
用这个	-10.6409
相似的	-10.6409
他们也	-10.6415
▁这是一张	-10.6415
额	-10.6417
随后	-10.6417
命名	-10.6417
棒极了	-10.6421
越来越多的	-10.6422
少数	-10.6422
引发	-10.6423
生活方式	-10.6424
齐	-10.6424
碰	-10.6425
防	-10.6426
在家	-10.6426
折磨	-10.6427
让她	-10.6431
最初的	-10.6431
幸运	-10.6432
的温度	-10.6434
围	-10.6434
与他们	-10.6437
类似于	-10.644
也没	-10.6441
▁我们只是	-10.6442
us	-10.6442
而非	-10.6446
多年	-10.6447
数据库	-10.6448
软	-10.6448
良好	-10.6449
世上	-10.6451
YouTube	-10.6452
托马斯	-10.6452
欧盟	-10.6452
者们	-10.6452
发掘	-10.6453
▁我真的	-10.6453
人工智能	-10.6453
引起了	-10.6456
威	-10.6458
要素	-10.6459
全身	-10.646
偷	-10.6461
▁你们可以	-10.6462
喂	-10.6464
比尔	-10.6466
赢	-10.6466
印象	-10.6467
重力	-10.6467
的程度	-10.6469
亲密	-10.6473
的恐惧	-10.6474
印度的	-10.648
来进行	-10.648
配	-10.6482
▁它们会	-10.6484
的确是	-10.6493
我把	-10.6494
社会中	-10.6497
有用	-10.6499
▁但是他	-10.6502
不相信	-10.6502
▁你是	-10.6505
的人生	-10.6509
忽略	-10.651
听着	-10.6511
是很重要的	-10.6511
对着	-10.6511
每周	-10.6515
借助	-10.6517
支	-10.6518
底下	-10.6518
签	-10.6519
的电脑	-10.652
电子游戏	-10.6523
理查德	-10.6526
向前	-10.6528
参观	-10.6528
六个	-10.6533
消灭	-10.6534
之间的关系	-10.6538
盒	-10.6538
戏剧	-10.654
景	-10.6548
的宇宙	-10.6548
我刚才	-10.6549
撞击	-10.6553
我是个	-10.6554
当做	-10.6554
时常	-10.6554
暗示	-10.6559
x	-10.656
大小的	-10.6562
牙	-10.6567
临时	-10.6567
骨骼	-10.6567
▁我们都知道	-10.6568
持	-10.6569
电子邮件	-10.6569
泰	-10.6569
这份	-10.6569
蔬菜	-10.6571
检验	-10.6571
装饰	-10.6572
土星	-10.6572
底层	-10.6572
族	-10.6572
愉快	-10.6577
工作室	-10.658
的团队	-10.658
测	-10.6581
有超过	-10.6581
安静	-10.6582
每秒	-10.6584
老板	-10.6585
词汇	-10.6586
开头	-10.6588
有三个	-10.6591
并不知道	-10.6593
猜	-10.6598
主义者	-10.6603
有种	-10.6605
实在是	-10.6609
▁那里有	-10.6609
▁然后把	-10.6613
桌子	-10.6619
街头	-10.6621
你们都	-10.6627
独特	-10.6628
实体	-10.6631
现在我们	-10.6631
世界上最	-10.6632
罐	-10.6635
震惊	-10.6636
了不起的	-10.6636
万年前	-10.6636
这些地方	-10.6637
给了我们	-10.664
盲人	-10.664
依据	-10.6645
分别	-10.6646
比喻	-10.6646
轻松	-10.665
li	-10.6654
▁宇宙	-10.6657
糟糕的	-10.6659
依	-10.666
在他的	-10.6661
讲讲	-10.6663
将会是	-10.6667
那么大	-10.6667
▁但却	-10.6667
产出	-10.6668
纯	-10.6669
借	-10.667
想办法	-10.667
下的	-10.6672
更快	-10.6672
问了	-10.6672
扮演	-10.6673
注	-10.6677
的出现	-10.6678
正好	-10.6678
她说	-10.6681
很酷	-10.6682
的主题	-10.6683
主意	-10.6684
总会	-10.6685
在中国	-10.6685
监管	-10.6686
城市里	-10.6686
随时	-10.6688
的定义	-10.669
背后的	-10.6691
结束了	-10.6691
剧院	-10.6691
审查	-10.6691
加纳	-10.6692
震撼	-10.6692
搜集	-10.6692
捕鱼	-10.6692
海地	-10.6692
月球	-10.6693
通道	-10.6694
赫	-10.6695
转移到	-10.6699
垂直	-10.6699
点子	-10.67
参加了	-10.6701
简	-10.6701
从中	-10.6702
▁先	-10.6704
飞过	-10.671
困惑	-10.6712
封	-10.6714
的痛苦	-10.6714
土耳其	-10.6714
搭建	-10.6714
让它们	-10.6714
合法	-10.6715
深处	-10.672
强烈的	-10.6721
复	-10.6723
头脑	-10.6724
缺陷	-10.6727
▁有个	-10.6732
▁不只是	-10.6737
眼镜	-10.6741
折	-10.6744
ta	-10.6745
▁还有一个	-10.6747
学会了	-10.6747
遇到了	-10.6748
工作者	-10.6752
▁要是	-10.6755
地带	-10.6757
极限	-10.6758
北部	-10.6758
上下	-10.6762
研究了	-10.6763
向上	-10.6765
粘	-10.6765
我们用	-10.6766
不愿	-10.677
ch	-10.6771
像我一样	-10.6771
从前	-10.6773
▁我们得	-10.6779
着陆	-10.678
的医生	-10.6781
▁克	-10.6782
纪录	-10.6784
▁自从	-10.6785
▁别	-10.6788
极为	-10.6792
普通人	-10.6798
味	-10.6799
▁因为如果	-10.6801
碎	-10.6802
天赋	-10.6802
尺	-10.6803
可以改变	-10.6807
再来	-10.6807
膜	-10.6808
入侵	-10.6809
含	-10.6811
担忧	-10.6811
哈佛	-10.6812
审视	-10.6812
录音	-10.6812
鼓舞	-10.6813
呼吁	-10.6814
参考	-10.6814
单元	-10.6815
取得了	-10.6815
的车	-10.6815
▁医生	-10.6815
智力	-10.6815
回复	-10.6816
现有	-10.6816
大规模的	-10.6816
明显的	-10.682
野生动物	-10.6821
社会的	-10.6821
▁I	-10.6822
两个人	-10.6823
惊奇	-10.6824
这个观点	-10.6827
▁而是因为	-10.6828
的每一个	-10.6828
▁另一方面	-10.683
受到了	-10.6833
的能源	-10.684
向下	-10.684
弄明白	-10.6841
的发生	-10.6842
就得	-10.6846
影响了	-10.6846
迷	-10.6847
纳米	-10.6848
▁并在	-10.6852
的行动	-10.6854
维度	-10.6855
论文	-10.6861
听到了	-10.6862
登	-10.6863
第三	-10.6869
只需	-10.6869
不该	-10.6869
▁在过去	-10.687
就有了	-10.6873
不止	-10.6877
的健康	-10.6884
另一边	-10.6886
多次	-10.6891
远远	-10.6895
一件事情	-10.6896
势	-10.6899
现实世界	-10.69
发行	-10.6905
今晚	-10.6906
it	-10.6906
这些小	-10.6906
写下	-10.691
的意思是	-10.6911
像个	-10.6913
把所有	-10.6913
邮件	-10.6915
环绕	-10.6918
曼哈顿	-10.6918
钟	-10.6919
▁并没有	-10.6919
最高的	-10.6921
瓶	-10.6921
囚犯	-10.6923
甜	-10.6923
会告诉你	-10.6923
引	-10.6925
飞到	-10.6926
各自	-10.6927
好莱坞	-10.6929
最新的	-10.6932
看到这些	-10.6936
协作	-10.6937
知觉	-10.6938
折纸	-10.6938
一架	-10.6938
体积	-10.6939
的景象	-10.694
声明	-10.6941
▁E	-10.6942
的应用	-10.6943
很久	-10.6945
喜剧	-10.6949
剧	-10.695
来完成	-10.6954
表格	-10.6955
▁想象	-10.6955
读书	-10.6956
还有其他	-10.6958
本质	-10.6961
有意义的	-10.6972
转动	-10.6977
专门	-10.6978
额外的	-10.6978
电流	-10.6979
走上	-10.698
在某种程度上	-10.6981
成千上万	-10.6987
外科医生	-10.6988
满意	-10.6989
一定是	-10.6995
怎么做	-10.6996
滚	-10.6996
奇妙的	-10.7006
损伤	-10.7016
载	-10.7017
又是	-10.7017
它在	-10.7025
章	-10.7025
可爱	-10.7027
公寓	-10.7029
▁若	-10.703
说说	-10.703
茶	-10.7035
这些国家	-10.7038
手里	-10.704
灵活	-10.7043
任何地方	-10.7045
一个简单的	-10.7045
出口	-10.7045
脑部	-10.7049
雨水	-10.705
对它	-10.7055
读到	-10.7055
福利	-10.7056
这首歌	-10.7057
室内	-10.7057
凡	-10.7059
秀	-10.7059
遇见	-10.706
歧视	-10.7061
加强	-10.7061
无需	-10.7062
组装	-10.7062
俱乐部	-10.7062
搜寻	-10.7062
架构	-10.7062
碰撞	-10.7062
介入	-10.7063
官方	-10.7063
灯光	-10.7063
我之前	-10.7063
万个	-10.7064
第二天	-10.7064
▁但这些	-10.7064
问道	-10.7065
飞行员	-10.7067
你好	-10.7067
孩子的	-10.7067
▁不能	-10.707
▁不论	-10.7074
我还是	-10.7074
年之后	-10.7075
的传统	-10.7076
不一定	-10.7077
激活	-10.7079
忽略了	-10.7079
不了解	-10.7079
演讲者	-10.7079
可以说	-10.7085
结果是	-10.7086
的艺术	-10.7087
的决定	-10.709
▁他们认为	-10.7094
▁和我们	-10.7096
增	-10.7098
美好的	-10.7112
一类	-10.7113
根本没有	-10.7114
水下	-10.7114
▁她是	-10.7116
全球的	-10.7117
更进一步	-10.7119
久	-10.7121
的物体	-10.7122
聪明的	-10.7128
一个地方	-10.7128
合理的	-10.7129
▁主要	-10.7132
作物	-10.7137
的方式来	-10.7138
严肃	-10.7142
提醒	-10.7146
生病	-10.7147
转化为	-10.715
▁我们就能	-10.7151
脱	-10.7152
永久	-10.7154
证	-10.7156
▁对吧	-10.7158
应用到	-10.7159
进行的	-10.716
▁我们就可以	-10.7161
完全没有	-10.7163
▁约翰	-10.7163
▁但她	-10.7164
祖先	-10.7164
眼前	-10.7165
国王	-10.7165
乔治	-10.717
蛋	-10.7174
北美	-10.7179
潜力	-10.718
的一半	-10.7182
▁位于	-10.7184
一无所知	-10.7184
韩国	-10.7186
▁无法	-10.7186
的建议	-10.7186
的第一	-10.7187
有这样的	-10.7188
脱离	-10.7188
激动	-10.7188
出于	-10.7188
听见	-10.7188
咨询	-10.7189
泡沫	-10.7189
直升机	-10.7189
青蛙	-10.7189
有趣的是	-10.7189
减轻	-10.7189
市民	-10.7189
乳房	-10.719
需要一个	-10.7191
暂时	-10.7191
有过	-10.7192
相互作用	-10.7192
活力	-10.7193
提问	-10.7193
岁了	-10.7193
一些问题	-10.7193
▁TED	-10.7196
浪漫	-10.7198
完全是	-10.7198
还记得	-10.7198
实行	-10.7201
▁一天	-10.7202
边境	-10.7205
水中	-10.7206
进入到	-10.7208
公共空间	-10.7209
我今天	-10.7212
两位	-10.7213
推出	-10.7217
▁爱因斯坦	-10.722
用一种	-10.7224
提议	-10.7226
太平洋	-10.7227
最棒的	-10.7228
头上	-10.7228
遭到	-10.723
在伦敦	-10.7235
世界各地	-10.7235
句子	-10.7236
其他地方	-10.7236
的努力	-10.7237
运算	-10.7243
的巨大	-10.7244
住了	-10.7247
的支持	-10.7248
▁如同	-10.7249
主要是	-10.7253
埃	-10.7254
密度	-10.7254
的差异	-10.7256
面部	-10.7257
很棒的	-10.7258
神话	-10.7263
躺在	-10.7263
放在一起	-10.7264
修改	-10.7264
残疾	-10.7266
尝试着	-10.7267
并不会	-10.7268
的物质	-10.7272
持有	-10.7272
能从	-10.7273
放弃了	-10.7274
使你	-10.7274
麦克	-10.7274
最伟大的	-10.7275
▁他们将	-10.7275
挖	-10.7276
▁未来	-10.7282
制作了	-10.7282
太好了	-10.7283
抑郁症	-10.7283
地区的	-10.7283
▁在我的	-10.7286
一代	-10.7287
愿望	-10.7291
你应该	-10.7298
著名	-10.7298
平面	-10.73
▁重新	-10.7302
胶	-10.7309
预期	-10.7309
欧	-10.731
就是我	-10.7311
对付	-10.7311
庞大的	-10.7314
微软	-10.7314
底部	-10.7314
包围	-10.7315
摄像头	-10.7315
写着	-10.7316
授权	-10.7317
蛋白	-10.7317
社群	-10.7317
衰老	-10.7317
教练	-10.7318
▁让它	-10.7318
风景	-10.7318
马丁	-10.7319
化学物质	-10.732
滥用	-10.732
我母亲	-10.7328
女子	-10.7328
▁找到	-10.7328
社交媒体	-10.733
的证据	-10.7336
讲座	-10.7337
常规	-10.7341
生产力	-10.7341
光谱	-10.7345
的消息	-10.7347
有多么	-10.7349
供给	-10.7353
生气	-10.7353
越大	-10.7353
▁得到	-10.7354
国内	-10.7358
▁这正是	-10.736
工作人员	-10.7361
的解决方案	-10.7362
牙齿	-10.7364
三种	-10.7367
扩散	-10.737
透过	-10.7371
穿上	-10.7376
的责任	-10.7378
▁而且它	-10.7379
▁他们还	-10.7382
手上	-10.7383
埃塞俄比亚	-10.7385
诚实	-10.7386
▁说到	-10.7386
▁这两个	-10.7386
里有	-10.7401
书中	-10.7407
像这样的	-10.7408
坐下	-10.7408
▁自	-10.7412
金字塔	-10.7413
发起	-10.7415
钻	-10.7417
苏	-10.7425
▁不会	-10.7425
传染病	-10.7428
保守	-10.743
的一面	-10.7441
有哪些	-10.7442
挑	-10.7444
显示出	-10.7445
客观	-10.7446
协助	-10.7447
停车场	-10.7448
协会	-10.7448
恶心	-10.7449
这只是	-10.745
▁让你	-10.7451
以及其他	-10.7456
有谁	-10.7457
应用程序	-10.746
▁那时候	-10.746
▁当然了	-10.746
积极的	-10.7464
和其它	-10.7466
要知道	-10.7466
我和	-10.7468
短片	-10.747
会是	-10.7474
周末	-10.7474
的潜力	-10.7475
这块	-10.7476
▁我们通过	-10.7477
导师	-10.7477
这个例子	-10.7482
看出	-10.7488
仅有	-10.7494
变的	-10.7496
觉得自己	-10.7497
温	-10.7497
是人类	-10.7502
例外	-10.7505
西班牙	-10.7506
我妻子	-10.7509
人脑	-10.7512
抑郁	-10.7516
幅	-10.752
所带来的	-10.7522
▁它就	-10.7523
▁谢谢大家	-10.7526
进程	-10.7527
的途径	-10.7527
几个小时	-10.7527
与我	-10.7528
▁你也可以	-10.753
曲	-10.753
大部分的	-10.753
荷兰	-10.753
投资者	-10.7532
主要的	-10.7533
尺寸	-10.7533
要在	-10.7533
租	-10.7534
我们又	-10.7534
风暴	-10.7535
▁是不是	-10.7537
做的是	-10.7539
看似	-10.7547
超市	-10.7548
身体的	-10.7551
▁你可以在	-10.7551
时机	-10.7552
挣	-10.7553
是被	-10.7554
时尚	-10.7555
的智慧	-10.7557
说起	-10.7558
周边	-10.7561
码	-10.7562
▁我不是	-10.7562
说什么	-10.7562
都不会	-10.7568
▁直接	-10.757
守	-10.7571
可以说是	-10.7571
这件事情	-10.7572
胡	-10.7573
刚好	-10.7574
▁由此	-10.7574
▁寻找	-10.7576
救援	-10.7577
奥巴马	-10.7578
牛奶	-10.7578
叔叔	-10.7579
蘑菇	-10.7579
补充	-10.7579
简洁	-10.7579
耐心	-10.7579
访谈	-10.7579
顾问	-10.7579
航行	-10.758
向我们	-10.758
尺度	-10.758
普及	-10.7582
教训	-10.7583
接到	-10.7584
热量	-10.7586
的产物	-10.7586
你的身体	-10.7588
罗马	-10.7589
▁可能是	-10.7591
何	-10.7599
有兴趣	-10.76
▁这一切	-10.7601
▁我很	-10.7602
早已	-10.7604
▁但它们	-10.7606
的观众	-10.7607
也就	-10.7609
整个国家	-10.7609
的发现	-10.7623
的数学	-10.7626
显而易见	-10.7628
的全部	-10.7628
▁真是	-10.7629
▁是一种	-10.7634
横	-10.7639
大多	-10.764
▁但同时	-10.7645
返回	-10.765
亲自	-10.7651
的场景	-10.7651
画画	-10.7653
不能再	-10.7653
易	-10.7654
展	-10.7655
种种	-10.7655
的后果	-10.7656
▁我们想要	-10.7657
的几率	-10.7661
立法	-10.7661
与众不同	-10.7663
当前	-10.7663
的父亲	-10.7664
抽	-10.7666
交通工具	-10.7667
得不到	-10.7668
整整	-10.7669
很聪明	-10.7675
可以从	-10.7678
市中心	-10.7679
别人的	-10.7679
▁这位	-10.7681
▁N	-10.7682
准则	-10.7683
失败了	-10.7685
部长	-10.7688
加利福尼亚	-10.7689
汽油	-10.7692
的机构	-10.7692
▁我们可以看到	-10.7692
面临着	-10.7694
年的时间	-10.7698
经理	-10.7698
术	-10.7702
世界上的	-10.7702
双方	-10.7702
▁建立	-10.7706
喷	-10.7707
尚未	-10.7708
肢体	-10.7709
的那	-10.771
把你的	-10.7712
CEO	-10.7712
培育	-10.7712
金枪鱼	-10.7712
郊区	-10.7712
牧师	-10.7712
粪便	-10.7712
新鲜	-10.7715
参与进来	-10.7716
圈子	-10.7718
支出	-10.7718
▁在此	-10.7719
人际关系	-10.7719
是否能	-10.772
带入	-10.772
所需	-10.7722
这是一种	-10.7724
的认识	-10.7725
地铁	-10.7727
男士	-10.7728
抗	-10.7729
我们自己的	-10.7731
帝国	-10.7733
款	-10.7733
▁是我	-10.7742
的儿童	-10.7749
就此	-10.7752
的成功	-10.7752
狮子	-10.7755
▁因为她	-10.7755
▁Chris	-10.7756
提高了	-10.7757
实现了	-10.7758
戴着	-10.7762
▁你应该	-10.7764
副	-10.7766
年开始	-10.7768
也许是	-10.7769
但是我	-10.7772
到一个	-10.7775
摧毁	-10.7777
可持续发展	-10.7777
不允许	-10.778
不大	-10.7781
我们都知道	-10.7782
▁答案是	-10.7785
信心	-10.7789
不但	-10.7789
抢	-10.779
的电话	-10.7791
的区别	-10.7793
哪种	-10.7799
广	-10.7801
▁大卫	-10.7802
篇	-10.7803
轮椅	-10.7805
视野	-10.7806
的秘密	-10.7806
你就会	-10.7807
说明了	-10.7815
▁如果没有	-10.7816
政府的	-10.7819
星星	-10.7823
研究人员	-10.7824
非凡的	-10.7826
我应该	-10.7826
屋子	-10.7826
▁这样一来	-10.7827
不停	-10.7828
四年	-10.7829
的同事	-10.7829
是错的	-10.783
指令	-10.783
坏了	-10.7832
周期	-10.7835
寄	-10.7836
农	-10.7836
杯	-10.7838
厌恶	-10.7838
液	-10.784
他会	-10.7843
卵	-10.7844
丢	-10.7845
鬼	-10.7845
向你们展示	-10.7846
▁这儿	-10.7847
误解	-10.7847
涂鸦	-10.7847
预计	-10.7847
理智	-10.7847
压缩	-10.7847
废物	-10.7848
之旅	-10.7848
非政府组织	-10.7848
晚餐	-10.7849
对其	-10.7849
尽可能	-10.785
参与其中	-10.7852
还需要	-10.7854
录制	-10.7857
谷	-10.7858
发明的	-10.7861
▁一开始	-10.7862
你会看到	-10.7863
是否会	-10.7863
专注	-10.7863
发表了	-10.7864
雌性	-10.7864
搞清楚	-10.7865
感动	-10.7866
几百	-10.7867
的科学	-10.7867
嗨	-10.7867
w	-10.7868
栖息地	-10.7869
是不	-10.787
使用者	-10.7872
这个小	-10.7873
▁所有人都	-10.7873
第二次	-10.7874
很快地	-10.7876
的小孩	-10.7878
温暖	-10.7878
在我看来	-10.7881
当代	-10.7882
一款	-10.7883
松	-10.7883
到这里	-10.7885
很多的	-10.7886
▁这个项目	-10.7887
及时	-10.789
美元的	-10.7893
赢了	-10.7893
。(	-10.7894
两天	-10.7899
拥有了	-10.7901
情形	-10.7902
提到的	-10.7904
的表情	-10.7915
去寻找	-10.7916
的视角	-10.7917
男女	-10.7917
▁L	-10.7924
紧密	-10.7925
里面的	-10.7926
的手机	-10.7926
▁假设	-10.7926
很不错	-10.7931
一百万	-10.7933
▁因为这些	-10.7941
露	-10.7943
用途	-10.7946
man	-10.7946
的因素	-10.7948
属	-10.7957
泡	-10.7957
可以做	-10.7959
三维	-10.796
那里的	-10.7961
人均	-10.7973
它是一个	-10.7975
鲁	-10.7975
呆	-10.7976
▁我们称之为	-10.7976
▁如果我们能	-10.7977
累	-10.7977
▁全世界	-10.7977
世界各地的	-10.7979
的好处	-10.7979
的信号	-10.798
储蓄	-10.7983
指示	-10.7984
海啸	-10.7984
青春期	-10.7984
寒冷	-10.7984
核武器	-10.7986
外交	-10.7986
工业革命	-10.7987
采取行动	-10.7988
我的朋友	-10.799
ma	-10.799
派对	-10.7992
大致	-10.7992
的爱	-10.7993
提及	-10.7993
我去	-10.7994
▁他们需要	-10.7998
用这些	-10.8004
隔离	-10.8004
大型的	-10.8006
低于	-10.8006
现在已经	-10.8007
ing	-10.8009
对我们来说	-10.8011
谋杀	-10.8012
欲望	-10.8017
▁我们不知道	-10.8021
赢得了	-10.8022
的创新	-10.8025
刚开始	-10.803
皆	-10.8032
的科学家	-10.8032
小行星	-10.8032
▁这也是为什么	-10.8032
共有	-10.8033
蒂	-10.8035
神经系统	-10.8035
有很多人	-10.8036
▁每当	-10.804
网站上	-10.8043
会变成	-10.8044
不那么	-10.8045
而来	-10.8046
彗星	-10.8046
准确的	-10.8046
起了	-10.8052
这项工作	-10.8054
数目	-10.8054
一点儿	-10.8056
▁幸运的是	-10.8058
▁这会	-10.8059
某一	-10.8063
使用它	-10.8063
▁我认为这	-10.8068
你怎么	-10.8069
三天	-10.8071
假如	-10.8079
聊	-10.808
专	-10.8086
深度	-10.8089
的范围	-10.8094
遍	-10.8095
▁这将	-10.8097
吨	-10.8098
▁里面	-10.8101
下了	-10.8102
这个星球上	-10.8103
法庭	-10.8103
默	-10.8103
三个月	-10.8104
等到	-10.8108
平常	-10.8109
引领	-10.8119
势力	-10.8119
抵抗	-10.8121
温室气体	-10.8123
大西洋	-10.8123
损害	-10.8123
恶化	-10.8124
通往	-10.8124
的投资	-10.8124
顺	-10.8128
采	-10.8133
过后	-10.8133
▁这在	-10.8139
▁这让我	-10.8139
好事	-10.8144
人人都	-10.8145
良好的	-10.815
对应	-10.8151
▁进入	-10.8152
对不对	-10.8155
美国政府	-10.8156
绝大多数	-10.8156
▁你想	-10.8157
解释了	-10.8157
是非常重要的	-10.8159
毫无疑问	-10.8163
▁我决定	-10.8163
选项	-10.8165
可能有	-10.8166
的平均	-10.8167
此类	-10.8167
盐	-10.8168
做事	-10.8169
▁这个故事	-10.817
致命	-10.8172
唱歌	-10.8174
本书	-10.8176
有用的	-10.8176
的日子	-10.8178
能不能	-10.8179
山脉	-10.818
赶	-10.8186
浮	-10.8194
▁平均	-10.8196
我不能	-10.8203
▁当我在	-10.8204
课堂	-10.8207
构想	-10.821
的最大	-10.8215
最重要的是	-10.8217
没有意识到	-10.8221
我的演讲	-10.8224
就没有	-10.8224
▁你就可以	-10.8224
▁我得	-10.8225
你现在	-10.8225
医疗保健	-10.8229
大声	-10.8232
科学家们	-10.8234
降	-10.8235
大人	-10.8237
详细	-10.8237
疯了	-10.8238
超过了	-10.8238
那条	-10.8239
▁在我看来	-10.8241
掌声	-10.8242
结束后	-10.8246
一个叫做	-10.8247
虐待	-10.8249
也不能	-10.8251
吃饭	-10.8252
一大堆	-10.8253
对人类	-10.8255
海滩	-10.8255
▁地球	-10.8258
▁它们在	-10.8262
用到	-10.8263
赞助	-10.8263
姥鲨	-10.8264
跑步	-10.8264
干旱	-10.8264
提示	-10.8264
重塑	-10.8264
我曾	-10.8265
荣誉	-10.8266
缓慢	-10.8266
▁这张照片	-10.8268
水果	-10.8271
研究表明	-10.8271
的细节	-10.8273
生物体	-10.8275
另外一种	-10.8275
后悔	-10.8275
酒吧	-10.8277
的思维	-10.8279
我爱	-10.828
邪恶	-10.8281
我们有了	-10.8284
拿走	-10.8285
参与了	-10.8287
▁唯一	-10.8291
夜晚	-10.8291
▁–	-10.8291
▁我甚至	-10.8292
▁但我认为	-10.8294
素	-10.8296
和她	-10.8297
▁就是我们	-10.8299
▁这其中	-10.8301
庞大	-10.8302
目	-10.8304
NASA	-10.8305
场所	-10.8308
西方国家	-10.831
il	-10.8313
▁你看到	-10.8313
年纪	-10.8314
都已经	-10.8318
突变	-10.8324
和你们	-10.8327
高效	-10.8327
如果他们	-10.8328
的认知	-10.8332
要花	-10.8335
▁如果有	-10.8335
小心	-10.8338
老师们	-10.8341
这些技术	-10.8344
全是	-10.8344
举办	-10.8344
向他们	-10.8346
数千	-10.8349
形容	-10.8349
被发现	-10.8349
▁男人	-10.835
将是	-10.8351
脑中	-10.8356
一张照片	-10.8357
到来	-10.8359
你就可以	-10.836
完了	-10.8363
▁作为一名	-10.8363
了解了	-10.8364
歌曲	-10.8364
遇到的	-10.8366
指的是	-10.8369
往下	-10.8369
ne	-10.837
商人	-10.8371
电路	-10.8375
种群	-10.8375
脑子里	-10.8378
追寻	-10.8381
合适	-10.8383
强奸	-10.8383
可行	-10.8384
知道如何	-10.8386
大大	-10.8391
要从	-10.8393
如果你想	-10.8393
是我们的	-10.8399
跟随	-10.84
佛	-10.8404
▁很快	-10.8404
▁也会	-10.8405
消化	-10.8407
叙述	-10.8407
甲烷	-10.8407
维基百科	-10.8407
竞赛	-10.8407
尤其	-10.8407
布朗	-10.8407
射击	-10.8407
暗物质	-10.8408
语音	-10.8408
应付	-10.8409
声称	-10.8412
解决办法	-10.8413
我爸爸	-10.8414
火山	-10.8414
属性	-10.8415
▁把它	-10.8418
解释一下	-10.8425
我们的大脑	-10.8426
想让	-10.8427
富裕	-10.8428
以往	-10.8432
下降了	-10.8433
的头	-10.8433
花费了	-10.8437
就不	-10.8441
这方面	-10.8444
英	-10.8444
彩	-10.845
着迷	-10.8453
▁这并不是	-10.8454
去世	-10.8455
的命运	-10.8457
这么做了	-10.8458
的关注	-10.8459
得很	-10.846
相应的	-10.8461
什么都没有	-10.8462
的压力	-10.8468
猜想	-10.8468
本能	-10.8469
▁她在	-10.8471
录	-10.8472
的含义	-10.8475
书写	-10.8476
呆在	-10.8479
占据	-10.8481
两千	-10.8481
海里	-10.8482
▁就算	-10.8483
想过	-10.8484
赚	-10.8484
尖	-10.8486
这个事实	-10.8487
穷	-10.8487
▁于是他	-10.8491
不公平	-10.8493
傻	-10.8494
可以将	-10.8496
比我	-10.8497
勇敢	-10.8498
的对话	-10.8499
身为	-10.85
翅膀	-10.85
取出	-10.8503
必要	-10.8505
一艘	-10.8506
新型	-10.8506
侧	-10.8507
的边缘	-10.8511
会带来	-10.8522
发达国家	-10.8522
▁你不会	-10.8526
哪儿	-10.8526
收藏	-10.8529
一万	-10.8531
菌	-10.8534
我们无法	-10.8536
免疫	-10.8538
癌细胞	-10.8538
我们的孩子	-10.8542
泥	-10.8542
情境	-10.8544
▁当它	-10.8546
氧	-10.8548
只是在	-10.8549
搬到	-10.8549
伦理	-10.855
琳	-10.855
非常好的	-10.855
安慰	-10.8551
戈尔	-10.8551
孩童	-10.8552
诉讼	-10.8552
妥协	-10.8552
倾斜	-10.8552
▁但我想	-10.8552
的威胁	-10.8552
麦克风	-10.8553
我最喜欢的	-10.8554
节省	-10.8557
万年	-10.856
美妙	-10.856
休	-10.856
水母	-10.856
最早的	-10.8561
你已经	-10.8563
档案	-10.8564
优化	-10.8566
版权	-10.8567
问你	-10.8567
清晰	-10.8568
的各种	-10.8568
▁也没有	-10.8569
想一下	-10.857
大爆炸	-10.8571
的现实	-10.8571
使它	-10.8571
▁我用	-10.8574
出来了	-10.8576
亿年	-10.8578
路上	-10.8579
▁只能	-10.8582
▁为什么我们	-10.8584
其中的一个	-10.8585
透明	-10.8586
也需要	-10.8588
每一	-10.8592
▁那我们	-10.8592
可用	-10.8592
世界银行	-10.8593
很好地	-10.8593
稍	-10.8594
▁尝试	-10.8594
霍	-10.8595
就是在	-10.8596
▁但也	-10.8597
我的身体	-10.8597
帮助我	-10.8598
社会问题	-10.8599
我去了	-10.8599
尾巴	-10.86
每小时	-10.86
你认为	-10.8601
▁事实是	-10.8602
宣称	-10.8602
额外	-10.8604
三十	-10.8604
向你	-10.8605
任何事情	-10.8607
负面	-10.8607
有几个	-10.8611
本质上	-10.8612
并未	-10.8612
拼	-10.8617
的人群	-10.8619
▁很显然	-10.8621
分辨	-10.8621
四周	-10.8621
▁意味着	-10.8624
镇	-10.8628
白色的	-10.8629
就知道	-10.863
车子	-10.8632
有意义	-10.8634
的规模	-10.8635
在街上	-10.8636
可以帮助	-10.8636
关键的	-10.8637
屏幕上	-10.8638
▁今天我	-10.8639
所以我们	-10.864
会看到	-10.8642
写道	-10.8642
▁他们对	-10.8644
是没有	-10.8651
▁不同的	-10.8653
可靠	-10.8654
在那个	-10.8655
生物多样性	-10.8655
的热情	-10.8658
附近的	-10.8659
▁顺便说一下	-10.8661
不清楚	-10.8663
的症状	-10.8666
去看看	-10.8666
▁有了	-10.8669
控	-10.8672
上周	-10.8673
小学	-10.8674
冰层	-10.8674
键盘	-10.8675
建立在	-10.868
做的就是	-10.8684
替换	-10.8685
冬天	-10.8692
由此	-10.8697
催产素	-10.8698
的利益	-10.8698
汤	-10.8698
咬	-10.8698
楼梯	-10.8699
酶	-10.8699
骆驼	-10.8699
乌鸦	-10.8699
城镇	-10.8699
贝尔	-10.87
在座各位	-10.87
强度	-10.8701
遵守	-10.8701
病例	-10.8704
是要	-10.8704
跑到	-10.8705
▁只需要	-10.8705
水里	-10.8705
可以成为	-10.8705
肤色	-10.8706
气泡	-10.8707
谢谢大家	-10.871
脑袋	-10.8711
与其他	-10.8711
放置	-10.8711
能看见	-10.8712
好奇心	-10.8713
四十	-10.8713
大师	-10.8714
不同于	-10.8716
社交网络	-10.8717
同行	-10.8718
野	-10.8718
做法	-10.8718
填	-10.8727
变得更好	-10.8727
非常棒	-10.8728
ur	-10.8729
棒球	-10.8731
重新定义	-10.8732
▁所以我就	-10.8733
紧急	-10.8744
的意见	-10.8746
很开心	-10.8747
跟他们	-10.8749
的水平	-10.8751
严肃的	-10.8751
加起来	-10.8754
的表面	-10.8757
每个人都有	-10.8761
坏消息	-10.8762
而来的	-10.8762
我妈妈	-10.8762
▁创造	-10.8766
很兴奋	-10.8769
时光	-10.877
藏在	-10.877
保罗	-10.877
人们对	-10.8771
冒	-10.8773
女生	-10.8774
▁另外一个	-10.8777
▁让人们	-10.878
中文	-10.8781
归	-10.8783
性能	-10.8784
以至于	-10.8787
陆地	-10.8788
巨	-10.8789
代替	-10.8791
啥	-10.8793
景象	-10.8794
还不够	-10.8794
连接到	-10.8796
用的是	-10.8798
达到了	-10.8799
是怎样的	-10.8802
帮我们	-10.8802
路线	-10.8804
深深	-10.8804
插	-10.8804
▁我们甚至	-10.881
挪威	-10.8811
会改变	-10.8812
没关系	-10.8816
只用	-10.8817
戏	-10.8817
文化中	-10.8818
坏事	-10.8819
这一天	-10.882
找寻	-10.8824
的另一个	-10.8824
怕	-10.8826
仍有	-10.8828
▁可以看到	-10.8829
▁怎样	-10.883
铁路	-10.883
共鸣	-10.8831
脸书	-10.8831
谁是	-10.8831
那些人	-10.8831
▁还要	-10.8832
小女孩	-10.8833
在意	-10.8836
可再生能源	-10.8837
有限	-10.8839
对未来	-10.8843
概率	-10.8843
统计数据	-10.8843
合作伙伴	-10.8844
产量	-10.8844
te	-10.8845
灰	-10.8845
竞选	-10.8846
倾向	-10.8847
狼	-10.8847
HIV	-10.8848
诠释	-10.8848
辅助	-10.8848
防御	-10.8848
探究	-10.8848
宇航员	-10.8848
肝脏	-10.8848
相遇	-10.8848
行驶	-10.8848
升级	-10.8849
男生	-10.8851
界限	-10.8852
特技	-10.8857
》。	-10.8859
建立起	-10.8859
季节	-10.8864
种不同的	-10.8866
这些故事	-10.8868
天使	-10.8869
点儿	-10.8873
潮	-10.8873
▁认为	-10.8876
持续了	-10.8882
这张图片	-10.8885
也将	-10.8886
对那些	-10.8887
星球上	-10.8888
▁总是	-10.8888
无人	-10.8891
名声	-10.8892
▁这才是	-10.8894
在场	-10.89
的人数	-10.8901
必然	-10.8902
不容易	-10.8904
童年	-10.8905
三倍	-10.8906
▁这就像	-10.8906
听听	-10.8907
▁其实是	-10.8908
越来越多	-10.8913
病人的	-10.8913
的画面	-10.8915
冲击	-10.8915
问题的	-10.8916
的情景	-10.8918
即时	-10.8926
买到	-10.8926
含义	-10.8927
go	-10.8929
▁但这是	-10.8929
上有	-10.893
就已经	-10.8935
▁但是它们	-10.8935
说的是	-10.8939
白天	-10.894
差距	-10.8943
阐述	-10.8947
要做的	-10.8948
挤	-10.8948
眼中	-10.8953
重组	-10.8955
连接起来	-10.8955
餐馆	-10.8955
仍然是	-10.896
的汽车	-10.896
▁但当	-10.8961
我被	-10.8968
▁我们就会	-10.8969
我们就可以	-10.897
阴影	-10.8973
又一次	-10.8975
▁如果你在	-10.8976
▁后来我	-10.8981
有人说	-10.8983
了下来	-10.8984
▁学习	-10.8987
研究的	-10.8987
工作了	-10.8989
随之	-10.8989
的趋势	-10.8989
馆	-10.8991
ha	-10.8992
的合作	-10.8992
▁最重要的是	-10.8993
党	-10.8994
鲸	-10.8994
零件	-10.8994
薄	-10.8996
杆	-10.8996
姐妹	-10.8998
堡	-10.8998
磷	-10.8999
摸	-10.8999
岛上	-10.8999
耶	-10.8999
审判	-10.8999
十二	-10.8999
哒	-10.8999
故意	-10.9
政权	-10.9
的增长	-10.9
尽力	-10.9004
天花	-10.9005
这样做了	-10.9006
出自	-10.9007
木头	-10.9007
总部	-10.9008
我的生活	-10.9008
这也	-10.901
个性化	-10.9015
身体里	-10.9016
我曾经	-10.9017
▁和其他	-10.9018
的路上	-10.9019
医	-10.9019
原型	-10.9021
难以置信	-10.9021
的两个	-10.9022
激光	-10.9023
卢旺达	-10.9024
更高的	-10.9025
编织	-10.9025
▁都能	-10.9026
就想	-10.9027
处理器	-10.9027
▁针对	-10.9027
▁突然间	-10.9028
行动起来	-10.903
更重要	-10.903
不论	-10.9033
▁我非常	-10.9036
因为你	-10.9036
更喜欢	-10.9038
厉害	-10.9038
▁他把	-10.904
冠军	-10.904
时代的	-10.9043
加热	-10.9046
▁也许是	-10.9046
这座	-10.905
▁你现在	-10.9052
这个领域	-10.9058
的情形	-10.9059
的发明	-10.906
这东西	-10.9061
所谓	-10.9062
这些动物	-10.9062
了这些	-10.9065
当地人	-10.9065
▁让我们看看	-10.907
在网络上	-10.907
的费用	-10.9072
就好像	-10.9072
看一看	-10.9076
没能	-10.9076
电极	-10.9077
许可	-10.9078
小镇	-10.9079
现实中	-10.9079
死亡率	-10.9081
球员	-10.9081
的转变	-10.9081
名人	-10.9082
术语	-10.9083
▁意思是	-10.9083
认真	-10.909
▁而那些	-10.9091
黄色的	-10.9097
挑选	-10.9098
几种	-10.9098
有一位	-10.9099
不是为了	-10.91
人们会	-10.91
▁反而	-10.9102
▁在我们的	-10.9104
置于	-10.9107
最具	-10.9107
爵士	-10.911
▁一方面	-10.911
▁他也	-10.9112
中学	-10.9115
长寿	-10.9115
上百	-10.9118
都不是	-10.9121
的差别	-10.9122
表面上	-10.9122
矿	-10.9122
他们没有	-10.9123
打造	-10.9125
时间里	-10.9126
特质	-10.9126
▁就是说	-10.9126
天然	-10.9127
为什么会	-10.913
何处	-10.9131
性质	-10.9136
典型	-10.9137
旗	-10.9138
研究中	-10.9142
▁你也	-10.9145
骗	-10.9146
从来没	-10.9146
▁我们先	-10.9147
萤火虫	-10.9153
中产阶级	-10.9153
逐步	-10.9153
MIT	-10.9154
怎么可能	-10.9154
▁KB	-10.9155
或其他	-10.9157
朝着	-10.9157
四分之一	-10.9158
特权	-10.9158
秒钟	-10.9158
基本上是	-10.9159
堂	-10.9159
反过来	-10.916
光明	-10.916
平静	-10.916
的基因组	-10.9163
预言	-10.9164
短期	-10.9164
业务	-10.9164
没有足够的	-10.9165
有关的	-10.9165
一点都不	-10.9165
大脑里	-10.9168
全球性的	-10.9168
联系在一起	-10.9168
举行	-10.917
完全不	-10.9173
▁发生在	-10.9178
对称性	-10.9179
这事	-10.9179
一个星期	-10.918
加以	-10.918
是多么的	-10.9181
▁它是一种	-10.9183
人格	-10.9185
遥远	-10.9185
我才	-10.9187
提到了	-10.9189
医药	-10.9191
水面	-10.9191
我刚	-10.9192
lo	-10.9192
的使用	-10.9193
展示的	-10.9193
曾是	-10.9197
有益	-10.9199
有幸	-10.9204
跨	-10.9204
旧的	-10.9204
如果你们	-10.9208
注册	-10.9209
就意味着	-10.9211
男人们	-10.9217
▁马克	-10.9219
都需要	-10.9219
▁不仅仅	-10.9222
的医疗	-10.9225
享有	-10.9226
▁我在这里	-10.9226
病菌	-10.9227
对立	-10.9228
轨迹	-10.9228
长度	-10.9231
优雅	-10.9235
这种方法	-10.9235
等级	-10.9239
▁还有其他	-10.9239
▁第三个	-10.924
船只	-10.9243
很远	-10.9244
长远	-10.9246
的象征	-10.9249
抛	-10.9251
帕	-10.9252
公式	-10.9253
我不是	-10.9253
史蒂夫	-10.9253
两件事	-10.9254
实现的	-10.9257
Chris	-10.9258
伴随着	-10.9261
深刻	-10.9264
青年	-10.9264
磁场	-10.9264
垫	-10.9264
打开了	-10.9268
马克	-10.927
现在就	-10.9271
我不想	-10.9272
战士	-10.9272
老年人	-10.9273
不明白	-10.9274
我们称之为	-10.9276
购物	-10.9276
去思考	-10.9277
思	-10.9277
基地	-10.928
观众笑	-10.928
地址	-10.9283
不被	-10.9284
犯人	-10.9287
印度人	-10.9287
促使	-10.9288
神经科学	-10.9289
设计出	-10.9291
为他	-10.9291
要是	-10.9292
实验室里	-10.9293
苏格兰	-10.9294
稳定的	-10.9295
在接下来的	-10.9295
包容	-10.9295
体育	-10.9296
▁一边	-10.9296
发言	-10.9296
做这件事	-10.9297
慷慨	-10.93
世界里	-10.9301
▁但其实	-10.9301
▁对此	-10.9301
▁我不能	-10.9302
哥伦比亚	-10.9304
失败的	-10.9304
▁试着	-10.9304
刷	-10.9306
的政策	-10.9307
始于	-10.9308
▁谢谢你们	-10.9309
铜	-10.9309
岛屿	-10.9309
锻炼	-10.9309
塔利班	-10.931
宏观	-10.931
批准	-10.931
交叉	-10.931
累积	-10.931
弹奏	-10.931
截然不同	-10.931
都将	-10.9311
杯子	-10.9312
场合	-10.9312
键	-10.9313
品种	-10.9314
这项研究	-10.9314
输出	-10.9315
仿佛	-10.9317
▁没有任何	-10.9323
东部	-10.9323
吃的	-10.9325
一直都	-10.9326
高于	-10.9331
把手	-10.9331
▁他们发现	-10.9336
制造了	-10.9338
的安全	-10.9338
人类历史上	-10.9338
后代	-10.9338
了吧	-10.9338
把它放在	-10.934
脊髓	-10.934
投入到	-10.9342
硬币	-10.9342
医学院	-10.9343
了什么	-10.9344
▁生命	-10.9345
会想	-10.9347
有足够的	-10.935
也是一个	-10.935
数百	-10.9351
你不会	-10.9351
▁下一个	-10.9352
想去	-10.9355
读了	-10.9355
▁我问	-10.9356
某个人	-10.9358
很低	-10.9358
我儿子	-10.936
那样做	-10.936
▁还有一些	-10.9362
公路	-10.9366
爱尔兰	-10.9366
即使是	-10.9366
▁自然	-10.9367
制造的	-10.937
会得到	-10.937
那一年	-10.9371
让这些	-10.9371
可爱的	-10.9376
常见	-10.9378
胜	-10.9379
的光	-10.9381
施	-10.9383
▁音乐	-10.9383
降低了	-10.9385
一个全新的	-10.9386
通常是	-10.9387
et	-10.9388
开源	-10.9389
co	-10.9389
关乎	-10.9391
带走	-10.9392
很多很多	-10.9392
人生中	-10.9394
型的	-10.9395
搬	-10.9396
昂贵的	-10.9399
我是一个	-10.9399
笑话	-10.94
就在于	-10.9401
逃离	-10.9401
略	-10.9402
留言	-10.9402
造出	-10.9403
弯曲	-10.9408
▁再一次	-10.9411
我的意思是	-10.9414
之地	-10.9417
德里克	-10.9418
女孩子	-10.942
设立	-10.9421
卢	-10.9422
Z	-10.9423
党派	-10.9424
的频率	-10.9424
讲了	-10.9429
的讨论	-10.9433
可以是	-10.9436
我说的	-10.9437
那只	-10.9438
可见	-10.9441
▁我总是	-10.9441
的手	-10.9442
大厅	-10.9442
哪一个	-10.9443
强制	-10.9443
▁我们正	-10.9444
相连	-10.9447
没有一个	-10.9447
你想要	-10.9448
在空中	-10.945
一些关于	-10.945
蜂	-10.9453
的报道	-10.9454
闪	-10.9455
▁放在	-10.9456
你也	-10.9456
▁英国	-10.9457
ia	-10.9458
航空	-10.9459
剪	-10.9459
服务器	-10.9461
消极	-10.9461
我很	-10.9463
还要多	-10.9463
糟	-10.9463
于此	-10.9464
菲	-10.9465
康	-10.9465
工资	-10.9465
来看看	-10.9466
麻醉	-10.9467
恰好	-10.9468
启示	-10.9468
底特律	-10.9468
新西兰	-10.9468
曼德拉	-10.9468
假肢	-10.9469
货物	-10.947
黑帮	-10.947
暗能量	-10.947
有两种	-10.9471
感应	-10.9472
导演	-10.9472
第一批	-10.9472
▁在接下来的	-10.9475
管子	-10.9479
免疫系统	-10.9479
命令	-10.948
的资金	-10.9481
▁地球上	-10.9481
疾病的	-10.9481
隔	-10.9482
与他人	-10.9482
研究者	-10.9483
天文学家	-10.9483
景观	-10.9484
微妙	-10.9485
▁仅仅是	-10.9488
la	-10.9488
目睹	-10.9489
一小部分	-10.9489
打了	-10.9489
▁那是在	-10.9492
他们有	-10.9494
无线电	-10.9494
的基础上	-10.9495
▁这里的	-10.9497
▁它有	-10.9497
▁怎么	-10.9498
还不	-10.9499
原来的	-10.9502
有点儿	-10.9502
提前	-10.9503
感激	-10.9503
几乎没有	-10.9505
的词	-10.9507
不曾	-10.9508
▁难道	-10.951
和我一起	-10.951
定律	-10.9512
含量	-10.9515
主导	-10.9515
花在	-10.952
我的父亲	-10.952
我真的	-10.9522
了所有	-10.9529
不如	-10.953
上海	-10.9531
迁移	-10.9532
有任何	-10.9533
威尔	-10.9536
我们的身体	-10.9537
是美国	-10.9539
基督教	-10.9539
▁加上	-10.9544
一番	-10.9545
这个计划	-10.9545
你觉得	-10.9546
城市化	-10.9546
花钱	-10.9546
硅谷	-10.9547
你能看到	-10.9547
某些人	-10.9547
画出	-10.9554
ed	-10.9554
适用	-10.9554
也无法	-10.9557
就是我们	-10.956
叠	-10.956
品质	-10.956
很漂亮	-10.9562
留给	-10.9563
领域的	-10.9564
足以	-10.9564
外表	-10.9565
▁科学	-10.9566
创造的	-10.9567
巴黎	-10.9567
是如此的	-10.9569
画的	-10.9571
上课	-10.9572
and	-10.9572
另一个人	-10.9573
瘫痪	-10.9573
联邦	-10.9577
它们会	-10.9578
填充	-10.958
▁所以现在	-10.9584
也开始	-10.9585
的治疗	-10.9588
可以使	-10.9588
的意识	-10.9591
▁许多人	-10.9592
▁让我来	-10.9594
▁这使得	-10.9595
as	-10.9598
助	-10.9598
▁我猜	-10.9599
从根本上	-10.9599
▁则	-10.96
自然界	-10.96
性行为	-10.9602
举手	-10.9602
更具	-10.9604
到一起	-10.9605
老年	-10.9607
看到这个	-10.9609
你知道的	-10.9612
激进	-10.9613
拍了	-10.9614
修建	-10.9614
画家	-10.9615
这就是我	-10.9617
导	-10.962
一路	-10.9621
就在这里	-10.9621
在阿富汗	-10.9624
不敢	-10.9625
论点	-10.9625
da	-10.9626
观察到	-10.9626
在这方面	-10.9626
护理	-10.9626
弗	-10.9627
旅馆	-10.9628
约束	-10.9629
推荐	-10.9629
阿根廷	-10.9629
侵蚀	-10.9629
卖淫	-10.963
冰箱	-10.963
日益	-10.963
阴道	-10.963
怀特	-10.963
响应	-10.9631
牛顿	-10.9631
是吗	-10.9631
住房	-10.9631
延长	-10.9632
滑板	-10.9632
狂热	-10.9632
照相机	-10.9633
发电	-10.9633
合同	-10.9634
雕像	-10.9634
头部	-10.9634
主张	-10.9634
的环境中	-10.9635
的概率	-10.9636
食物链	-10.9636
劳	-10.9636
的规则	-10.9637
比起	-10.9638
创造性	-10.9642
头骨	-10.9643
总量	-10.9646
有不同的	-10.9646
买卖	-10.9646
五百	-10.9649
这里是	-10.9655
驱使	-10.9655
我们做的	-10.9659
和他的	-10.9661
财产	-10.9661
的市场	-10.9661
仍在	-10.9663
对手	-10.9666
▁然后是	-10.9668
风能	-10.9671
之后的	-10.9671
输	-10.9674
▁并把	-10.9676
正在发生	-10.9681
的年龄	-10.9681
一个项目	-10.9683
▁不再	-10.9683
可以看出	-10.9684
转化成	-10.9685
工作时	-10.9687
我不得不	-10.9688
就不能	-10.9695
性爱	-10.9696
的战争	-10.9696
的美国人	-10.9697
将自己	-10.9699
姐姐	-10.9699
危险的	-10.9701
▁在他们	-10.9702
编写	-10.9704
教导	-10.9706
奋斗	-10.9706
降到	-10.9707
觉得这	-10.9708
复杂性	-10.9712
线路	-10.9712
▁记住	-10.9712
提出的	-10.9712
的美国	-10.9714
建立了一个	-10.9717
▁科技	-10.9718
▁这对于	-10.972
就是要	-10.9721
在世界各地	-10.9723
建立的	-10.9723
第四	-10.9724
丁	-10.9727
自私	-10.9727
一股	-10.9728
▁就像我们	-10.9728
▁然后就	-10.9729
▁所以如果你	-10.9729
一直以来	-10.973
给那些	-10.9731
的是什么	-10.9733
的鱼	-10.9733
告诉她	-10.9733
▁以前	-10.9734
他自己	-10.9736
先进	-10.9743
偶尔	-10.9747
忍受	-10.9748
▁如果你是	-10.975
线索	-10.9754
兆	-10.9756
演说	-10.9756
不错的	-10.9756
最糟糕的	-10.9757
一页	-10.9761
命运	-10.9763
危害	-10.9763
来看待	-10.9764
【	-10.9764
这其中	-10.9764
线性	-10.9764
锁	-10.9767
▁我第一次	-10.9768
祖父	-10.9768
不只	-10.9771
▁确保	-10.9773
煤	-10.9774
▁过去的	-10.9774
也是一样	-10.9774
村子	-10.9775
我意识到	-10.9779
乌干达	-10.9781
有效地	-10.9781
ve	-10.9785
武装	-10.9785
这部分	-10.9786
浪	-10.9786
不会再	-10.9786
所在的	-10.9787
终结	-10.9788
做了一些	-10.9788
你们可以	-10.9789
杂	-10.9789
Q	-10.9791
脑细胞	-10.9792
马拉松	-10.9793
汉堡	-10.9793
亚历山大	-10.9793
擦	-10.9793
化合物	-10.9793
教科书	-10.9793
监督	-10.9793
碰巧	-10.9794
越南	-10.9794
古代	-10.9794
等同于	-10.9794
林肯	-10.9794
漏洞	-10.9795
听觉	-10.9795
厘米	-10.9795
的预测	-10.9796
突出	-10.9796
怎么会	-10.9796
文本	-10.9797
削减	-10.9797
尽快	-10.9797
di	-10.9797
▁视频	-10.9798
意识形态	-10.9799
排名	-10.9799
临床试验	-10.98
▁故事	-10.9801
▁按照	-10.9801
罢了	-10.9805
口袋里	-10.9805
重大的	-10.9806
迫使	-10.9807
当他	-10.9808
▁在那	-10.9813
很多事情	-10.9815
歌手	-10.9815
的职业	-10.9815
附	-10.9819
具体的	-10.9821
煤炭	-10.9823
我的人生	-10.9823
发现自己	-10.9829
这个理论	-10.9829
雄	-10.9832
各种各样	-10.9832
▁甚至在	-10.9833
知道你	-10.9833
问他	-10.9835
数十亿	-10.9835
讲的是	-10.984
很长时间	-10.984
臂	-10.9841
有害	-10.9841
引力	-10.9843
看到它	-10.9843
就算	-10.9848
的时间里	-10.9848
直线	-10.9849
▁这时候	-10.9862
的路	-10.9862
一个词	-10.9862
▁如果我们可以	-10.9863
做得更好	-10.9866
照射	-10.9867
实用	-10.9869
动物的	-10.987
他们所	-10.987
年以来	-10.9872
纽约的	-10.9873
系统的	-10.9874
一个想法	-10.9876
更像是	-10.9878
他就	-10.9878
轮子	-10.9879
个人的	-10.9883
还得	-10.9885
局限	-10.9887
已经是	-10.9887
万美金	-10.9889
▁只要你	-10.989
的死亡	-10.9891
呈	-10.9896
不多	-10.9896
已经成为	-10.9897
树林	-10.9901
▁声音	-10.9902
禁	-10.9903
干什么	-10.9904
野生	-10.9904
五分钟	-10.9906
作了	-10.9907
其中的一些	-10.9907
开始思考	-10.9907
这个机器人	-10.9909
转化	-10.991
是多少	-10.9912
at	-10.9913
持久	-10.9913
使命	-10.9918
而又	-10.9918
▁这真是	-10.9919
渠道	-10.9923
上次	-10.9923
一个小小的	-10.9923
名单	-10.9924
如何才能	-10.9925
的结论	-10.9928
亿人口	-10.993
The	-10.9932
的财富	-10.9932
音符	-10.9932
杰出的	-10.9935
▁但是当	-10.9936
▁对于那些	-10.9936
西部	-10.9937
的内部	-10.9937
年代的	-10.9938
每月	-10.9938
既然	-10.9938
还未	-10.9945
结尾	-10.9946
举个例子	-10.9947
很快就	-10.9947
唱片	-10.9948
壳	-10.9948
▁我感到	-10.9948
探	-10.9952
为什么不	-10.9952
我刚刚	-10.9953
的人都	-10.9954
同伴	-10.9957
大麻	-10.9957
的平台	-10.9959
蛋糕	-10.9959
渔业	-10.9959
账户	-10.9959
恨	-10.9959
竟	-10.996
借口	-10.996
扯	-10.996
拉丁美洲	-10.996
胖	-10.996
飓风	-10.996
卡路里	-10.996
哭泣	-10.996
救助	-10.996
白宫	-10.9961
三角形	-10.9961
吸烟	-10.9961
恐怖袭击	-10.9961
化石燃料	-10.9961
的动力	-10.9962
▁一般	-10.9963
▁至于	-10.9964
去掉	-10.9965
地狱	-10.9965
又有	-10.9968
伴侣	-10.997
拿来	-10.997
组成部分	-10.9971
横跨	-10.9973
到处都是	-10.9974
集合	-10.9978
是不可能的	-10.9978
毕业生	-10.998
的资料	-10.998
校长	-10.998
回来了	-10.9983
停车	-10.9983
结束时	-10.9984
这样的事	-10.9989
只不过是	-10.9991
引进	-10.9992
众人	-10.9992
空白	-10.9993
玩游戏	-10.9997
天啊	-11
可持续	-11.0001
BG	-11.0004
作为一种	-11.0005
的愿望	-11.0009
吃掉	-11.0009
翻译成	-11.001
的法律	-11.0011
明年	-11.0011
上千	-11.0012
的一天	-11.0013
▁之所以	-11.0016
去理解	-11.002
你是否	-11.0021
电视节目	-11.0021
一个朋友	-11.0027
这样的事情	-11.0028
ad	-11.0029
当然是	-11.0032
创建了	-11.0032
最先	-11.0032
加快	-11.0035
海藻	-11.0037
我只是	-11.0039
免费的	-11.004
▁很好	-11.0043
排除	-11.0043
就这么	-11.0046
四种	-11.0046
少年	-11.0047
玛丽	-11.0048
叫它	-11.0049
一模一样	-11.0049
的分子	-11.005
天线	-11.0051
在实验室里	-11.0052
外国	-11.0054
股	-11.0056
六个月	-11.0057
这个技术	-11.0058
▁我又	-11.0058
一刻	-11.0058
听上去	-11.0062
你自己的	-11.0064
事物的	-11.0066
语言的	-11.0069
有机体	-11.0071
历史的	-11.0072
的英雄	-11.0072
先进的	-11.0079
去除	-11.008
会问	-11.008
告	-11.0081
踏	-11.0084
▁不用	-11.0085
的广告	-11.0086
有一次	-11.0089
科学的	-11.0094
副作用	-11.0094
到现在	-11.0097
起到	-11.0099
味道	-11.01
村	-11.01
患上	-11.0101
想起	-11.0102
经典	-11.0102
迷人	-11.0104
变量	-11.0104
回归	-11.0109
几周	-11.011
更重要的是	-11.0114
环境下	-11.0116
妹妹	-11.0116
壁	-11.0121
▁看上去	-11.0122
保健	-11.0123
均	-11.0123
意味	-11.0125
滑雪	-11.0125
的患者	-11.0126
对我而言	-11.0126
团结	-11.0126
杜	-11.0128
错觉	-11.0128
浅	-11.0128
悬崖	-11.0129
进化的	-11.0129
足迹	-11.013
悲惨	-11.013
节约	-11.013
花朵	-11.013
桌上	-11.013
诸位	-11.013
这个城市	-11.013
作弊	-11.013
雨林	-11.0131
注重	-11.0131
设法	-11.0132
在洛杉矶	-11.0132
捕获	-11.0133
学到的	-11.0134
特别是	-11.0134
性欲	-11.0134
结合在一起	-11.0136
的空气	-11.0137
我自己的	-11.0138
诸多	-11.0139
冷却	-11.0139
总共	-11.0139
一种方法	-11.0139
水泥	-11.014
的注意力	-11.0142
重新设计	-11.0146
的情感	-11.0148
好玩	-11.015
转换成	-11.015
不会有	-11.015
的真实	-11.0152
可以得到	-11.0152
带给我们	-11.0155
▁它们都	-11.0156
事儿	-11.0159
图书	-11.016
下方	-11.016
▁并非	-11.016
游戏中	-11.0169
三分之二	-11.0169
标题	-11.0171
进化论	-11.0173
▁基本	-11.0174
▁所以它	-11.0178
你的大脑	-11.0178
姿势	-11.018
他们想	-11.0181
这三个	-11.0182
开放的	-11.0182
▁我有一个	-11.0185
变成了一个	-11.0186
人为	-11.0194
不久	-11.0199
让孩子们	-11.0201
精彩	-11.0203
▁以及其他	-11.0204
▁我认为我们	-11.0207
的最佳	-11.0211
在她	-11.0211
苏联	-11.0212
整个过程	-11.0213
的原理	-11.0213
能使	-11.0219
回到了	-11.0222
的歌	-11.0222
昂贵	-11.0223
多大	-11.0223
的进化	-11.0224
排序	-11.0226
▁我们相信	-11.0226
必须得	-11.023
▁这一点	-11.023
是第一个	-11.0232
讲到	-11.0232
受损	-11.0233
这个游戏	-11.0235
便会	-11.0236
看它	-11.0236
看清	-11.0238
▁只不过	-11.024
自豪	-11.0241
联	-11.0241
沉	-11.0244
义	-11.0246
▁掌声	-11.0248
五十	-11.0251
人们在	-11.0251
反映了	-11.026
忘记了	-11.0261
研究员	-11.0263
▁既然	-11.0264
▁并且我们	-11.0264
常见的	-11.0266
决	-11.0267
将我们	-11.0268
所拥有的	-11.027
高峰	-11.027
严格	-11.0271
校园	-11.0271
程	-11.0273
越过	-11.0273
讽刺	-11.0275
杰	-11.0278
▁为此	-11.0279
专辑	-11.0283
对了	-11.0283
这张图	-11.0286
▁在非洲	-11.0286
的前	-11.0292
▁我们发现了	-11.0292
山顶	-11.0293
我的父母	-11.0294
骄傲	-11.0295
指责	-11.0296
▁首先是	-11.0297
己	-11.0297
以上的	-11.0297
▁其中有	-11.0298
股票	-11.0299
夫妇	-11.03
湾	-11.03
钉	-11.03
家园	-11.0301
一对	-11.0301
耶稣	-11.0302
锅	-11.0302
香蕉	-11.0302
饥荒	-11.0302
抗争	-11.0302
嘲笑	-11.0302
宪法	-11.0302
宠物	-11.0302
鳄鱼	-11.0302
环节	-11.0303
卡尔	-11.0303
迈克尔	-11.0303
弗兰克	-11.0303
还有一些	-11.0304
无助	-11.0304
▁你觉得	-11.0305
将成为	-11.0305
叶子	-11.0306
人们可以	-11.0309
th	-11.0311
从此	-11.0311
主体	-11.0313
这样一种	-11.0316
看这个	-11.0317
舞台上	-11.0317
这种技术	-11.0318
的受害者	-11.032
▁各种	-11.0322
就变成了	-11.0322
老化	-11.0323
非常复杂的	-11.033
替	-11.0332
计算出	-11.0339
这一个	-11.0339
娜	-11.034
▁于是他们	-11.0342
▁马	-11.0343
绝大部分	-11.0344
这是什么	-11.0345
是世界上	-11.0345
▁它不是	-11.0346
▁恩	-11.0347
花时间	-11.0347
事实是	-11.0347
想把	-11.0348
降落	-11.0348
触碰	-11.0349
尖叫	-11.0352
▁原因是	-11.0356
读过	-11.0356
官员	-11.0357
动词	-11.0359
和社会	-11.0359
工作中	-11.0359
季	-11.036
对他	-11.0361
完全不同的	-11.0361
一个很	-11.0361
这些数字	-11.0361
在不同	-11.0362
的细菌	-11.0366
的儿子	-11.0368
箱子	-11.0371
你对	-11.0371
车上	-11.0376
议员	-11.0377
银行家	-11.0378
做点什么	-11.0379
▁与其	-11.038
有权	-11.0381
ck	-11.0387
最小的	-11.039
还有什么	-11.0394
讯息	-11.0394
▁还能	-11.0396
开玩笑	-11.0396
集中在	-11.0397
的微生物	-11.0398
亿个	-11.04
可以做到	-11.04
我的想法	-11.0403
和其他人	-11.0404
更少	-11.0404
一年前	-11.0406
有问题	-11.0407
是好的	-11.0407
▁此时	-11.0408
街上	-11.0408
有很大的	-11.0413
中心的	-11.0415
▁他们没有	-11.0418
制成	-11.042
固定的	-11.0422
艾滋病毒	-11.0423
我们自身	-11.0423
▁继续	-11.0424
我们的工作	-11.0426
有助于	-11.0428
经济体	-11.0429
一下子	-11.0429
▁因而	-11.043
来回	-11.0433
敲	-11.0434
的面积	-11.0436
非常重要的	-11.0437
妈	-11.0438
▁已	-11.0439
二维	-11.044
长时间	-11.0441
是不会	-11.0442
成千上万的	-11.0443
多样化	-11.0443
看到过	-11.0444
旅途	-11.0445
称它为	-11.0446
▁具有	-11.0447
在欧洲	-11.0448
添加	-11.0449
▁他是个	-11.045
缝	-11.0452
一处	-11.0452
屠杀	-11.0455
来临	-11.0459
分支	-11.0459
拿出来	-11.046
该如何	-11.0463
日常生活	-11.0465
捕	-11.0465
组织的	-11.0465
这样想	-11.0466
古老	-11.0469
知道了	-11.047
▁你知道吗	-11.0472
中间的	-11.0472
学校里	-11.0473
政客	-11.0473
夹	-11.0474
扫	-11.0475
放了	-11.0476
疫情	-11.0476
春天	-11.0476
▁各位	-11.0476
埃博拉	-11.0476
百分之九十	-11.0476
否认	-11.0476
虾	-11.0477
医师	-11.0477
切割	-11.0477
夸张	-11.0477
▁我花了	-11.0477
貘	-11.0477
迈克	-11.0477
分歧	-11.0477
收缩	-11.0478
报导	-11.0478
群众	-11.0478
冥想	-11.0478
克隆	-11.0479
银	-11.048
?」	-11.0481
佩	-11.0481
愚蠢的	-11.0482
服装	-11.0482
近期	-11.0482
虚拟现实	-11.0488
▁人们会	-11.0491
▁他认为	-11.0492
有自己的	-11.0492
的节目	-11.0494
无力	-11.0497
为止	-11.0498
落后	-11.0498
我们不知道	-11.0499
房子里	-11.05
我们还没有	-11.05
▁那是因为	-11.0503
地上	-11.0506
前后	-11.0511
做到的	-11.0518
很长一段时间	-11.0519
更安全	-11.0519
英国人	-11.052
板球	-11.0522
▁政治	-11.0528
▁他们想	-11.0528
这个视频	-11.053
传到	-11.0534
着我	-11.0534
面临的	-11.0534
天生	-11.0535
我们的世界	-11.0536
每人	-11.0536
把她	-11.0537
末	-11.0537
听了	-11.0539
时空	-11.054
相信我	-11.0541
我所说的	-11.0549
一些小	-11.0549
使其	-11.0551
是啊	-11.0553
你没有	-11.0553
也可能	-11.0554
这套	-11.0556
一大	-11.0556
日子	-11.056
线上	-11.0572
我们所做的	-11.0572
辆	-11.0576
▁我所	-11.0576
的希望	-11.0578
大学生	-11.0579
桑	-11.058
圆形	-11.0581
真空	-11.0581
快速的	-11.0582
▁我以为	-11.0584
第一位	-11.0585
这一刻	-11.0585
粒	-11.0591
的伟大	-11.0592
是什么意思	-11.0598
染	-11.0602
这些是	-11.0603
▁重要的是	-11.0605
技术上	-11.0608
已知的	-11.0609
史上	-11.061
了我们的	-11.0611
▁它还	-11.0611
的装置	-11.0612
播	-11.0613
中风	-11.0614
最喜欢的	-11.0615
ol	-11.0623
框	-11.0624
这种想法	-11.0625
保	-11.0626
很复杂	-11.0626
早晨	-11.0627
如果没有	-11.0628
词语	-11.0629
理性的	-11.0629
地球上的	-11.0632
登上	-11.0632
航	-11.0633
墙上	-11.0633
下次	-11.0634
的两倍	-11.0634
初期	-11.0635
我们正	-11.0636
事务	-11.0637
众	-11.0638
歌唱	-11.064
地图上	-11.0641
会变得	-11.0642
发生的事	-11.0646
他人的	-11.0648
干燥	-11.0648
一点也不	-11.0649
也被	-11.0649
汉	-11.0651
是一个非常	-11.0653
节点	-11.0653
做到这一点	-11.0653
学习如何	-11.0653
加密	-11.0653
踢	-11.0655
留下了	-11.0655
扣	-11.0656
飘	-11.0656
幼儿园	-11.0656
侵入	-11.0656
储备	-11.0656
南极洲	-11.0656
测验	-11.0656
厨师	-11.0656
追逐	-11.0656
亨利	-11.0656
现金	-11.0657
▁Y	-11.0658
触动	-11.0658
难道	-11.0658
接纳	-11.0658
配合	-11.0659
的老师	-11.0659
智能手机	-11.0664
抗体	-11.0665
纽约客	-11.0666
色情	-11.0671
个性	-11.0671
▁那是我	-11.0672
这个区域	-11.0672
世界中	-11.0673
先生们	-11.0674
那一天	-11.0674
把握	-11.068
新奇	-11.068
类型的	-11.068
尼克	-11.0681
几何	-11.0684
宗教信仰	-11.0686
很多东西	-11.0688
传送	-11.0689
等一下	-11.0689
▁他就	-11.069
也不知道	-11.0691
▁我是个	-11.0698
长期的	-11.0698
来谈谈	-11.0704
拥有的	-11.0705
问题的答案	-11.0706
全世界的	-11.0706
那个时候	-11.0706
很小的	-11.0715
屋子里	-11.0715
可以用来	-11.0722
▁接着我	-11.0723
是由于	-11.0723
原始的	-11.0723
个问题	-11.0725
更深	-11.0725
成一个	-11.0728
▁并且在	-11.073
am	-11.073
▁比尔	-11.0736
性格	-11.0737
▁同	-11.074
钥匙	-11.0742
是不够的	-11.0744
会让	-11.0748
几次	-11.0748
被要求	-11.075
▁特别	-11.075
的特性	-11.0751
很糟糕	-11.0752
建成	-11.0753
淡	-11.0754
这么想	-11.0755
▁当今	-11.076
课题	-11.0763
不同的人	-11.0763
院	-11.0764
的假设	-11.0767
在世界上	-11.0771
▁再次	-11.0771
触及	-11.0772
杀害	-11.0772
原油	-11.0773
运动的	-11.0777
胳膊	-11.078
条件下	-11.078
来解释	-11.0781
评	-11.0782
要有	-11.0784
海洋生物	-11.0784
非常困难	-11.0785
捐赠	-11.0785
这一过程	-11.0785
到达了	-11.0786
▁毫无疑问	-11.0787
可以利用	-11.0788
都不能	-11.0789
体会到	-11.0792
非常高	-11.0794
抵达	-11.0794
必	-11.0801
▁不是因为	-11.0801
政	-11.0806
▁当她	-11.0808
法规	-11.0808
能改变	-11.0808
惊	-11.0809
很幸运	-11.0809
提起	-11.0809
癌	-11.0811
的要求	-11.0812
的成员	-11.0813
▁我只	-11.0813
烂	-11.0814
▁这都是	-11.082
的时期	-11.082
你所看到的	-11.0824
延续	-11.0824
我们对于	-11.0824
▁大家知道	-11.0826
做决定	-11.0827
演唱	-11.0827
极大	-11.0827
刑	-11.0827
减	-11.0828
在全世界	-11.0829
那次	-11.0829
▁她的	-11.083
据	-11.0831
▁DH	-11.0832
欲	-11.0832
科研	-11.0832
路径	-11.0834
射线	-11.0834
扬	-11.0834
营销	-11.0834
关爱	-11.0835
量子力学	-11.0837
怀	-11.0837
尚	-11.0837
寒	-11.0837
惹	-11.0837
明星	-11.0838
iPod	-11.0838
新加坡	-11.0838
▁那里的	-11.0838
木材	-11.0838
RNA	-11.0838
失业	-11.0838
雇主	-11.0838
表述	-11.0838
支架	-11.0838
肥胖症	-11.0838
散步	-11.0839
这方面的	-11.0839
骨架	-11.0839
木星	-11.0839
捕捞	-11.0839
真菌	-11.084
很神奇	-11.084
转到	-11.084
又会	-11.0841
删除	-11.0841
原先	-11.0842
伤心	-11.0843
▁往往	-11.0843
▁并不	-11.0843
巴勒斯坦	-11.0843
去世了	-11.0844
▁我看着	-11.0849
枪支	-11.0849
身高	-11.085
当人们	-11.0852
这个世界上	-11.0853
鞋子	-11.0854
他们能	-11.0855
什么事	-11.0855
撰写	-11.0857
每一位	-11.0861
▁为何	-11.0862
也是这样	-11.0862
▁而且这	-11.0864
记录了	-11.0865
阿尔	-11.0865
前行	-11.0867
还不错	-11.087
应用于	-11.087
能被	-11.087
对不起	-11.0876
三分之一的	-11.0876
岁的孩子	-11.0878
我来	-11.0879
▁不仅是	-11.0879
▁我们将会	-11.088
之时	-11.0883
分数	-11.0886
文献	-11.0887
的人民	-11.0888
▁我为	-11.089
解决方法	-11.089
量子	-11.0892
涂	-11.0892
静	-11.0892
▁你们可能	-11.0893
粉	-11.0893
通用	-11.0897
跟我们	-11.0898
乘坐	-11.0899
长大的	-11.0901
毫不	-11.0901
这个现象	-11.0903
但我们	-11.0903
的每个	-11.0904
分为	-11.0904
去那里	-11.0908
我没	-11.0909
▁和一个	-11.0911
有太多	-11.0913
那场	-11.0916
一共	-11.0916
羞耻	-11.092
和人类	-11.0922
过着	-11.0924
的房间	-11.0925
这对	-11.0926
▁今天我们	-11.0926
挽救	-11.0929
拍摄了	-11.093
不满	-11.093
▁the	-11.0936
的课程	-11.0945
拿到了	-11.0945
▁解决	-11.0948
不算	-11.0949
自从	-11.0949
会使	-11.095
的植物	-11.0951
频道	-11.0953
告诉人们	-11.0954
可不是	-11.0958
更健康	-11.0961
洋	-11.0962
▁和他们	-11.0963
工程学	-11.0964
的特征	-11.0966
它也	-11.0969
舒服	-11.0971
也门	-11.0972
单纯	-11.0972
的回答	-11.0976
非洲国家	-11.0979
不利	-11.0982
所面临的	-11.0982
▁就是这样	-11.0983
给人	-11.0983
▁其他的	-11.0984
▁我叫	-11.0985
去买	-11.0988
生殖	-11.0988
▁我觉得这	-11.0989
▁这张	-11.0989
」。	-11.099
与其	-11.099
的商业	-11.0992
有钱	-11.0993
熟悉的	-11.0993
在寻找	-11.0993
的病毒	-11.0993
会用	-11.0996
丛林	-11.0999
福特	-11.1
其他东西	-11.1001
熟	-11.1003
坐在那里	-11.1004
见到了	-11.1006
一辆车	-11.1011
▁一个人	-11.1011
就把	-11.1017
一次又一次	-11.1018
只是个	-11.1019
什	-11.1019
创立	-11.102
置	-11.102
小提琴	-11.102
使他们	-11.102
莉	-11.1021
这个孩子	-11.1021
因此而	-11.1022
代谢	-11.1022
宝贝	-11.1023
▁人们在	-11.1023
三明治	-11.1023
多巴胺	-11.1023
LED	-11.1023
迁徙	-11.1023
尼安德特人	-11.1023
飞天车	-11.1023
寄生虫	-11.1023
冷冻	-11.1023
我的儿子	-11.1024
海平面	-11.1024
适宜	-11.1024
旁白	-11.1025
义肢	-11.1026
总理	-11.1026
死刑	-11.1029
要让	-11.1029
生命体	-11.103
洗衣机	-11.103
讲的	-11.103
大脑皮层	-11.1031
跟你们	-11.1032
这台机器	-11.1032
热带	-11.1032
就是这么	-11.1034
关掉	-11.1034
使人	-11.1035
▁把它们	-11.1037
▁但不是	-11.1039
ie	-11.104
月亮	-11.1048
▁在未来	-11.1051
神经细胞	-11.1052
PM	-11.1052
手势	-11.1055
英里的	-11.1058
▁而这是	-11.106
▁这与	-11.106
的任何	-11.1061
职	-11.1062
今	-11.1064
从不	-11.1065
▁但问题是	-11.1065
的优势	-11.107
▁如此	-11.1072
极了	-11.1074
▁而且还	-11.1075
快速地	-11.1075
作为一名	-11.1075
利用这些	-11.1077
专业的	-11.108
大多数的	-11.1083
超越了	-11.1088
遗憾	-11.1089
一定的	-11.109
歌剧	-11.1091
就像这样	-11.1091
之路	-11.1092
帮助你	-11.1094
准	-11.1095
全球性	-11.1096
纯粹	-11.1097
ir	-11.1098
▁一旦你	-11.1099
看电视	-11.11
▁而非	-11.1101
▁更加	-11.1105
这些家伙	-11.1109
仍旧	-11.1109
工作的人	-11.111
呼	-11.111
我的故事	-11.1111
▁我爱	-11.1115
▁我想我	-11.1116
图中	-11.1116
沃	-11.1116
早就	-11.1118
拍下	-11.112
恶劣	-11.112
像一个	-11.1122
▁我不得不	-11.1123
在其	-11.1126
总体	-11.1128
的一员	-11.1129
前景	-11.113
来控制	-11.1132
远程	-11.1134
两周	-11.1134
空间里	-11.1135
可怜的	-11.1136
透	-11.1137
说的话	-11.1139
看上去像	-11.114
很久以前	-11.114
▁是个	-11.1142
相反的	-11.1143
我个人	-11.1145
受过	-11.1147
户	-11.115
▁来自于	-11.1151
它能	-11.1151
成千上万的人	-11.1151
边上	-11.1155
世界上最大的	-11.1155
v	-11.1156
不得	-11.1156
都有一个	-11.1159
▁以及他们	-11.1165
▁因为现在	-11.1165
玩笑	-11.1168
发觉	-11.1169
位数	-11.117
▁我们可以用	-11.1171
已经有了	-11.1172
▁这是我的	-11.1175
它将	-11.1175
称呼	-11.1176
觉	-11.1176
被用于	-11.1178
多少人	-11.118
足球	-11.1181
故	-11.1181
思考一下	-11.1183
给人们	-11.1187
▁使我们	-11.1188
同等	-11.1189
很有用	-11.1189
墨西哥湾	-11.1189
构成的	-11.1189
私	-11.1191
状的	-11.1193
有人在	-11.1195
运用到	-11.1195
顶部	-11.1195
长的	-11.1196
就能够	-11.1197
在谈论	-11.1198
▁如果你把	-11.1199
敢	-11.1199
斗	-11.12
漏	-11.1201
谢	-11.1204
拨	-11.1204
罗斯	-11.1206
▁没人	-11.1207
在地上	-11.1207
伴	-11.1208
意志	-11.1208
奶	-11.1209
生育	-11.121
粗	-11.121
主宰	-11.1211
~	-11.1211
▁它们可以	-11.1212
担任	-11.1212
疑惑	-11.1212
布鲁克林	-11.1212
收音机	-11.1212
鲍勃	-11.1212
消亡	-11.1212
红杉	-11.1212
摄入	-11.1212
一辈子	-11.1212
支配	-11.1212
化疗	-11.1212
形势	-11.1212
魔法	-11.1213
扫描仪	-11.1213
剧场	-11.1213
蒸发	-11.1213
古巴	-11.1214
手册	-11.1214
精子	-11.1214
洪水	-11.1214
签名	-11.1214
开支	-11.1215
你的孩子	-11.1215
感恩	-11.1216
滚动	-11.1216
某天	-11.1217
▁我先	-11.1218
历	-11.1219
标本	-11.1219
帮你	-11.1222
天花板	-11.1222
乐高	-11.1222
▁达到	-11.1223
复活	-11.1224
▁不需要	-11.1226
找一个	-11.1226
必要的	-11.1227
向你们	-11.1229
▁你可能会	-11.123
▁你可以想象	-11.1232
潜在	-11.1233
的角度来看	-11.1233
▁我们不	-11.1233
病症	-11.1234
▁这是关于	-11.1234
节能	-11.1234
世界人口	-11.1234
官	-11.1236
肥皂	-11.1236
▁所以这是	-11.1238
侵犯	-11.1238
毫米	-11.1239
车库	-11.1239
犹太	-11.1241
写到	-11.1242
是一项	-11.1243
慢慢地	-11.1245
▁我还是	-11.1248
精	-11.1248
不是在	-11.1253
毕竟	-11.1253
分钟内	-11.1255
指向	-11.1256
▁如果是	-11.1256
回答这个问题	-11.1256
的衣服	-11.1257
的女儿	-11.1259
呃	-11.1262
似	-11.1262
升高	-11.1262
一门	-11.1263
发声	-11.1264
你们可以看到	-11.1264
▁他们只是	-11.1268
我们得	-11.1268
可以看见	-11.1271
了它	-11.1274
这一问题	-11.1275
跟他	-11.1275
六年	-11.1275
在水下	-11.1276
▁比方说	-11.1279
瞧	-11.1279
神圣的	-11.128
揭示	-11.1284
▁所以如果	-11.1287
拥有一个	-11.1288
有关于	-11.1292
克斯	-11.1294
的方案	-11.1294
最简单的	-11.1294
程序员	-11.1295
自然选择	-11.1297
me	-11.1298
家伙	-11.1299
的处境	-11.13
两个月	-11.1301
受益	-11.1301
怎么能	-11.1309
mo	-11.131
想要的	-11.1311
都市	-11.1311
▁除此之外	-11.1314
并不只是	-11.1315
▁这件事	-11.1316
▁把他们	-11.1316
实质	-11.1316
▁这条	-11.1324
车里	-11.1325
▁但是我认为	-11.1326
的那一刻	-11.1328
察觉	-11.1329
害	-11.1331
这种现象	-11.1334
甚至可以	-11.1335
因为他	-11.1337
伸出	-11.1341
▁我们可能	-11.1347
好多	-11.135
了她	-11.1359
他们需要	-11.136
看起来很	-11.1362
想说	-11.1362
▁我不	-11.1363
曾经是	-11.1363
----	-11.1367
成立了	-11.1368
外的	-11.137
最后一次	-11.1371
钢	-11.1374
▁我去了	-11.1374
业余	-11.1376
截	-11.1377
这个方法	-11.1378
都非常	-11.1378
▁然后她	-11.138
难民营	-11.138
七年	-11.1382
▁而他	-11.1382
今日	-11.1382
出色的	-11.1384
的传播	-11.1384
停下	-11.1384
帐篷	-11.1384
另一些	-11.1387
出色	-11.1388
甘	-11.1392
湿	-11.1393
密切	-11.1395
磨	-11.1398
带回	-11.1399
薪	-11.1399
确实有	-11.14
朗	-11.1402
愈	-11.1402
奶酪	-11.1404
投影	-11.1404
尊敬	-11.1404
▁Anderson	-11.1404
懒	-11.1404
蜣螂	-11.1404
财务	-11.1404
资讯	-11.1404
电缆	-11.1404
吊	-11.1404
新陈代谢	-11.1404
菲利普	-11.1404
逃避	-11.1404
道歉	-11.1404
流行病	-11.1404
阶级	-11.1404
画廊	-11.1404
迎接	-11.1404
袋狼	-11.1404
跳伞	-11.1404
认定	-11.1404
丹麦	-11.1404
汤姆	-11.1405
破解	-11.1405
一小段	-11.1405
反思	-11.1405
占了	-11.1405
见解	-11.1406
盒子里	-11.1409
估算	-11.1409
十万	-11.141
效益	-11.1412
国外	-11.1413
转变为	-11.1414
坑	-11.1415
碳排放	-11.1416
这座城市	-11.1418
地形	-11.142
爬上	-11.1421
只剩下	-11.1421
你不知道	-11.1422
下雨	-11.1423
感到非常	-11.1425
起作用	-11.1426
各自的	-11.1427
理论上	-11.1428
满了	-11.1428
写出	-11.1429
泡泡	-11.1429
▁但是她	-11.143
偏远	-11.1431
受欢迎	-11.1431
掉了	-11.1432
人道主义	-11.1436
▁你只需要	-11.1436
还是会	-11.1437
有了一个	-11.1437
量化	-11.1437
待了	-11.144
新生	-11.144
没有被	-11.1443
都是如此	-11.1444
设计者	-11.1445
两百	-11.1447
我看到	-11.1447
我们不得不	-11.1448
没有人会	-11.1448
看了看	-11.145
这幅图	-11.145
问过	-11.1452
就成了	-11.1454
▁第一个是	-11.1454
只是为了	-11.1456
被用来	-11.1457
会一直	-11.1457
礼拜	-11.1457
高血压	-11.1459
做了个	-11.1459
全都	-11.146
演变	-11.146
▁以及我们	-11.146
在座	-11.146
▁原来	-11.1461
更多的人	-11.1462
很多人都	-11.1462
的动机	-11.1462
家中	-11.1462
查尔斯	-11.1462
▁以此	-11.1463
这并不	-11.1464
为什么要	-11.1464
令人难以置信的	-11.1465
传播的	-11.1465
▁现在你	-11.1465
一方面	-11.1467
来解决	-11.1467
曾说过	-11.1468
上传	-11.1469
有趣的事情	-11.1471
一个女人	-11.1471
这会	-11.1471
是相当	-11.1474
几百万	-11.1479
▁理查德	-11.1479
正在进行	-11.1481
止	-11.1482
就是这个	-11.1482
你看到的	-11.1485
▁他们开始	-11.1487
影响到	-11.1487
根除	-11.149
▁好消息是	-11.1491
▁是从	-11.1491
场地	-11.1493
天真	-11.1493
肯定会	-11.1493
认	-11.1498
治	-11.1499
▁简	-11.1499
关注的	-11.1499
一个男人	-11.1504
sh	-11.1505
▁你也许	-11.151
让我感到	-11.1516
上世纪	-11.1517
两条	-11.1518
台上	-11.1519
▁并将	-11.152
我的妻子	-11.1522
▁不仅如此	-11.1522
的女士	-11.1526
英寸	-11.153
的密码	-11.1531
淡水	-11.1537
全新	-11.1539
无法想象	-11.154
转变成	-11.1543
性感	-11.1544
南方	-11.1544
很大程度上	-11.1544
认为这	-11.1544
都必须	-11.1545
照片中	-11.1546
▁帕特	-11.1548
效	-11.1548
▁获得	-11.1549
▁这是我们的	-11.1552
幼	-11.1553
逼	-11.1556
▁就是这个	-11.1556
战胜	-11.1556
是用来	-11.1558
多于	-11.1558
nt	-11.156
的印象	-11.1563
待在	-11.1563
各国	-11.1563
ul	-11.1563
童	-11.1566
这群	-11.1566
准备好了	-11.1568
的标志	-11.1569
妙	-11.1569
摩	-11.1571
看到我	-11.1574
去想	-11.1575
诸如此类	-11.1575
这种方式	-11.1576
的冲突	-11.1578
美味	-11.1578
上大学	-11.1579
很长的	-11.1579
▁就如同	-11.1581
艾滋病病毒	-11.1581
▁听起来	-11.1582
中部	-11.1582
案例中	-11.1585
▁可以说	-11.1586
香	-11.1587
砍	-11.1591
鸿沟	-11.1592
主观	-11.1592
几千	-11.1593
凯	-11.1594
活在	-11.1594
耗	-11.1595
泽	-11.1597
有些东西	-11.1597
甲	-11.1597
热带雨林	-11.1597
微博	-11.1598
帽	-11.1598
都是这样	-11.1598
拜	-11.1598
第五	-11.1598
脚趾	-11.1599
禁忌	-11.16
窝	-11.16
考察	-11.16
麦当劳	-11.16
息息相关	-11.16
屁股	-11.16
招募	-11.16
蛛丝	-11.16
摄氏度	-11.16
仓库	-11.16
常识	-11.16
国民	-11.16
抽烟	-11.1601
彩色	-11.1601
坏人	-11.1601
平民	-11.1601
泰国	-11.1601
患病	-11.1601
祖	-11.1602
无穷	-11.1602
Bill	-11.1602
在每个	-11.1602
胡子	-11.1603
捕食者	-11.1604
家乡	-11.1604
病情	-11.1604
独一无二的	-11.1605
▁还有很多	-11.1605
质数	-11.1605
提供的	-11.1605
章节	-11.1606
几个月前	-11.1609
扔掉	-11.161
地毯	-11.161
开来	-11.161
冰岛	-11.1611
我们的社会	-11.1612
某一天	-11.1612
火星车	-11.1613
我一直在	-11.1615
发展到	-11.1616
组建	-11.1616
学位	-11.1619
的地位	-11.1619
看作	-11.1619
不确定性	-11.162
▁仅	-11.1621
的行星	-11.1623
做爱	-11.1625
英国的	-11.1627
包括了	-11.163
但它	-11.1631
的了解	-11.1633
▁而后	-11.1633
自行	-11.1638
亿年前	-11.1639
度过了	-11.1639
万亿	-11.1641
星期	-11.1644
内心的	-11.1647
球鞋	-11.165
把那些	-11.165
超出	-11.165
这么大	-11.1652
叫作	-11.1653
化学家	-11.1654
我们的文化	-11.1654
银河系	-11.1655
举起	-11.1656
爱好者	-11.1659
的起源	-11.166
不用担心	-11.1661
运气	-11.1661
开始于	-11.1664
都是由	-11.1664
内在	-11.1664
清醒	-11.1672
的解释	-11.1674
▁我们让	-11.1676
五千	-11.1678
在路上	-11.1679
▁你认为	-11.168
▁当它们	-11.1681
市的	-11.1682
村里	-11.1682
▁那么你	-11.1683
亚当	-11.1683
深刻的	-11.1683
st	-11.1685
更有趣	-11.1689
犯错	-11.1691
图画	-11.1692
最低	-11.1696
在发展中国家	-11.1696
移动的	-11.1696
比现在	-11.1699
▁另一种	-11.1701
了起来	-11.1702
慈悲	-11.1702
我总是	-11.1703
的生意	-11.1705
他们的故事	-11.1708
窗	-11.171
个月后	-11.171
每一次	-11.171
问问	-11.171
学的	-11.1715
问题就是	-11.1717
▁而当	-11.172
一张纸	-11.1721
也知道	-11.1721
谢谢你们	-11.1721
用过	-11.1724
遥远的	-11.1724
考虑一下	-11.1724
▁你就能	-11.1725
对于我们	-11.1727
年的时候	-11.1727
不怎么	-11.1728
阿拉伯语	-11.1733
言语	-11.1735
大问题	-11.1735
弹性	-11.1736
的视觉	-11.1736
摇	-11.1738
的居民	-11.1738
电网	-11.174
三千	-11.1741
▁谢谢你	-11.1742
想到了	-11.1743
在全球	-11.1745
结局	-11.1746
▁科学家	-11.1746
认为自己	-11.1746
征服	-11.1749
直径	-11.1751
所用的	-11.1754
里约	-11.1754
我的观点	-11.1754
比你	-11.1755
有这么	-11.1755
▁你可以用	-11.1762
著	-11.1762
▁面对	-11.1762
变形	-11.1764
创业	-11.1765
▁你可以把	-11.1765
只在	-11.1766
心情	-11.1766
的个人	-11.1767
我用	-11.1768
陷入了	-11.177
高速公路	-11.1771
不让	-11.1772
不稳定	-11.1772
▁美国人	-11.1774
▁叫	-11.1774
▁这个系统	-11.1774
这样的东西	-11.1778
可行的	-11.1778
柏林	-11.1778
▁了解	-11.1778
知道他们	-11.1779
▁但是这些	-11.1779
管用	-11.1781
敌	-11.1781
的主意	-11.1782
邦	-11.1782
停在	-11.1782
如何让	-11.1784
▁这说明	-11.1786
组件	-11.1787
纽约市	-11.1787
▁我们说	-11.1787
的专家	-11.1787
起飞	-11.1789
你看到	-11.179
阶层	-11.179
看到一个	-11.179
允许我们	-11.1794
帽子	-11.1796
备	-11.1796
人行道	-11.1797
年到	-11.1797
险	-11.1798
饱	-11.1798
砖	-11.1799
婚礼	-11.1799
兼	-11.1799
紫外线	-11.18
本杰明	-11.18
霍华德	-11.18
可口可乐	-11.18
基督徒	-11.18
压迫	-11.18
熟练	-11.18
论坛	-11.18
标识	-11.18
传承	-11.18
坚强	-11.1801
暴乱	-11.1801
鸽子	-11.1801
晶体管	-11.1801
提醒我们	-11.1801
行政	-11.1801
魔术师	-11.1801
橡胶	-11.1801
短暂	-11.1801
毒素	-11.1801
游客	-11.1801
巴士	-11.1801
情节	-11.1802
谷物	-11.1802
队员	-11.1803
浏览器	-11.1803
群岛	-11.1803
盈利	-11.1803
西班牙语	-11.1803
商场	-11.1805
基地组织	-11.1805
搞笑	-11.1805
图标	-11.1807
转型	-11.1808
无神论者	-11.1808
有很大	-11.1809
巧合	-11.181
我们的祖先	-11.1811
▁对我而言	-11.1813
引起的	-11.1814
我父母	-11.1814
条约	-11.1815
性工作者	-11.1815
马达	-11.1815
许许多多	-11.1818
▁这个世界	-11.1819
流入	-11.182
视觉化	-11.1825
科学界	-11.1826
了多少	-11.1827
做饭	-11.1829
我的手	-11.1829
清晰的	-11.183
▁你还	-11.1834
是重要的	-11.1837
夫人	-11.1838
很了不起	-11.1839
上演	-11.184
▁他们正在	-11.1842
人群中	-11.1843
奶奶	-11.1844
:「	-11.1845
居住的	-11.1846
二者	-11.1847
已知	-11.1847
成效	-11.185
充电	-11.1851
是唯一	-11.1851
避孕	-11.1852
那个地方	-11.1852
不停的	-11.1853
人都	-11.1854
这些想法	-11.1856
漂浮	-11.1858
需要帮助	-11.186
顺序	-11.1862
我家	-11.1863
做了很多	-11.1863
我非常	-11.1865
感染了	-11.1868
长得	-11.1868
解开	-11.1869
变了	-11.187
的敌人	-11.187
七个	-11.187
na	-11.1872
要说	-11.1873
然而	-11.1873
水分	-11.1874
类比	-11.1874
”——	-11.1876
不舒服	-11.1878
的办公室	-11.1879
罗伯特	-11.188
大胆	-11.1881
的信仰	-11.1881
启动了	-11.1884
什么都	-11.1886
放射	-11.1888
向他	-11.1888
卡通	-11.1889
伸	-11.1891
海盗	-11.1891
▁如果有人	-11.1894
沙子	-11.1894
只是想	-11.1896
三次	-11.1897
潮流	-11.1897
说谎	-11.1898
▁我之所以	-11.1899
▁他还	-11.1902
莎	-11.1903
▁我的父亲	-11.1906
▁布鲁诺	-11.1907
会想到	-11.1907
滴	-11.1909
的死亡率	-11.1909
开始的时候	-11.1912
去研究	-11.1914
我们刚刚	-11.1914
▁一些人	-11.1918
重要的是	-11.1921
有一条	-11.1922
幸存者	-11.1923
▁女人	-11.1925
主人	-11.1926
▁我想知道	-11.1926
清除	-11.1929
十年前	-11.1929
将军	-11.193
艺术作品	-11.1932
理想的	-11.1934
三位	-11.1934
二战	-11.1935
沿	-11.1935
我们不会	-11.1936
公交车	-11.1937
尝试过	-11.1938
强有力的	-11.1942
▁他们已经	-11.1943
给大家展示	-11.1943
并没	-11.1944
▁每个人	-11.1947
源自	-11.1954
最快的	-11.1955
建筑的	-11.1955
起诉	-11.196
聊聊	-11.196
▁我们真的	-11.1961
简短的	-11.1961
智利	-11.1962
大约是	-11.1962
三年前	-11.1966
我们还是	-11.1968
▁我们今天	-11.1968
无论是	-11.1969
的皮肤	-11.1972
感兴趣的是	-11.1972
有好处	-11.1974
更难	-11.1974
在水中	-11.1974
▁O	-11.1975
的回应	-11.1976
▁我们所	-11.1978
水域	-11.1983
诱惑	-11.1984
两只	-11.1984
▁相当于	-11.1984
▁就如	-11.1987
一起合作	-11.1993
从没	-11.1995
现代化	-11.1995
冲浪	-11.1997
提到过	-11.1998
如何去	-11.1998
草原	-11.1999
赌	-11.2001
绳	-11.2001
戈	-11.2002
纪念	-11.2002
善于	-11.2003
直播	-11.2003
相结合	-11.2003
葡萄牙	-11.2003
下一次	-11.2003
猛	-11.2004
养殖	-11.2004
凌晨	-11.2004
▁我不认为	-11.2004
酱	-11.2004
或多或少	-11.2004
莎士比亚	-11.2004
+	-11.2004
肾脏	-11.2004
饮料	-11.2004
激烈	-11.2004
恰恰相反	-11.2005
逃脱	-11.2005
泥土	-11.2005
顺便说一句	-11.2005
火灾	-11.2005
杰克	-11.2006
板块	-11.2007
亲近	-11.2007
第二人生	-11.2007
避开	-11.2007
藻类	-11.2008
当时的	-11.2008
管制	-11.2009
国旗	-11.2009
的生存	-11.2012
每隔	-11.2013
电视机	-11.2014
性和	-11.2015
站出来	-11.2015
生活在一个	-11.2017
人在	-11.2018
找个	-11.2018
缘	-11.202
开发的	-11.2021
▁这是他	-11.2022
开始做	-11.2023
▁我在想	-11.2027
杀手	-11.2028
为她	-11.2029
卧室	-11.2029
持续的	-11.203
的想象	-11.2031
▁欧洲	-11.2032
暂停	-11.2033
中去	-11.2034
在学校里	-11.2034
的手段	-11.2035
可以实现	-11.2044
正当	-11.2044
▁实际上是	-11.2044
那段	-11.2045
▁它就会	-11.2048
用作	-11.2049
优先	-11.2049
另一半	-11.2049
你的生活	-11.205
平时	-11.2051
▁如果你能	-11.2054
廉价	-11.2055
富人	-11.2058
▁形成	-11.206
仍然在	-11.2062
▁Z	-11.2063
▁我正在	-11.2064
就业	-11.2067
兽医	-11.2068
意图	-11.2074
▁又或者	-11.2075
生日	-11.2075
容忍	-11.2079
来决定	-11.2079
▁经常	-11.2081
名词	-11.2087
海洋中	-11.2087
连结	-11.209
带了	-11.209
百分之一	-11.2096
类别	-11.2099
模块	-11.2099
当年	-11.2105
颗	-11.2105
给大家看	-11.2108
我们决定	-11.211
▁计算机	-11.211
但你	-11.2111
雅	-11.2111
焦点	-11.2112
的朋友们	-11.2115
▁那天	-11.2115
的谈话	-11.2116
org	-11.2119
成为了一个	-11.2122
才有	-11.2122
▁这里有一个	-11.2123
今后	-11.2125
饭	-11.2127
千米	-11.2128
它不是	-11.2132
已被	-11.2133
让世界	-11.2134
世界公民	-11.2135
病患	-11.2136
为你们	-11.214
那片	-11.2142
一笔	-11.2142
友	-11.2144
▁而且是	-11.2146
▁在所有	-11.2149
开发了	-11.2149
不寻常的	-11.2152
级别	-11.2153
平凡	-11.2156
当天	-11.2158
暴	-11.216
的价值观	-11.2161
尸体	-11.2166
号码	-11.2168
隐藏的	-11.2169
致命的	-11.217
涌	-11.217
▁存在于	-11.2171
测序	-11.2172
闭	-11.2173
在外面	-11.2174
的原则	-11.2174
证书	-11.2175
年时间	-11.2175
的权力	-11.2175
隐形	-11.2176
了出来	-11.2176
引发了	-11.2177
抱	-11.2178
▁我们不会	-11.218
第一天	-11.2184
境	-11.2185
这种感觉	-11.2188
有创造力	-11.2189
缺	-11.2191
想成为	-11.2191
制造商	-11.2192
卡片	-11.2192
▁就像我	-11.2193
使人们	-11.2193
适当的	-11.2196
得到一个	-11.2197
的生活方式	-11.2197
积	-11.2198
天文学	-11.2198
的新闻	-11.2202
这个演讲	-11.2204
猩猩	-11.2204
有更多	-11.2206
你也可以	-11.2207
乎	-11.2208
叉	-11.221
的现状	-11.2211
雾	-11.2211
烤	-11.2211
雕刻	-11.2211
辅导	-11.2211
愉悦	-11.2211
尘	-11.2212
螺旋	-11.2212
情报	-11.2212
IBM	-11.2212
旋律	-11.2213
钢铁	-11.2213
策划	-11.2213
公共卫生	-11.2213
咱们	-11.2213
耐克	-11.2214
老虎	-11.2214
三分之一	-11.2214
世代	-11.2214
领先	-11.2215
能理解	-11.2215
棉花	-11.2215
闪光	-11.2215
面团	-11.2215
山羊	-11.2215
排队	-11.2216
ce	-11.2216
度假	-11.2217
愿	-11.2217
发音	-11.2218
空调	-11.2219
这就	-11.2227
我们有一个	-11.2229
乘客	-11.2231
一个小时	-11.2233
着我们	-11.2233
意愿	-11.2235
百分之十	-11.2239
▁坐在	-11.224
这并不是	-11.2241
输送	-11.2243
操作系统	-11.2245
▁而且你	-11.2247
确	-11.2249
▁为什么呢	-11.2253
▁他们会说	-11.2254
变老	-11.2257
回想	-11.2258
▁这个过程	-11.226
死后	-11.2262
很显然	-11.2264
这个家伙	-11.2266
厅	-11.2267
终	-11.2267
到底发生了什么	-11.2267
不希望	-11.2268
就是你	-11.2271
没想到	-11.2272
▁理	-11.2273
▁产生	-11.2273
未知的	-11.2273
如此多的	-11.2273
刻	-11.2274
社区的	-11.2279
要问	-11.2281
▁无论如何	-11.2282
的其他	-11.2283
会议上	-11.2283
治疗方法	-11.2284
▁DNA	-11.2284
的高度	-11.2286
纸张	-11.2288
▁所以我们需要	-11.2289
盲	-11.229
北京	-11.2292
才开始	-11.2292
苦难	-11.2298
▁他们能	-11.23
我们就能	-11.2301
永远都	-11.2302
好人	-11.2304
微小	-11.2305
▁这样就	-11.2307
发明家	-11.2309
如下	-11.2309
战场	-11.231
能做	-11.2311
非常容易	-11.2311
雇员	-11.2312
搬到了	-11.2317
手表	-11.2317
非常兴奋	-11.2317
年前的	-11.2317
显示的是	-11.2318
朝鲜	-11.2318
太大	-11.2319
▁这样做	-11.232
丧失	-11.232
▁但是我想	-11.2321
▁更多的	-11.2321
决心	-11.2322
十分之一	-11.2323
同样也	-11.2323
▁举例来说	-11.2323
曾说	-11.2324
我们真的	-11.2325
医院的	-11.2326
一会	-11.2326
▁可以让	-11.2327
占据了	-11.2327
不好意思	-11.2328
▁我认为这是	-11.2331
的简单	-11.2331
美洲	-11.2332
却不	-11.2335
潜	-11.2335
的腿	-11.2336
此刻	-11.2336
但却	-11.2338
极好的	-11.234
我的母亲	-11.234
谱	-11.2342
▁新的	-11.2343
意思是	-11.2344
▁大多数人	-11.2345
首都	-11.2347
▁不论是	-11.235
站在这里	-11.2351
他们的生活	-11.2353
▁连	-11.2355
神圣	-11.2355
我猜	-11.2359
一个城市	-11.2361
▁人们可以	-11.2364
的进展	-11.2364
漫长的	-11.2365
佳	-11.2366
看作是	-11.2366
有这种	-11.2369
荡	-11.2369
慢慢的	-11.237
孤立	-11.237
▁如果我们不	-11.2372
用手	-11.2372
是时候	-11.2373
瓶子	-11.2376
然后再	-11.2378
门口	-11.2378
知道我	-11.2381
因子	-11.2382
迹	-11.2382
▁即使在	-11.2382
封闭	-11.2383
剩下	-11.2384
▁我很高兴	-11.2386
的限制	-11.2388
有利	-11.2388
做实验	-11.2389
非常大	-11.2389
▁所以我决定	-11.239
▁每一次	-11.239
现在正在	-11.2391
电台	-11.2393
使用这些	-11.2394
建造了	-11.2395
墙壁	-11.2395
想象成	-11.2396
认为是	-11.2396
隐藏在	-11.2396
模	-11.2398
▁最后一个	-11.2398
会如何	-11.2401
▁让他	-11.2401
事先	-11.2402
的交流	-11.2402
能感受到	-11.2402
学过	-11.2405
热衷于	-11.2405
▁我们不需要	-11.2411
付钱	-11.2412
精确的	-11.2414
频繁	-11.2415
事情发生	-11.2416
看看这些	-11.2416
峡谷	-11.2418
踩	-11.2418
CO	-11.2419
▁我一直在	-11.2419
永恒的	-11.242
斯坦福	-11.2421
星盘	-11.2421
鼻	-11.2422
至少有	-11.2422
族群	-11.2422
抚养	-11.2422
弃	-11.2423
驻	-11.2423
壮大	-11.2424
▁你可以看见	-11.2424
弓	-11.2424
砸	-11.2424
新兴	-11.2424
抉择	-11.2425
澳洲	-11.2425
DVD	-11.2425
可卡因	-11.2425
忠诚	-11.2425
检察官	-11.2425
联邦调查局	-11.2425
恐慌	-11.2425
提倡	-11.2425
瘦	-11.2425
减缓	-11.2425
壁虎	-11.2425
我第一次	-11.2426
就必须	-11.2426
沙丘	-11.2426
标注	-11.2426
鸡蛋	-11.2426
破产	-11.2426
圆圈	-11.2426
开销	-11.2427
使得我们	-11.2427
疑	-11.2427
点燃	-11.2427
兴起	-11.243
神秘的	-11.2431
不太好	-11.2432
真主	-11.2432
语法	-11.2432
谈及	-11.2434
全美	-11.2434
退化	-11.2436
▁不管怎样	-11.2436
太多了	-11.2437
脑海中	-11.2438
▁他们甚至	-11.2438
!“	-11.2439
养分	-11.244
败	-11.2443
长久	-11.2444
何种	-11.2444
你们能	-11.2446
一年半	-11.2447
有时会	-11.2449
给你们展示	-11.2451
▁这其实	-11.2452
关节	-11.2453
大气中	-11.2456
亿美金	-11.2458
吉他	-11.2458
电邮	-11.2459
前方	-11.246
面对面	-11.246
那里有	-11.2462
恰恰	-11.2465
多岁	-11.2466
这就是我们	-11.2466
全球经济	-11.2467
在他们	-11.2468
画了	-11.2471
站着	-11.2475
▁我感觉	-11.2475
通过了	-11.2476
沉浸在	-11.2477
CD	-11.2481
▁在印度	-11.2481
一倍	-11.2481
言论	-11.2482
的群体	-11.2484
▁我们一直	-11.2485
闻	-11.2485
将在	-11.2486
可持续的	-11.2487
向大家展示	-11.2492
几乎是	-11.2492
会认为	-11.2493
送给	-11.2494
的条件	-11.2495
▁我称之为	-11.2497
建造的	-11.25
会有一个	-11.2501
以外的	-11.2503
动脉	-11.2504
都不知道	-11.2505
都无法	-11.2506
▁我希望你们	-11.2506
的年代	-11.2508
▁然后我说	-11.251
▁所以当我	-11.2512
爱上	-11.2514
获	-11.2517
去尝试	-11.2523
所产生的	-11.2524
他们正在	-11.2526
很多地方	-11.2527
后者	-11.253
接下来的	-11.2531
你们可能	-11.2533
的错误	-11.2534
▁这类	-11.2535
▁它是由	-11.2536
▁有多少人	-11.2536
中最	-11.2537
▁最初	-11.2538
丢失	-11.2538
重现	-11.254
度的	-11.2542
一样东西	-11.2544
▁请看	-11.2544
会遇到	-11.2544
▁这只	-11.2545
▁这是他们	-11.2545
可以让你	-11.2551
▁这点	-11.2552
是真实的	-11.2552
有价值的	-11.2555
▁并且他们	-11.2557
大公司	-11.2557
对于我来说	-11.2558
弦	-11.2559
▁这可能	-11.2559
的表演	-11.2561
旗帜	-11.2562
的寿命	-11.2565
谈的	-11.2569
▁对我们	-11.2571
越高	-11.2572
涨	-11.2573
揭露	-11.2573
就会有	-11.2573
告知	-11.2576
西方世界	-11.2577
向大家	-11.2577
杀了	-11.2577
▁当然还有	-11.2578
▁让人	-11.258
在这个世界上	-11.2581
不一样的	-11.2583
我们一直	-11.2583
不好的	-11.2584
未曾	-11.2585
可以让我们	-11.2587
的贡献	-11.259
▁我应该	-11.2591
握	-11.2592
两年前	-11.2592
工业化	-11.2594
子女	-11.2597
一个很好的	-11.26
加工	-11.2603
的软件	-11.2603
这正是	-11.2604
下面的	-11.2604
Al	-11.2604
自愿	-11.2606
简直是	-11.2607
开会	-11.2607
一阵	-11.2609
▁因为人们	-11.261
▁也能	-11.2611
▁他们不会	-11.2611
展现了	-11.2611
即兴	-11.2613
▁还可以	-11.2616
容	-11.2617
不动	-11.2619
绳子	-11.2619
回头	-11.2621
欠	-11.2623
▁那个时候	-11.2624
订	-11.2624
建造一个	-11.2625
抱着	-11.2625
▁我们又	-11.2626
将会有	-11.2626
几个星期	-11.2627
陪	-11.2628
经费	-11.2628
伴随	-11.263
你去	-11.2632
稳	-11.2633
对她	-11.2633
棘手	-11.2635
笔记本	-11.2636
题目	-11.2637
六十	-11.2638
▁我们为	-11.264
贯穿	-11.264
穆	-11.2641
觅食	-11.2642
氏	-11.2642
离婚	-11.2642
鸣	-11.2642
蛮	-11.2642
马斯克	-11.2643
小伙子	-11.2643
荷尔蒙	-11.2643
香港	-11.2643
捐款	-11.2643
肥料	-11.2643
斯蒂芬尼	-11.2643
漫步	-11.2643
苏丹	-11.2643
修理	-11.2644
作曲家	-11.2644
重叠	-11.2644
感应器	-11.2644
潜意识	-11.2645
动物园	-11.2646
施加	-11.2646
吸入	-11.2646
十倍	-11.2646
的祖先	-11.2646
海豹	-11.2647
儿童死亡率	-11.2647
不堪	-11.2648
在今天	-11.2648
眼球	-11.2649
新势力	-11.265
▁注意	-11.2651
怎么说	-11.2651
光亮	-11.2652
铅笔	-11.2653
屋顶上	-11.2653
os	-11.2654
税收	-11.2656
最开始	-11.2657
诞生了	-11.2657
的工资	-11.2658
人民的	-11.2659
平方	-11.2659
▁我们决定	-11.2659
不应	-11.2659
年以前	-11.2661
分割	-11.2665
在自己的	-11.2665
离我们	-11.2666
研究中心	-11.2668
线条	-11.2669
斯坦	-11.267
一声	-11.267
推断	-11.2671
是免费的	-11.2672
为什么我们	-11.2675
▁记得	-11.2675
尝试去	-11.2676
我做的	-11.2679
大地	-11.268
▁差不多	-11.2681
水资源	-11.2686
遗传学	-11.2689
嘴里	-11.269
所有东西都	-11.2691
氢	-11.2692
玩意儿	-11.2694
十个	-11.2695
文化的	-11.2696
牵	-11.2697
容量	-11.2697
op	-11.2699
心态	-11.2699
十亿	-11.27
会造成	-11.2701
指望	-11.2701
现在是	-11.2702
会发现	-11.2702
掌握了	-11.2705
少于	-11.2706
进攻	-11.2707
的多样性	-11.2708
起源	-11.271
▁其他人	-11.271
自由的	-11.2711
帮助人们	-11.2712
背上	-11.2712
一个更	-11.2717
第一年	-11.2717
▁这项	-11.2719
你就能	-11.272
▁或者你	-11.272
所知	-11.2721
▁我想说的是	-11.2722
能够在	-11.2722
一个有趣的	-11.2723
死亡的	-11.2727
社区中	-11.273
问她	-11.2733
海拔	-11.2734
发展出	-11.2734
的第	-11.2735
▁是如何	-11.2736
着一个	-11.2736
划分	-11.2739
法语	-11.2741
▁它被	-11.2742
的村庄	-11.2742
是十分	-11.2743
的会议	-11.2748
那一刻	-11.2749
在波士顿	-11.2751
▁虽然我	-11.2751
▁即使你	-11.2756
候选人	-11.2759
发生什么	-11.276
我的作品	-11.276
快要	-11.2764
先前	-11.2764
跳到	-11.2765
的重量	-11.2766
▁我看到了	-11.2766
右边的	-11.2766
一种叫做	-11.2767
空间中	-11.2767
信息的	-11.2768
在任何	-11.2772
去探索	-11.2775
历程	-11.2775
弯	-11.2775
的成就	-11.2778
诸如	-11.278
▁仍然	-11.2781
激	-11.2784
▁在它	-11.2784
▁虽然我们	-11.2786
谨慎	-11.2786
▁这可是	-11.2787
▁创新	-11.2787
榜样	-11.2788
需要我们	-11.279
之类	-11.279
上面的	-11.2791
所处的	-11.2791
逮捕	-11.2791
但这	-11.2797
▁尽管我们	-11.2798
▁共同	-11.28
入口	-11.28
移到	-11.2801
做点	-11.2802
▁科学家们	-11.2805
海面	-11.2805
内在的	-11.2807
预	-11.2807
过渡	-11.2807
则会	-11.2812
▁那你	-11.2813
泄露	-11.2814
共识	-11.2815
▁现在我要	-11.2816
并不需要	-11.2819
爱人	-11.2822
吓	-11.2823
爆	-11.2824
却在	-11.2824
有限的	-11.2825
克莱	-11.2827
在想什么	-11.2831
很快的	-11.2831
人和	-11.2831
多年来	-11.2832
电梯	-11.2833
流通	-11.2834
战争中	-11.2834
半个	-11.2838
批	-11.2839
▁这些问题	-11.2839
因为它们	-11.2839
的技巧	-11.2841
的意愿	-11.2843
宝	-11.2843
要做什么	-11.2844
显现	-11.2847
▁你说	-11.2848
▁学生们	-11.2849
▁然后又	-11.2849
的移动	-11.285
的道德	-11.2851
爬到	-11.2851
漂	-11.2852
是对	-11.2852
做完	-11.2853
让我们看看	-11.2855
创造者	-11.2856
如果我们能	-11.2858
我们目前	-11.2858
倡导	-11.286
腰	-11.286
二进制	-11.286
一度	-11.286
un	-11.2862
的事业	-11.2862
▁学校	-11.2862
降落伞	-11.2864
老年痴呆症	-11.2864
威廉	-11.2864
子弹	-11.2865
繁衍	-11.2865
Jim	-11.2865
Paul	-11.2865
受试者	-11.2865
灌溉	-11.2865
混凝土	-11.2865
培养皿	-11.2865
暗喻	-11.2865
素材	-11.2865
杂耍	-11.2865
这些图片	-11.2865
潜艇	-11.2865
降临	-11.2865
面向	-11.2865
登陆	-11.2865
箭头	-11.2865
最高法院	-11.2865
随处可见	-11.2865
放映	-11.2865
振动	-11.2865
酒精	-11.2866
产卵	-11.2866
格伦	-11.2866
预先	-11.2866
法院	-11.2866
真诚	-11.2867
圣战	-11.2867
搞定	-11.2868
选出	-11.2868
▁你不需要	-11.287
安全套	-11.287
美食	-11.287
转身	-11.287
可以为	-11.2872
的头发	-11.2873
展出	-11.2873
我听到	-11.2875
▁不管你	-11.2875
走神	-11.2875
湿地	-11.2876
计算器	-11.288
自动化	-11.288
更像	-11.2881
你把	-11.2882
的报告	-11.2884
是无法	-11.2884
仍然有	-11.2885
行人	-11.2885
▁一名	-11.2885
人力	-11.2887
非常棒的	-11.2888
执	-11.2888
▁这些东西	-11.2892
好朋友	-11.2892
起床	-11.2893
动手	-11.2894
翼	-11.2895
走廊	-11.2895
赞美	-11.2896
用水	-11.2896
服从	-11.2896
船长	-11.2897
就好了	-11.2897
还是有	-11.2903
艺术家们	-11.2904
在未来的	-11.2904
▁【	-11.2905
▁阿瑟	-11.2907
大选	-11.2907
▁要比	-11.2908
就行了	-11.2908
▁主要是	-11.2908
光学	-11.2915
▁一切都	-11.2915
我们将会	-11.2917
静止	-11.2919
找到的	-11.292
▁从一个	-11.292
吸引力	-11.2922
万亿美元	-11.2922
我们发现了	-11.2923
▁因	-11.2924
当局	-11.2925
仅是	-11.2926
ga	-11.2926
我们看到的	-11.2927
这篇文章	-11.2927
的骨头	-11.2929
更小	-11.293
所要	-11.2934
这个结果	-11.2936
的早期	-11.294
吸引了	-11.2942
▁也许你	-11.2942
的理想	-11.2944
发表的	-11.2944
今天早上	-11.2945
伤口	-11.2946
显	-11.2946
几秒钟	-11.2946
对世界	-11.2947
就说	-11.2948
▁同时也是	-11.2949
到那里	-11.2952
是巨大的	-11.2956
大家都知道	-11.2959
越来越多的人	-11.2961
令人惊叹的	-11.2962
精神病	-11.2963
给它们	-11.2965
在生活中	-11.2966
的组合	-11.2969
的家	-11.297
而我	-11.297
匿名	-11.2971
越是	-11.2971
状态下	-11.2971
笑了	-11.2972
太过	-11.2977
窗口	-11.2977
在他们的	-11.2978
▁是为了	-11.2979
这个研究	-11.2979
坐在一起	-11.2979
越来越少	-11.2979
会怎么样	-11.298
所见	-11.2982
办公	-11.2988
他们想要	-11.299
次方	-11.2991
它已经	-11.2992
描述了	-11.2992
也都	-11.2993
▁那是个	-11.2995
毁了	-11.2995
▁我想这	-11.2996
▁这可以	-11.2997
黑色的	-11.2997
我要告诉你们	-11.2998
如何使用	-11.2998
被视为	-11.2999
一亿	-11.3001
▁但如果我们	-11.3002
开始吧	-11.3002
▁进而	-11.3004
那么做	-11.3005
▁并且它	-11.3005
小时的	-11.3006
黎巴嫩	-11.3007
三十年	-11.3007
很不一样	-11.3008
▁不过我	-11.3008
曲子	-11.3009
看得到	-11.3009
的妇女	-11.301
更长	-11.3011
远处	-11.3012
就会被	-11.3014
叫我	-11.3014
设计和	-11.3014
我小时候	-11.3015
挂在	-11.3017
John	-11.3018
都是一样的	-11.3018
缩	-11.3018
还有更多	-11.3019
我将要	-11.302
要找	-11.302
净	-11.3021
进行着	-11.3023
在墙上	-11.3024
▁我去	-11.3025
中找到	-11.3025
探寻	-11.3025
来描述	-11.3025
的个体	-11.3027
非常相似	-11.3028
靠着	-11.3028
三百	-11.303
了不起	-11.303
的成分	-11.303
大笑	-11.3031
他们认为	-11.3036
护	-11.3041
记录下	-11.3044
打破了	-11.3045
峰	-11.3046
我女儿	-11.3048
向外	-11.3051
我以前	-11.3051
精彩的	-11.3051
把一个	-11.3052
这些都	-11.3052
那张	-11.3053
不起	-11.3054
收到了	-11.3055
传递给	-11.3056
体温	-11.3057
▁这种情况	-11.306
当你在	-11.3062
花上	-11.3063
五岁	-11.3064
缓	-11.3065
请你	-11.3067
一直到	-11.3067
当今世界	-11.3069
我有一个	-11.307
在某种意义上	-11.307
在很多方面	-11.307
善良	-11.3071
▁仿佛	-11.3073
▁我母亲	-11.3073
切实	-11.3073
喜	-11.3076
发生变化	-11.3076
▁我并没有	-11.3077
和那些	-11.3077
客人	-11.3079
▁现今	-11.3079
豆	-11.3081
的员工	-11.3081
▁它们也	-11.3081
▁到底	-11.3081
hi	-11.3082
勾	-11.3082
▁这比	-11.3082
的大部分	-11.3084
脑子	-11.3085
父	-11.3086
认出	-11.3086
这样的地方	-11.309
盖茨	-11.309
创建一个	-11.309
海湾	-11.3091
有这么多	-11.3091
屋里	-11.3091
▁R	-11.3091
所发生的	-11.3091
试过	-11.3091
羞辱	-11.3091
炮	-11.3092
砰	-11.3092
鹿	-11.3092
杀虫剂	-11.3092
煮	-11.3092
哮喘	-11.3092
奖学金	-11.3092
崇拜	-11.3092
视网膜	-11.3092
东京	-11.3092
羽毛	-11.3092
致敬	-11.3092
养育	-11.3092
治理	-11.3093
迷失	-11.3093
斯科特	-11.3093
就有一个	-11.3093
六岁	-11.3093
北极熊	-11.3093
意识的	-11.3093
插入	-11.3094
选民	-11.3094
空气中	-11.3094
海军	-11.3095
能通过	-11.3095
交往	-11.3095
双眼	-11.3095
耳机	-11.3095
Ted	-11.3096
充斥着	-11.3096
几十亿	-11.3096
▁我刚	-11.3097
介绍一下	-11.3097
上瘾	-11.3097
是可行的	-11.3098
赛车	-11.3098
脆弱的	-11.3099
能做的	-11.3099
聚集在一起	-11.3099
马路	-11.31
的好	-11.3101
方法是	-11.3101
▁两	-11.3101
可供	-11.3102
耗费	-11.3103
一个机会	-11.3104
顺着	-11.3104
过得	-11.3105
每一个人都	-11.3105
增大	-11.3105
两边	-11.3106
环境问题	-11.3106
▁而它	-11.3107
养活	-11.3108
虚拟世界	-11.3108
平均值	-11.3109
社会里	-11.3109
一封	-11.3109
外太空	-11.3111
习惯于	-11.3113
杀掉	-11.3114
之一是	-11.3115
的案例	-11.3116
能听到	-11.3117
过分	-11.3117
曾在	-11.3117
大屠杀	-11.312
思索	-11.3121
信件	-11.3124
密集	-11.3124
这幅画	-11.3125
发动	-11.3128
新的东西	-11.313
大洋	-11.313
视频中	-11.3131
上空	-11.3131
不是那么	-11.3133
粗糙	-11.3134
明确的	-11.3134
▁尤其	-11.3135
非常有意思	-11.3135
的期望	-11.3136
用这种	-11.3136
的点子	-11.3136
表情	-11.3136
一美元	-11.3137
起来了	-11.3138
的背景	-11.3138
三岁	-11.3139
两人	-11.3142
和政治	-11.3143
独裁者	-11.3144
不管是	-11.3144
从这些	-11.3145
恐怕	-11.3145
切断	-11.3146
传授	-11.3146
▁我跟	-11.3146
▁某个	-11.3147
还不知道	-11.3147
说他	-11.3148
气温	-11.3149
▁他们想要	-11.315
能将	-11.3156
会面	-11.3161
带进	-11.3162
说唱	-11.3163
生产出	-11.3163
残酷	-11.3163
活到	-11.3165
星体	-11.3165
联邦政府	-11.3167
这样的话	-11.3169
精神分裂症	-11.3171
的记录	-11.3171
有责任	-11.3174
拜访	-11.3174
镜片	-11.3175
的生产	-11.3177
胃	-11.3178
残	-11.3179
高潮	-11.3179
教育系统	-11.3181
能有	-11.3181
▁和一些	-11.3182
脑海里	-11.3183
所作的	-11.3184
总是在	-11.3184
须	-11.3185
肉眼	-11.3185
更少的	-11.3187
再说	-11.319
目的地	-11.319
跟她	-11.3191
▁不断	-11.3191
▁我们不得不	-11.3194
送去	-11.3195
图上	-11.3195
埋	-11.3196
太多的	-11.3205
▁生活在	-11.3205
有史以来	-11.3206
水流	-11.3207
的第二个	-11.321
准确地	-11.321
▁它只是	-11.3214
▁离	-11.3214
你能够	-11.3214
的到来	-11.3216
一批	-11.3217
▁我们觉得	-11.3218
的成长	-11.3218
▁在于	-11.3218
▁参与	-11.3221
的气候	-11.3223
就是那个	-11.3224
冠	-11.3225
长出	-11.3227
的信念	-11.3228
的形象	-11.323
杂志上	-11.3233
算出	-11.3234
想到的	-11.3235
兄弟姐妹	-11.3238
是因为它	-11.3239
医疗系统	-11.324
▁刚刚	-11.324
她在	-11.3244
人性的	-11.3244
的神经元	-11.3246
▁他们觉得	-11.3247
不幸的是	-11.3248
黑暗的	-11.325
在研究	-11.3251
▁我们也可以	-11.3253
的客户	-11.3253
”(	-11.3253
国家公园	-11.3256
整个系统	-11.3257
影响着	-11.3257
有三	-11.3259
发了	-11.3259
蒸汽	-11.3261
▁至今	-11.3261
▁可能会	-11.3263
▁便是	-11.3264
艾米	-11.3265
彼得	-11.3266
根本不	-11.3266
▁之后我	-11.3267
▁据	-11.3267
我是说	-11.3267
会从	-11.3268
体现在	-11.3268
促成	-11.327
可以帮助我们	-11.327
的重点	-11.3271
▁他告诉我	-11.3272
波动	-11.3272
该做什么	-11.3273
对它们	-11.3274
▁然后说	-11.3276
你们当中	-11.3276
这首诗	-11.3278
究竟是什么	-11.3279
比其他	-11.3279
▁我们来看看	-11.3281
发出的	-11.3284
尊严	-11.3284
就变得	-11.3285
不是很	-11.3285
的根源	-11.3286
听说了	-11.3288
一部电影	-11.3288
都是在	-11.329
去改变	-11.329
um	-11.329
我想说的是	-11.3291
女孩们	-11.3291
我并不	-11.3293
做什么呢	-11.3293
砍伐	-11.3295
工作过	-11.3297
动物们	-11.3297
曾被	-11.3297
桌	-11.3298
看得	-11.3298
海上	-11.3299
废	-11.33
一台电脑	-11.3301
完全可以	-11.3302
鲜	-11.3303
之一就是	-11.3303
喜悦	-11.3304
的试验	-11.3305
免	-11.3307
他们将	-11.3308
婚	-11.331
▁永远	-11.331
田	-11.3311
的技能	-11.3313
补	-11.3313
汗	-11.3314
万物	-11.3314
非常有趣的	-11.3314
决定要	-11.3316
包裹	-11.3317
最爱	-11.3318
斑	-11.3319
夏	-11.3319
导航	-11.332
故障	-11.3321
孤儿	-11.3321
概括	-11.3322
闹	-11.3322
佛罗里达	-11.3323
逊	-11.3323
虽	-11.3323
辛	-11.3324
是因为我们	-11.3324
盘子	-11.3324
醉	-11.3324
汁	-11.3325
巴厘岛	-11.3325
麻痹	-11.3325
县	-11.3325
忧虑	-11.3325
清真寺	-11.3325
甩	-11.3325
畏惧	-11.3325
葡萄酒	-11.3325
宣扬	-11.3325
批判	-11.3325
微积分	-11.3325
沃尔玛	-11.3325
裂缝	-11.3325
改良	-11.3325
减速	-11.3325
开拓	-11.3325
陈述	-11.3325
艾伦	-11.3325
锁定	-11.3325
霍乱	-11.3325
稍稍	-11.3326
新生儿	-11.3326
通知	-11.3326
看得见	-11.3326
弦理论	-11.3326
极具	-11.3326
▁已经有	-11.3327
可视化	-11.3327
迷因	-11.3327
留意	-11.3327
谁能	-11.3327
等式	-11.3327
对自己说	-11.3327
信奉	-11.3327
潜水器	-11.3328
各类	-11.3328
某处	-11.3329
逃跑	-11.3329
念头	-11.3329
整天	-11.3329
口味	-11.3329
王子	-11.3329
在整个	-11.333
水准	-11.333
头顶	-11.333
一旦你	-11.3331
尽可能的	-11.3332
研制	-11.3333
我今天想	-11.3334
这是我的	-11.3334
光照	-11.3335
八个	-11.3335
▁这一次	-11.3336
废水	-11.3336
样式	-11.3337
北方	-11.3338
与此	-11.3338
摩托车	-11.3339
两百万	-11.3341
有何	-11.3342
有一	-11.3344
绝对的	-11.3346
ey	-11.3347
的飞机	-11.3347
这个装置	-11.3348
乘以	-11.3349
多数人	-11.335
桥梁	-11.335
紧紧	-11.335
漫长	-11.3351
容器	-11.3352
草图	-11.3352
井	-11.3354
行不通	-11.3356
▁达尔文	-11.3359
很短	-11.3359
▁这本书	-11.3361
占有	-11.3362
也应该	-11.3362
曾经说过	-11.3363
赞同	-11.3365
他们对	-11.3365
▁有的	-11.3366
的味道	-11.3367
▁你把	-11.3368
再也没有	-11.3369
奇怪的是	-11.337
反应堆	-11.3372
se	-11.3372
同学	-11.3373
即便	-11.3373
要多	-11.3375
▁和那些	-11.3376
一行	-11.3376
开始着手	-11.3377
要想	-11.3379
▁我与	-11.338
▁现在是	-11.3381
▁你还可以	-11.3383
唯一一个	-11.3387
会员	-11.3388
电器	-11.3388
它就会	-11.3389
主持	-11.3391
人类学家	-11.3392
有这样	-11.3392
什么都不	-11.3393
的种类	-11.3393
▁如果我们能够	-11.3393
是这么	-11.3396
电能	-11.3396
▁一切	-11.3397
两分钟	-11.3401
▁这跟	-11.3402
有些事情	-11.3403
透露	-11.3406
发达	-11.3408
当我在	-11.3409
▁如果它	-11.341
版本的	-11.3412
有一个问题	-11.3413
▁这张照片是	-11.3414
结束的时候	-11.3415
▁有一次	-11.3417
▁在他的	-11.3417
来处理	-11.3419
的邮件	-11.3419
被认为	-11.3421
有大量的	-11.3421
无家可归	-11.3421
有利于	-11.3424
她会	-11.3425
甚至没有	-11.3426
德里	-11.343
知道自己	-11.3433
学着	-11.3434
伦敦的	-11.3434
的渴望	-11.3438
里面有	-11.3439
▁第二天	-11.3445
很擅长	-11.3446
的许多	-11.3446
▁我来	-11.3446
什么地方	-11.3447
恰恰是	-11.3447
夏威夷	-11.3448
城市中	-11.3449
轨道上	-11.3449
家公司	-11.3449
去解决	-11.345
谁会	-11.3452
的伙伴	-11.3454
实际的	-11.3459
的所作所为	-11.346
装有	-11.346
是不同的	-11.346
一整天	-11.3461
▁名叫	-11.3462
几位	-11.3465
▁但我觉得	-11.3466
也是个	-11.3466
标准的	-11.3467
事情发生了	-11.3467
▁他对	-11.3469
▁众所周知	-11.347
请你们	-11.347
完全的	-11.347
▁但对于	-11.3474
了不少	-11.3475
通常会	-11.3475
▁我们不是	-11.3476
了自己的	-11.3477
两点	-11.3478
▁他们被	-11.3479
误	-11.348
祖父母	-11.3483
远比	-11.3486
很危险	-11.3488
▁大家都知道	-11.3488
▁亚当	-11.349
描述的	-11.3491
摔倒	-11.3491
▁在那个	-11.3491
换成	-11.3493
带到了	-11.3493
寻	-11.3494
什么的	-11.3494
当它	-11.3494
有必要	-11.3495
▁媒体	-11.3498
承载	-11.35
▁呃	-11.35
自己的孩子	-11.3502
带动	-11.3504
医生们	-11.3508
桌面	-11.3509
到目前为止	-11.351
再看看	-11.351
纪录片	-11.351
你为什么	-11.3511
好像是	-11.3511
无形	-11.3515
▁你知道的	-11.3515
请举手	-11.3515
提交	-11.3518
市场上	-11.352
▁我们实际上	-11.3522
得很好	-11.3523
年长的	-11.3523
上市	-11.3525
多少钱	-11.3526
西雅图	-11.3527
友善	-11.3527
出生的	-11.3528
对他们的	-11.3528
的版本	-11.3529
使之	-11.3529
的自然	-11.3534
磁	-11.3535
一种新	-11.3535
突然间	-11.3536
中来	-11.3536
瑟	-11.3537
教义	-11.3537
饮用水	-11.3541
来学习	-11.3541
矮	-11.3542
▁我们必须要	-11.3543
某种意义上	-11.3543
上百万	-11.3544
高效的	-11.3544
聚焦	-11.3545
追溯	-11.3545
知道的	-11.3545
凭	-11.3546
本人	-11.3547
大数据	-11.3547
通过观察	-11.3548
伏	-11.3552
▁所以这就是	-11.3552
退出	-11.3552
布什	-11.3553
一口	-11.3556
好玩的	-11.3556
▁一直到	-11.3556
这个社会	-11.3557
早餐	-11.3557
▁有许多	-11.3559
流量	-11.3559
社团	-11.3559
盲目	-11.356
工艺	-11.3561
竹	-11.3561
▁造成	-11.3562
宣言	-11.3562
舍	-11.3562
蜡烛	-11.3562
原住民	-11.3563
刮	-11.3563
Linux	-11.3563
尼泊尔	-11.3563
烦恼	-11.3563
贪婪	-11.3563
纳粹	-11.3563
习俗	-11.3563
构思	-11.3563
轰炸	-11.3563
削弱	-11.3563
幻肢	-11.3563
恶魔	-11.3563
医保	-11.3563
亲吻	-11.3563
预知	-11.3563
飞跃	-11.3563
奔跑	-11.3563
部署	-11.3563
昨晚	-11.3564
实例	-11.3564
裤子	-11.3564
民间	-11.3564
鸭子	-11.3564
省下	-11.3564
新颖	-11.3565
令我们	-11.3565
费曼	-11.3565
剧本	-11.3565
浴室	-11.3566
也是一种	-11.3566
顶级	-11.3567
关于我们	-11.3568
三角	-11.3569
印第安人	-11.3569
针头	-11.357
联结	-11.3571
群落	-11.3571
故事的	-11.3572
▁我完全	-11.3572
有其他	-11.3572
▁我们一起	-11.3573
女士们	-11.3574
用药	-11.3574
是什么样子的	-11.3575
▁不然	-11.3575
不再需要	-11.3575
才可以	-11.3577
牛津	-11.3577
一个真正的	-11.3578
很多时候	-11.3578
记载	-11.3579
首要	-11.3579
索马里	-11.358
的帮助下	-11.358
伸展	-11.358
▁做出	-11.3582
书里	-11.3583
▁而那	-11.3583
终极	-11.3583
如何处理	-11.3584
流向	-11.3584
▁所谓	-11.3584
的调查	-11.3586
根本无法	-11.3589
海外	-11.359
绕着	-11.359
伊朗人	-11.3592
来展示	-11.3593
古怪	-11.3595
▁当你在	-11.3596
已经知道	-11.3599
某些东西	-11.3601
是最好的	-11.3602
形成一个	-11.3603
体型	-11.3604
ka	-11.3607
少了	-11.3608
深层	-11.3608
先从	-11.3608
有意	-11.3611
千年	-11.3613
▁我都	-11.3616
解决的问题	-11.3617
在宇宙中	-11.3619
▁来到	-11.362
▁我们能否	-11.3622
幻	-11.3622
毒性	-11.3623
也有可能	-11.3623
努力工作	-11.3625
该怎么做	-11.3628
▁有点像	-11.3628
▁按	-11.3629
考验	-11.3631
机能	-11.3632
罕见	-11.3632
它们在	-11.3633
两组	-11.3633
是什么样子	-11.3634
人文	-11.3635
预期的	-11.3636
从没有	-11.3636
可笑	-11.3636
给你一个	-11.3639
这样的问题	-11.364
最终会	-11.364
人身上	-11.364
▁我们无法	-11.3642
我们只是	-11.3642
幸福感	-11.3643
▁它看起来	-11.3643
天体	-11.3644
块钱	-11.3644
很正常	-11.3649
▁我发现了	-11.3649
在干什么	-11.365
▁尤其是在	-11.365
音频	-11.365
与众不同的	-11.3652
非常简单的	-11.3652
▁他们要	-11.3654
一百年	-11.3659
未经	-11.3661
一直是	-11.3661
▁对于我来说	-11.3661
ss	-11.3661
从我	-11.3664
服务于	-11.3665
▁直到我	-11.3666
但他们	-11.3666
▁他有	-11.3669
不光	-11.3669
小男孩	-11.3671
开着	-11.3673
对我们的	-11.3673
▁他叫	-11.3674
串	-11.3675
那是一个	-11.3676
还活着	-11.3678
的一位	-11.3679
▁这是由	-11.3683
▁真正的	-11.3683
的特点	-11.3688
氢气	-11.3689
▁所以我认为	-11.3689
有那么多	-11.369
抱歉	-11.3692
恢复了	-11.3693
甚	-11.3695
接受教育	-11.3696
都来自	-11.3696
那是个	-11.3697
汽车的	-11.37
塑造了	-11.37
▁他们用	-11.3703
舞者	-11.3705
高质量的	-11.3708
▁他想	-11.371
我的家乡	-11.3711
把钱	-11.3713
膝盖	-11.3714
固	-11.3716
数据显示	-11.3719
磁铁	-11.372
一年后	-11.372
获得的	-11.3722
始	-11.3723
个不同的	-11.3723
生涯	-11.3724
更小的	-11.3725
▁这样的话	-11.3725
领域中	-11.3726
奇特	-11.3726
另一方面	-11.3728
的时光	-11.3728
▁说实话	-11.373
直观	-11.3733
监禁	-11.3733
▁某种程度上	-11.3736
de	-11.3737
震	-11.3739
责任感	-11.374
的次数	-11.3741
确切	-11.3741
兔子	-11.3743
起初	-11.3744
生存的	-11.3746
能让你	-11.3749
司法	-11.3751
的实际	-11.3751
."	-11.3752
的结合	-11.3752
发展成	-11.3752
犯了	-11.3752
to	-11.3756
很长	-11.3756
关注的是	-11.3757
这些变化	-11.3758
我的同事	-11.3761
我们的经济	-11.3762
他也	-11.3762
筒	-11.3762
▁对了	-11.3764
▁不过这	-11.3764
的情况是	-11.3764
这间	-11.3766
▁那样	-11.3768
合并	-11.3771
一小时	-11.3771
更多的钱	-11.3772
▁我并不	-11.3772
然后说	-11.3772
体现了	-11.3773
落在	-11.3775
炸	-11.3775
劲	-11.3775
生产的	-11.3777
这两	-11.3777
给你看	-11.3778
是相同的	-11.3778
姑娘	-11.3778
迈	-11.3779
很多问题	-11.3779
明智的	-11.378
与人	-11.378
的斗争	-11.378
角度看	-11.378
▁我的父母	-11.3782
怀着	-11.3783
社区里	-11.3786
会去	-11.3788
来实现	-11.3789
▁创造出	-11.3789
树枝	-11.379
皮层	-11.379
演讲中	-11.379
倾	-11.3793
点什么	-11.3793
你喜欢	-11.3794
阴	-11.3795
不在乎	-11.3795
提供给	-11.3797
墨	-11.3797
制作出	-11.3797
胸	-11.3798
稿	-11.3798
▁不像	-11.38
与否	-11.38
拇指	-11.38
有利的	-11.3801
礼	-11.3802
▁允许	-11.3802
哥	-11.3802
令人兴奋	-11.3802
柱	-11.3802
这种事	-11.3803
▁我知道我	-11.3804
笨	-11.3804
坐标	-11.3804
捏	-11.3804
李	-11.3804
虎	-11.3805
囊	-11.3805
摩擦	-11.3805
届	-11.3806
一家公司	-11.3806
好看	-11.3806
床上	-11.3806
叙事	-11.3807
隧道	-11.3807
是怎么回事	-11.3807
百科全书	-11.3807
病原体	-11.3807
颤抖	-11.3807
欢呼	-11.3807
借鉴	-11.3807
载荷	-11.3807
排斥	-11.3807
魔鬼	-11.3807
收购	-11.3807
辛苦	-11.3807
客厅	-11.3807
▁但那	-11.3807
出门	-11.3807
升温	-11.3807
咖啡馆	-11.3807
饼干	-11.3807
简易	-11.3807
▁我不知道你们	-11.3807
云彩	-11.3808
无趣	-11.3808
标语	-11.3808
偏离	-11.3808
喊	-11.3809
住宅	-11.3809
佛教	-11.3809
章鱼	-11.381
意义的	-11.381
特例	-11.381
发挥作用	-11.3811
▁因为如果你	-11.3811
公斤	-11.3812
发动机	-11.3812
平行	-11.3812
做好准备	-11.3812
仔细地	-11.3813
修正	-11.3815
而不	-11.3815
爱上了	-11.3817
奉献	-11.3819
▁我们只	-11.382
土著	-11.3821
在南非	-11.3822
▁加贝	-11.3822
深深地	-11.3823
年轻女性	-11.3823
▁如果你不	-11.3824
的森林	-11.3824
▁你是否	-11.3824
艾滋	-11.3825
的解决方法	-11.3827
尽可能地	-11.3827
思路	-11.383
在屏幕上	-11.383
他们的孩子	-11.3831
阿拉伯世界	-11.3831
来说明	-11.3831
嵌入	-11.3834
手套	-11.3834
工作岗位	-11.3834
▁他们知道	-11.3834
的士兵	-11.3837
中的一员	-11.3837
的难题	-11.3837
能帮助	-11.3838
指引	-11.3838
出路	-11.3839
非凡	-11.384
岁月	-11.384
可靠的	-11.3841
无数的	-11.3842
坦桑尼亚	-11.3842
益处	-11.3842
取代了	-11.3843
不认识	-11.3843
网络上	-11.3844
运送	-11.3845
书本	-11.3845
▁都可以	-11.3846
事情是	-11.3846
很熟悉	-11.3847
蓝图	-11.3847
不丹	-11.3847
拿了	-11.3848
▁而这正是	-11.3849
短短	-11.3851
▁电脑	-11.3851
就像一个	-11.3853
迟	-11.3855
很困难	-11.3856
刚刚开始	-11.3857
最早	-11.3857
▁就是在	-11.3857
可以使用	-11.3857
在去年	-11.3861
给孩子们	-11.3862
▁于是我就	-11.3863
在场的	-11.3864
说出来	-11.3866
工作的时候	-11.3867
更重要的	-11.3868
述	-11.3872
我感觉	-11.3873
不重要	-11.3874
试着去	-11.3876
脚下	-11.3876
他们的工作	-11.3877
总有	-11.3877
我们怎么	-11.3877
内的	-11.3877
你的眼睛	-11.3878
举动	-11.3878
掌	-11.3881
有生命	-11.3882
在同一	-11.3884
的事情是	-11.3887
许	-11.3887
所经历的	-11.3887
▁一是	-11.3889
病房	-11.3891
汇聚	-11.3891
▁假如我们	-11.3894
▁在英国	-11.3895
造就了	-11.3895
以一个	-11.3896
家里的	-11.3896
展示的是	-11.3897
大街上	-11.3897
的真正	-11.3897
和水	-11.3898
的事件	-11.3902
更多人	-11.3904
她是	-11.3904
近乎	-11.3905
用我们的	-11.3906
人类文明	-11.3906
意想不到的	-11.3909
干了	-11.3909
照亮	-11.3911
来吧	-11.3912
▁然后他说	-11.3915
很多次	-11.3917
灰色	-11.3918
▁这项技术	-11.3922
创办	-11.3923
的元素	-11.3924
如此重要	-11.3924
开始在	-11.3925
▁当这些	-11.3926
我们确实	-11.3927
▁机器人	-11.3929
▁感谢	-11.3931
在这个国家	-11.3932
我的家人	-11.3932
此处	-11.3933
开始研究	-11.3933
很相似	-11.3934
透明的	-11.3935
▁我们喜欢	-11.3935
做成的	-11.3941
▁我以前	-11.3941
学习的	-11.3942
的丈夫	-11.3945
好笑	-11.3946
最主要的	-11.3947
市郊	-11.3949
▁但这不是	-11.395
到另一个	-11.395
放回	-11.3952
每一年	-11.3952
纯粹的	-11.3957
感到惊讶	-11.3958
和美国	-11.3958
的第一步	-11.3958
的作者	-11.3958
▁保持	-11.3959
难过	-11.396
▁他们都是	-11.396
解剖	-11.3961
这幅	-11.3962
▁这个想法	-11.3962
粉色	-11.3964
▁不久	-11.3965
的长度	-11.3969
一方	-11.397
需要知道	-11.3971
▁曾	-11.3974
橙色	-11.3976
我妈	-11.3978
的一点是	-11.3979
▁有一种	-11.398
人们都	-11.3982
这个设备	-11.3982
学到了	-11.3983
可以找到	-11.3983
活下来	-11.3986
▁如果说	-11.3986
整个宇宙	-11.3987
是个好	-11.3987
会这样	-11.3989
▁大自然	-11.3989
一个女孩	-11.399
证实了	-11.3991
的心态	-11.3994
你可以在	-11.3994
都应该	-11.3996
犹太教	-11.3997
的欲望	-11.3997
▁这其实是	-11.3997
▁他们不	-11.3998
▁他当时	-11.3999
一些国家	-11.3999
▁这也是我	-11.3999
作品中	-11.4001
全球化的	-11.4004
我告诉你	-11.4005
违反	-11.4006
弟弟	-11.4007
能让我们	-11.4008
装满	-11.401
口号	-11.401
▁三	-11.4012
园	-11.4013
无法理解	-11.4014
的预算	-11.4015
年以后	-11.4015
最新	-11.4016
浮现	-11.4016
▁就有	-11.4017
不做	-11.4021
▁对不起	-11.4022
心智	-11.4024
多年前	-11.4026
然后我	-11.4026
英尺的	-11.4027
健康和	-11.4028
最有	-11.4029
劳工	-11.4031
乌	-11.4032
智慧的	-11.4033
一丝	-11.4034
就跟	-11.4034
一栋	-11.4034
葬礼	-11.4036
警	-11.4037
的原型	-11.4038
接口	-11.4038
它有	-11.4039
▁所以这些	-11.404
越好	-11.4043
▁哪怕	-11.4044
正常人	-11.4046
盛	-11.4047
便宜的	-11.4048
你是一个	-11.4049
旋	-11.4049
旨在	-11.405
创造了一个	-11.405
安装了	-11.405
的种种	-11.4051
裤	-11.4051
我从来没有	-11.4052
裂	-11.4052
孙子	-11.4053
炎	-11.4054
猴	-11.4055
调研	-11.4055
命名为	-11.4055
详	-11.4056
脉冲	-11.4056
大片	-11.4056
朱	-11.4056
克林顿	-11.4056
Steve	-11.4056
废墟	-11.4056
柯	-11.4056
亚伯拉罕	-11.4057
华尔街	-11.4057
奥林匹克	-11.4057
CRISPR	-11.4057
▁我最喜欢的	-11.4057
陷阱	-11.4057
杂货店	-11.4057
橄榄球	-11.4057
瀑布	-11.4057
爱德华	-11.4057
黏液霉菌	-11.4057
▁莉莉	-11.4057
琢磨	-11.4057
坚固	-11.4057
贫民区	-11.4057
饲养	-11.4057
认证	-11.4057
太阳能电池	-11.4057
文档	-11.4057
关怀	-11.4057
幼虫	-11.4057
科幻小说	-11.4057
敌意	-11.4057
吸毒	-11.4057
正在做的	-11.4058
握手	-11.4059
研讨会	-11.4059
▁再看看	-11.4059
专业人士	-11.4059
脊椎	-11.4059
大洲	-11.406
哈哈	-11.406
米洛	-11.406
你们中	-11.4061
id	-11.4061
知晓	-11.4062
性交	-11.4063
秘鲁	-11.4063
推行	-11.4064
灵长类动物	-11.4064
之间的联系	-11.4065
地域	-11.4065
▁然后用	-11.4065
贩卖	-11.4066
跨国	-11.4067
禽流感	-11.4068
一双	-11.4071
半数	-11.4074
信息技术	-11.4076
从我的	-11.4077
附加	-11.4078
的职责	-11.4078
这些细胞	-11.4079
血糖	-11.408
旁边的	-11.4081
回路	-11.4081
排在	-11.4084
人均收入	-11.4084
为这个	-11.4084
多阿	-11.4084
在那个时候	-11.4084
都认为	-11.4085
有办法	-11.4086
这个数据	-11.4086
美学	-11.4086
电源	-11.4087
重生	-11.4087
港口	-11.409
二十年	-11.4091
强化	-11.4092
▁起初	-11.4092
▁建造	-11.4092
市场营销	-11.4095
▁我们意识到	-11.4099
开放式	-11.41
塑料袋	-11.41
的门	-11.41
解决这些问题	-11.41
有四个	-11.4101
被捕	-11.4103
▁相信	-11.4103
献给	-11.4106
和大家	-11.4107
的特质	-11.4107
乡下	-11.4108
非常小	-11.4108
放上	-11.4108
▁刚才	-11.4108
加贝	-11.4109
外出	-11.4109
的服务	-11.4109
此事	-11.4111
的开端	-11.4113
走过来	-11.4115
▁他将	-11.412
这份工作	-11.412
看成	-11.4121
天然的	-11.4122
比特	-11.4125
▁我之前	-11.4125
那你	-11.4125
百万人	-11.4126
堆积	-11.4128
成百上千	-11.4129
轻易	-11.413
这种能力	-11.4132
知道这个	-11.4133
还多	-11.4135
▁但这个	-11.4135
破坏了	-11.4135
后期	-11.4135
德国人	-11.4135
剂量	-11.4136
公交	-11.4136
▁穿过	-11.4136
▁站在	-11.4137
▁类似	-11.4137
走出去	-11.4138
战争的	-11.4138
全人类	-11.4138
▁我知道你们	-11.4138
这个星球	-11.4139
▁相比	-11.414
篮球	-11.4142
让我觉得	-11.4143
一首诗	-11.4144
那些我们	-11.4145
吃惊	-11.4147
来说是	-11.4148
去参加	-11.4151
▁无论你	-11.4154
和朋友	-11.4155
的成绩	-11.4157
被叫做	-11.4157
一小块	-11.4158
的海洋	-11.416
▁我想我们	-11.4162
无限的	-11.4163
的环境下	-11.4163
顶端	-11.4164
新事物	-11.4165
是把	-11.417
应用在	-11.4171
每种	-11.4172
令人惊讶的	-11.4172
地质	-11.4172
▁海洋	-11.4174
和别人	-11.4175
就是个	-11.4176
很快就会	-11.4177
四天	-11.4181
可以解决	-11.4182
真心	-11.4183
限	-11.4183
办公室里	-11.4183
还有个	-11.4184
船上	-11.4184
▁找出	-11.4185
完全一样	-11.4188
▁这个数字	-11.4189
的形成	-11.4189
假说	-11.419
ley	-11.4191
经历的	-11.4192
哥哥	-11.4192
▁我做了	-11.4193
我们之前	-11.4193
眼里	-11.4194
这些工具	-11.4195
每个月	-11.4196
其他动物	-11.4197
汇	-11.4197
出名	-11.4198
更美好	-11.4201
▁我们还需要	-11.4202
假想	-11.4204
▁想想看	-11.4204
身上的	-11.4205
希望能	-11.4206
思考这个问题	-11.4207
对照	-11.4208
我确实	-11.421
七岁	-11.421
就开始了	-11.4211
在当地	-11.4213
▁但是如果我们	-11.4213
你还	-11.4214
不禁	-11.4215
究竟是	-11.4217
年代中期	-11.4217
走在	-11.4219
没有得到	-11.422
我丈夫	-11.4222
▁简直	-11.4222
两个小时	-11.4225
辨别	-11.4226
最重要	-11.4226
在其他	-11.4227
▁学生	-11.4227
停止了	-11.4227
做任何	-11.4228
一些地方	-11.4229
八年	-11.423
猎物	-11.4231
那只是	-11.4231
▁在那些	-11.4231
背景下	-11.4232
另一只	-11.4232
实际情况	-11.4234
我们的城市	-11.4234
的意图	-11.4238
版的	-11.4239
假期	-11.4242
的程序	-11.4242
这一切都	-11.4243
▁尽管如此	-11.4243
血压	-11.4243
▁为什么不	-11.4246
荒谬	-11.4247
我们觉得	-11.4248
▁他被	-11.4248
▁拿	-11.4249
得更好	-11.425
成真	-11.4251
最优秀的	-11.4251
▁我只想	-11.4252
并不总是	-11.4253
态	-11.4253
我们身边	-11.4257
的目标是	-11.426
过多	-11.426
同样的问题	-11.4261
这是真的	-11.4261
▁那么现在	-11.4262
如果有	-11.4263
污染物	-11.4263
我们每个人	-11.4264
▁他是一个	-11.4267
占领	-11.4267
▁当你把	-11.4269
▁互联网	-11.4272
从哪里来	-11.4273
五种	-11.428
这个主意	-11.428
▁我无法	-11.4281
座位	-11.4283
在使用	-11.4284
的礼物	-11.4286
外来	-11.4286
▁这不是一个	-11.4288
面试	-11.4292
成为一种	-11.4293
▁我就想	-11.4293
不然	-11.4294
日期	-11.4294
的船	-11.4296
看到一些	-11.4298
坟墓	-11.43
是一只	-11.43
想要什么	-11.4302
手法	-11.4304
▁这可能是	-11.4305
焦	-11.4307
一小	-11.4307
▁然后我就	-11.4309
珠	-11.4311
岸	-11.4311
棚	-11.4311
奈	-11.4311
饼	-11.4312
邮箱	-11.4312
撒	-11.4313
交响乐	-11.4313
痢疾	-11.4313
贾	-11.4313
柬埔寨	-11.4313
浮游生物	-11.4313
George	-11.4313
Wikipedia	-11.4313
侮辱	-11.4313
公立学校	-11.4313
耻辱	-11.4313
»	-11.4313
授粉	-11.4313
迷惑	-11.4313
«	-11.4313
希格斯场	-11.4313
怪兽	-11.4313
纠正	-11.4313
建构	-11.4313
温柔	-11.4313
不妨	-11.4313
谜团	-11.4313
坚硬	-11.4313
土豆	-11.4313
绳索	-11.4314
缓解	-11.4314
农作物	-11.4314
烟雾	-11.4314
唤醒	-11.4314
号召	-11.4314
警方	-11.4314
护照	-11.4314
必定	-11.4314
避难所	-11.4314
泰勒	-11.4314
凯文	-11.4314
配方	-11.4314
子宫	-11.4315
男人和女人	-11.4315
借此	-11.4315
▁第一种	-11.4316
流失	-11.4316
很可能是	-11.4316
内存	-11.4316
每件事	-11.4317
实物	-11.4317
日常生活中	-11.4318
音调	-11.4318
人人	-11.4318
胜过	-11.4318
束缚	-11.4318
手稿	-11.4318
捕食	-11.4319
这首	-11.432
地板	-11.4321
这家伙	-11.4322
死亡人数	-11.4322
无视	-11.4323
的机制	-11.4324
的灵感	-11.4325
非暴力	-11.4325
干嘛	-11.4325
选手	-11.4326
英格兰	-11.4327
干的	-11.4328
▁所以我开始	-11.4331
打电话给	-11.4331
RM	-11.4331
喂养	-11.4332
▁我们有一个	-11.4334
▁二	-11.4335
在看	-11.4335
连接在一起	-11.4336
制成的	-11.4336
雇用	-11.4336
有两	-11.4337
追溯到	-11.4337
值得我们	-11.4337
这样的情况	-11.4339
在日本	-11.4339
追随	-11.4342
这个名字	-11.4345
比较好	-11.4345
市场的	-11.4346
▁我们可以在	-11.4346
只有在	-11.4346
欧洲的	-11.4347
受教育	-11.4347
大奖	-11.4348
告诉了我们	-11.435
的背后	-11.435
物件	-11.4351
更能	-11.4352
成型	-11.4352
颠覆	-11.4353
露出	-11.4353
知道它	-11.4353
躲	-11.4354
到过	-11.4355
遗产	-11.4355
身后	-11.4357
我记得	-11.4357
ard	-11.4358
这位女士	-11.4359
你说	-11.4359
最关键的	-11.4363
太阳的	-11.4363
▁来帮助	-11.4365
路人	-11.4365
特有的	-11.4366
就无法	-11.4366
四岁	-11.4366
化学反应	-11.4366
这种说法	-11.4366
选择性	-11.4367
一整	-11.4368
我只	-11.4368
不同意	-11.4369
强力	-11.4369
重新思考	-11.437
看这些	-11.4373
▁我知道这	-11.4373
许多其他	-11.4375
▁也不会	-11.4375
除去	-11.4377
▁至少在	-11.4378
▁埃隆	-11.4378
收入的	-11.4379
听从	-11.438
学校的	-11.438
指着	-11.4381
球体	-11.4381
迷人的	-11.4383
我们可以看到	-11.4384
问题上	-11.4384
▁有没有	-11.4385
很高的	-11.4385
Ka	-11.4385
往上	-11.4385
被问到	-11.4386
会比	-11.4386
适应性	-11.4386
真实世界	-11.4388
▁如果把	-11.4389
之外的	-11.4391
全面的	-11.4392
跨过	-11.4392
▁也不	-11.4394
翻转	-11.4396
▁我不是说	-11.4396
把所有的	-11.4402
决定的	-11.4402
戴上	-11.4402
其实就是	-11.4403
▁会在	-11.4404
残忍	-11.4407
其他一些	-11.4412
音乐会	-11.4415
不适合	-11.4415
找回	-11.4415
污	-11.4417
▁她会	-11.4419
将之	-11.4422
Me	-11.4425
他们就会	-11.4425
从哪里	-11.4427
安置	-11.4429
发放	-11.443
感觉就像	-11.4431
▁取决于	-11.4434
走动	-11.4434
那块	-11.4435
没事	-11.4437
的某个	-11.4439
上传到	-11.4441
人来说	-11.4443
二十世纪	-11.4443
荣幸	-11.4445
如何影响	-11.4445
就象	-11.4447
一首歌	-11.4448
一代人	-11.4449
这些疾病	-11.4449
变大	-11.445
爱你	-11.445
复合	-11.4451
▁我们总是	-11.4452
不管你	-11.4453
震惊了	-11.4453
小小	-11.4455
宝贵的	-11.4456
讲述了	-11.4459
主管	-11.4459
▁笑	-11.446
▁现代	-11.4461
周五	-11.4462
我感到	-11.4463
的婴儿	-11.4465
历史中	-11.4466
耐	-11.4467
项目的	-11.4467
不远	-11.4468
▁我们使用	-11.4469
太大了	-11.4469
高层	-11.447
的代价	-11.4471
我们的想法	-11.4472
去见	-11.4473
音乐厅	-11.4473
▁谷歌	-11.4474
生活中的	-11.4475
做更多	-11.4476
▁因为这样	-11.4476
的工作原理	-11.448
互联网上	-11.4481
不认为	-11.4482
我花了	-11.4483
我不喜欢	-11.4488
用品	-11.4492
成为可能	-11.4496
更糟	-11.4496
为一个	-11.4498
和我一样	-11.4499
移除	-11.45
吐	-11.4503
▁David	-11.4508
棕色	-11.4509
那个时代	-11.4509
▁我妈妈	-11.451
腿上	-11.451
我在这里	-11.4511
活动家	-11.4515
正在被	-11.4519
样品	-11.4519
阵	-11.452
做为	-11.452
答案是	-11.4521
我们的国家	-11.4525
他们要	-11.4527
的物品	-11.4528
丑	-11.4529
根本不知道	-11.4529
我们相信	-11.453
令人难以置信	-11.4531
暴露	-11.4531
▁与我们	-11.4531
海洋的	-11.4531
捐助	-11.4532
的差距	-11.4532
参	-11.4533
过去了	-11.4533
间接	-11.4534
以前的	-11.4535
▁她还	-11.4535
做出改变	-11.4536
也曾	-11.4536
肯定是	-11.4536
▁这是另一个	-11.4537
非常大的	-11.4539
很担心	-11.4539
割	-11.4539
往前	-11.454
能达到	-11.4541
再做	-11.4542
不是真的	-11.4543
优	-11.4545
▁因为这个	-11.4545
否定	-11.4546
地平线	-11.4546
途中	-11.4547
乐意	-11.4547
研究结果	-11.4549
卓越的	-11.4549
表现得	-11.455
尤	-11.4552
根源	-11.4552
看看这个	-11.4553
他是个	-11.4554
今天的演讲	-11.4554
如果你在	-11.4556
将此	-11.4556
造福	-11.4557
注意到了	-11.4557
在当时	-11.4557
碗	-11.4557
以此	-11.4558
整个社会	-11.4559
的心理	-11.456
供应链	-11.456
作战	-11.4562
北部的	-11.4562
坦白	-11.4562
返	-11.4563
的手臂	-11.4563
▁因为那	-11.4564
讲台	-11.4565
什么才是	-11.4566
很不	-11.4568
尝	-11.4568
是如何工作的	-11.4569
生了	-11.4569
艰难的	-11.4571
的潜能	-11.4571
树上	-11.4571
要花费	-11.4573
你可能会	-11.4573
不会发生	-11.4573
茨	-11.4573
利比亚	-11.4574
职位	-11.4574
▁如果我们想	-11.4574
腔	-11.4575
译	-11.4575
黏	-11.4576
议程	-11.4576
▁里面有	-11.4576
躲避	-11.4576
亚里士多德	-11.4576
Uber	-11.4576
嘈杂	-11.4576
无关紧要	-11.4576
栅栏	-11.4576
硫化氢	-11.4576
Abed	-11.4576
吞噬	-11.4576
滑稽	-11.4576
谴责	-11.4576
贾丝婷	-11.4576
逗	-11.4576
仁慈	-11.4576
娜塔莎	-11.4576
损坏	-11.4576
弹簧	-11.4576
腐烂	-11.4576
仇恨	-11.4576
压抑	-11.4576
奏效	-11.4576
杠杆	-11.4576
剧烈	-11.4576
骨髓	-11.4576
摩尔定律	-11.4576
席卷	-11.4576
木偶	-11.4577
停滞	-11.4577
共和国	-11.4577
跳跃	-11.4577
减弱	-11.4577
推销	-11.4577
营养不良	-11.4577
俄国	-11.4577
乐谱	-11.4577
函数	-11.4577
尖端	-11.4577
害虫	-11.4577
降解	-11.4577
奖项	-11.4577
胸部	-11.4577
后续	-11.4577
信徒	-11.4577
多重	-11.4578
我希望大家	-11.4578
传奇	-11.4578
补贴	-11.4578
正方形	-11.4578
一棵	-11.4578
我的梦想	-11.4578
出席	-11.4579
透明度	-11.4579
牠们	-11.4579
夸大	-11.4579
女王	-11.4579
压制	-11.4579
周日	-11.4579
过滤器	-11.458
口音	-11.458
东非	-11.458
鸟儿	-11.4583
依照	-11.4584
填满	-11.4584
的片段	-11.4585
立场	-11.4586
活动中	-11.4586
这条路	-11.4587
热门	-11.4588
史无前例的	-11.4588
缺点	-11.4591
▁那就是我们	-11.4591
回到家	-11.4591
▁这让	-11.4592
那时我	-11.4593
体验到	-11.4593
的画	-11.4593
起源于	-11.4594
▁和我	-11.4595
▁而是在	-11.4596
只想	-11.4596
▁我们看到了	-11.4596
▁所以当你	-11.4598
所有的人	-11.4598
潜能	-11.4599
想象的	-11.4599
不安全	-11.46
呈现出	-11.4603
不清	-11.4605
故事中	-11.4606
你的手机	-11.4607
重重	-11.4607
是怎么做到的	-11.4608
这段视频	-11.461
原因是	-11.4612
桌子上	-11.4612
▁在这种情况下	-11.4613
电视台	-11.4613
是一件好事	-11.4614
失败者	-11.4614
那些东西	-11.4615
也因此	-11.4616
▁事实证明	-11.4616
或者其他	-11.4616
是女性	-11.4616
ba	-11.4617
住所	-11.4619
▁这需要	-11.4619
的心	-11.462
有意识的	-11.4621
认为他们	-11.4621
son	-11.4623
强壮	-11.4624
因为她	-11.4624
的花费	-11.4624
搜索引擎	-11.4624
▁to	-11.4625
起点	-11.4626
▁有人说	-11.4626
的一生	-11.4627
更有可能	-11.463
自己的身体	-11.4631
接受治疗	-11.4633
并非如此	-11.4634
背面	-11.4636
在讨论	-11.4636
甚至连	-11.4636
的对象	-11.4637
单纯的	-11.4637
▁尽管我	-11.4638
它们能	-11.464
孟买	-11.464
▁同样地	-11.4643
▁你会说	-11.4646
的那个人	-11.4646
摔	-11.4648
的方法来	-11.4652
当选	-11.4652
每日	-11.4653
的方法是	-11.4655
IP	-11.4656
认识的	-11.4658
的顶端	-11.4661
者和	-11.4661
产物	-11.4662
▁我打算	-11.4662
这是我们	-11.4662
▁其它	-11.4664
我们为什么要	-11.4665
技术人员	-11.4665
高尔夫球	-11.4666
的原因之一	-11.4666
▁所以这个	-11.4667
你必须要	-11.467
这台	-11.4672
是不可能	-11.4676
签署	-11.4678
聚集在	-11.4678
人口增长	-11.468
不信	-11.4681
的单词	-11.4681
草地	-11.4683
有力	-11.4684
就从	-11.4685
▁我经常	-11.4685
的总和	-11.4686
局面	-11.4686
怪异	-11.4687
或许会	-11.4688
▁最大的	-11.469
▁这是一项	-11.4691
的争论	-11.4693
格雷	-11.4694
▁安德森	-11.4695
第一步	-11.4695
这家公司	-11.4696
上说	-11.4697
的互动	-11.4698
总结一下	-11.4698
▁大概是	-11.47
为大家	-11.47
我无法	-11.47
谈一谈	-11.47
一个团队	-11.4701
▁持续	-11.4701
▁他们就会	-11.4702
▁你们都	-11.4703
▁我们拥有	-11.4703
飞机上	-11.4703
▁因为它是	-11.4704
请大家	-11.4706
让我来	-11.4706
共事	-11.4707
合法的	-11.4708
又说	-11.4711
▁你可以从	-11.4711
义务	-11.4711
前线	-11.4711
超人	-11.4712
更多地	-11.4713
的蚂蚁	-11.4713
不介意	-11.4713
ay	-11.4714
并不存在	-11.4715
看的	-11.4716
每天都在	-11.4718
它们都	-11.4723
有趣的事	-11.4724
▁我最近	-11.4724
这一步	-11.4725
一份工作	-11.4726
找来	-11.4726
▁我并不是	-11.4729
▁总	-11.4729
非常有效	-11.4732
辆车	-11.4732
疯	-11.4732
观察了	-11.4732
大城市	-11.4733
吸引人	-11.4735
▁在她	-11.4735
的那天	-11.4737
动物身上	-11.4739
开始使用	-11.474
他们已经	-11.4741
卖掉	-11.4741
薪水	-11.4743
辞	-11.4743
都说	-11.4744
最危险的	-11.4745
▁只要我们	-11.4745
▁帮助我们	-11.4745
这种行为	-11.4746
没人知道	-11.4751
新想法	-11.4751
又能	-11.4754
到今天	-11.4755
仔细想想	-11.4757
▁这是从	-11.476
所有的一切	-11.4761
这个网站	-11.4762
▁它叫做	-11.4762
绝妙的	-11.4763
让别人	-11.4764
很严重	-11.4765
定制	-11.4766
有一些人	-11.4767
吓人	-11.4767
狗狗	-11.4767
光源	-11.4768
▁我会说	-11.4771
的婚姻	-11.4772
▁记者	-11.4773
不同的地方	-11.4773
▁在中国	-11.4774
多一点	-11.4774
▁我刚刚	-11.4774
▁我自己	-11.4775
的目光	-11.4776
控制着	-11.4779
的农民	-11.4779
▁接下来的	-11.4781
五年前	-11.4784
▁这似乎	-11.4784
在最后	-11.4785
▁我们确实	-11.4786
▁所以我们就	-11.4788
的人物	-11.4789
科学技术	-11.4791
ic	-11.4793
并没有什么	-11.4794
还不能	-11.4794
都会有	-11.4796
设计一个	-11.4796
▁一只	-11.4797
▁关键是	-11.4798
让孩子	-11.4805
安全带	-11.4806
▁而不	-11.4806
▁我那时	-11.4806
巧	-11.4807
▁具体	-11.4809
一个好	-11.4812
▁它没有	-11.4812
岗位	-11.4815
年初	-11.4817
胆	-11.4817
怎么了	-11.4817
蚁穴	-11.4818
现代的	-11.4818
▁哇	-11.4819
两张	-11.4821
谈的是	-11.4823
的复杂性	-11.4823
快感	-11.4824
的化学	-11.4825
徒步	-11.4826
细小的	-11.4827
所造成的	-11.4827
▁他们希望	-11.483
j	-11.483
期刊	-11.483
▁但我知道	-11.483
▁让我们来看看	-11.4831
▁另	-11.4832
扔到	-11.4836
放进去	-11.4837
▁特斯拉	-11.4838
这四个	-11.4839
除非	-11.4839
脂	-11.4842
谋	-11.4842
港	-11.4842
有孩子	-11.4843
定期	-11.4843
的仪器	-11.4843
▁就是把	-11.4843
辩	-11.4843
岩	-11.4843
练	-11.4843
女人们	-11.4843
▁有的时候	-11.4843
浸	-11.4844
谜	-11.4845
有希望	-11.4845
凉	-11.4845
需要做的	-11.4845
泄漏	-11.4845
惨	-11.4845
欢乐	-11.4846
债	-11.4846
剑	-11.4846
的保护	-11.4846
Pete	-11.4846
科索沃	-11.4847
首席执行官	-11.4847
嫉妒	-11.4847
噩梦	-11.4847
奥地利	-11.4847
称其为	-11.4847
纷纷	-11.4847
示范	-11.4847
纳米比亚	-11.4847
诱因	-11.4847
触觉	-11.4847
违背	-11.4847
芬兰	-11.4847
鉴定	-11.4847
支柱	-11.4847
头盔	-11.4847
汇集	-11.4847
抵制	-11.4847
失控	-11.4847
短缺	-11.4847
乌云	-11.4847
信用卡	-11.4847
拜托	-11.4847
钻石	-11.4848
乐团	-11.4848
我们喜欢	-11.4848
流浪	-11.4848
女友	-11.4848
片断	-11.4848
罪行	-11.4848
永生	-11.4848
初级	-11.4848
接受的	-11.4849
一阵子	-11.4849
条例	-11.4849
致死	-11.4849
选了	-11.485
牛肉	-11.485
方达	-11.4851
嘴巴	-11.4851
假定	-11.4851
永恒	-11.4852
联合起来	-11.4852
笔记	-11.4852
▁而且我认为	-11.4852
会让我们	-11.4852
我很喜欢	-11.4853
墨水	-11.4854
对这	-11.4855
虫子	-11.4856
特色	-11.4856
▁将来	-11.4856
▁某种	-11.4857
紫色	-11.4857
像素	-11.4858
发现他们	-11.4858
大笔	-11.4858
制造业	-11.4859
每年都	-11.486
丢掉	-11.486
所以你	-11.486
格式	-11.4861
点亮	-11.4861
甘地	-11.4862
营地	-11.4862
新科技	-11.4863
会有人	-11.4863
▁以一种	-11.4864
电子设备	-11.4864
女朋友	-11.4864
蜂巢	-11.4865
绝不会	-11.4866
内心深处	-11.4867
享用	-11.4867
张照片	-11.4868
的公民	-11.4869
▁人们开始	-11.4869
▁现在我想	-11.487
多长时间	-11.487
几百年	-11.4871
故事里	-11.4871
上个世纪	-11.4872
生命周期	-11.4873
充分利用	-11.4874
变换	-11.4879
▁特别是在	-11.488
弄得	-11.4881
的论文	-11.4881
▁接受	-11.4881
皇家	-11.4881
不见了	-11.4882
跟我一起	-11.4882
▁运用	-11.4882
遇到过	-11.4883
钞票	-11.4883
▁接着我们	-11.4883
▁X	-11.4885
的飞行	-11.4885
围着	-11.4885
不会被	-11.4886
该怎么办	-11.4887
愿景	-11.4887
之处在于	-11.4888
植被	-11.4888
这个建筑	-11.4889
在它们	-11.4892
这种做法	-11.4892
百分之二十	-11.4893
这些产品	-11.4893
长大后	-11.4895
野外	-11.4895
的革命	-11.4896
读取	-11.4897
死者	-11.4897
每个国家	-11.4898
▁因此他们	-11.4901
▁它们有	-11.4901
即是	-11.4903
要如何	-11.4903
亚特兰大	-11.4904
往往是	-11.4906
尔曼	-11.4906
▁带来	-11.491
很好的例子	-11.4912
那些有	-11.4913
加入我们	-11.4913
可以达到	-11.4914
▁会有	-11.4914
是种	-11.4916
岁那年	-11.4917
▁联合国	-11.4918
付给	-11.4918
是至关重要的	-11.4919
一棵树	-11.4919
自然资源	-11.4921
就不再	-11.4921
现存的	-11.4922
再回到	-11.4923
非常低	-11.4923
漫画家	-11.4925
越来越大	-11.4926
在华盛顿	-11.4927
切除	-11.4929
女孩儿	-11.4929
身体上	-11.493
也有很多	-11.4931
他还	-11.4932
家庭成员	-11.4932
用同样的	-11.4932
▁于是她	-11.4933
无论如何	-11.4935
一种叫	-11.4936
同一种	-11.4939
的思考	-11.494
一顿	-11.4941
出生时	-11.4942
跳动	-11.4944
的部落	-11.4944
州长	-11.4946
▁你们看	-11.4946
创立了	-11.4947
等待着	-11.495
涵盖	-11.495
被使用	-11.4953
回答道	-11.4953
活跃的	-11.4953
妇女们	-11.4954
▁这个方法	-11.4956
立体	-11.4956
可以去	-11.4957
可乐	-11.4958
▁所以它们	-11.4959
绝不	-11.4963
才发现	-11.4963
互	-11.4963
从那里	-11.4964
▁因为当你	-11.4964
要好	-11.4965
如果有人	-11.4968
的一名	-11.4969
▁大量的	-11.4969
我找到了	-11.497
召集	-11.4972
▁他们从	-11.4976
▁从我	-11.4976
不是说	-11.4978
▁在某种程度上	-11.498
▁我才	-11.4981
丧失了	-11.4982
这个国家的	-11.4983
这个模式	-11.4984
没那么	-11.4986
▁让它们	-11.4986
这时	-11.4987
▁保罗	-11.4989
▁能够在	-11.499
▁假设你	-11.4991
嫁	-11.4992
一串	-11.4995
▁如果你看看	-11.4995
话说	-11.4996
中的一部分	-11.5
停留	-11.5
这个新	-11.5002
▁女士们先生们	-11.5007
我们该	-11.5007
唯一能	-11.5009
爱好	-11.5009
他们还	-11.5012
马上就	-11.5014
每一种	-11.5015
这段时间	-11.5016
▁沿着	-11.5016
相互联系	-11.5016
ca	-11.5018
画作	-11.5018
社会性	-11.502
▁另一个是	-11.502
▁以上	-11.502
谈过	-11.5021
我们这里	-11.5022
是唯一一个	-11.5023
成长的	-11.5023
土地上	-11.5023
件事	-11.5025
一人	-11.5026
不同类型的	-11.5027
没用	-11.5029
来改变	-11.5029
的领导	-11.503
遭	-11.5032
▁电子	-11.5033
买的	-11.5033
在所有	-11.5033
▁本质上	-11.5034
渗透	-11.5035
的使命	-11.5036
的博客	-11.5036
利用它	-11.5036
▁警察	-11.5037
在尼日利亚	-11.5037
的鼻子	-11.5037
你是不是	-11.5042
比这	-11.5043
世界和平	-11.5044
和一些	-11.5044
这个机器	-11.5044
的运行	-11.5045
六千	-11.5046
要求他们	-11.5046
搜索结果	-11.5047
部分是	-11.5048
▁实际	-11.5049
难度	-11.505
的路线	-11.505
更复杂	-11.5051
年级	-11.5051
▁于是我开始	-11.5052
能成为	-11.5054
一位女士	-11.5056
▁问题在于	-11.5057
的影像	-11.5057
共同点	-11.5057
▁这种方法	-11.5058
纹	-11.5058
▁最好	-11.5059
▁很难	-11.5059
会给你	-11.5062
这个机会	-11.5063
▁但我也	-11.5064
圣诞节	-11.5066
十八	-11.5067
▁现在让我们	-11.5067
处方	-11.5068
我正	-11.5068
有这样一个	-11.5068
ell	-11.5071
是安全的	-11.5072
一瓶	-11.5073
会增加	-11.5077
▁嗨	-11.5082
主角	-11.5082
在医院	-11.5082
▁别人	-11.5084
就好	-11.5084
雌	-11.5087
▁显示	-11.5087
开启了	-11.509
灌输	-11.509
敬畏	-11.5091
它们可以	-11.5093
年左右	-11.5096
▁他已经	-11.5097
共产主义	-11.5098
▁我们再	-11.5099
人道	-11.51
▁整整	-11.51
对社会	-11.51
常态	-11.5101
电脑上	-11.5103
再也不	-11.5104
久远	-11.5105
就如同	-11.5106
之人	-11.5106
▁这是一只	-11.5107
所有东西	-11.5107
还不是	-11.5107
盆	-11.5109
学业	-11.5113
悬	-11.5114
我们却	-11.5114
微观	-11.5115
正要	-11.5115
作为人类	-11.5116
平和	-11.5116
一杯	-11.5116
预见	-11.5117
争	-11.5117
罩	-11.512
纽	-11.5121
角落里	-11.5121
刊	-11.5122
鹅	-11.5122
债务	-11.5123
灭	-11.5123
腹	-11.5123
急剧	-11.5124
唤起	-11.5124
都会被	-11.5124
祝	-11.5124
洒	-11.5124
─	-11.5124
骂	-11.5124
倡议	-11.5124
Michael	-11.5124
牡蛎	-11.5124
友谊	-11.5124
古兰经	-11.5124
袋獾	-11.5124
匈牙利	-11.5124
联络	-11.5124
阿拉斯加	-11.5124
惯例	-11.5124
雏形	-11.5124
抵消	-11.5124
保卫	-11.5124
筹款	-11.5124
范例	-11.5124
急诊室	-11.5124
终止	-11.5125
出版社	-11.5125
修补	-11.5125
开阔	-11.5125
简历	-11.5125
刻意	-11.5125
参照	-11.5125
推理	-11.5125
市旗	-11.5125
查理	-11.5126
百分之百	-11.5126
参数	-11.5126
相似之处	-11.5126
弄清	-11.5127
驾驶员	-11.5127
年之久	-11.5127
种族灭绝	-11.5127
救护车	-11.5127
注射器	-11.5127
第四个	-11.5127
洛克	-11.5128
原子弹	-11.5128
奖金	-11.5128
来帮助	-11.5128
更糟糕	-11.5129
孤儿院	-11.5129
慈善机构	-11.5129
还好	-11.5129
三件事	-11.5129
如果你有	-11.513
光芒	-11.513
第三方	-11.513
发现它	-11.513
不是什么	-11.5133
质子	-11.5133
art	-11.5133
抛开	-11.5134
▁大家可以	-11.5135
▁这都	-11.5135
会影响	-11.5136
乐于	-11.514
美德	-11.514
的标签	-11.5142
连接体	-11.5142
谈起	-11.5143
会继续	-11.5143
打动	-11.5145
教书	-11.5145
海岸线	-11.5145
很成功	-11.5149
挫折	-11.5149
非洲大陆	-11.5149
扭转	-11.5149
的家园	-11.515
▁只需	-11.515
▁大家可以看到	-11.5151
高温	-11.5152
留下来	-11.5152
四百	-11.5153
家庭的	-11.5154
警察局	-11.5155
清洗	-11.5156
听力	-11.5159
村子里	-11.5159
州的	-11.516
也有一些	-11.516
辍学	-11.5161
花生	-11.5161
医疗服务	-11.5162
▁因为那是	-11.5163
足够多的	-11.5167
▁常常	-11.5167
▁而且它们	-11.5167
一所学校	-11.5168
怎么做呢	-11.5169
我们不是	-11.5172
很特别	-11.5173
自己的生活	-11.5173
热点	-11.5174
小时内	-11.5176
最难	-11.5178
你想要的	-11.5179
▁到目前为止	-11.5179
集会	-11.518
所做的事情	-11.5181
小东西	-11.5181
会是什么样子	-11.5182
▁我试着	-11.5182
搞明白	-11.5182
运动中	-11.5183
的美丽	-11.5183
单一的	-11.5185
带你们	-11.5185
反正	-11.5187
我的学生	-11.5188
杰出	-11.5188
今天我要	-11.519
另一项	-11.5191
距	-11.5191
▁真	-11.5191
研究这些	-11.5193
这个女孩	-11.5196
可不	-11.5196
我为	-11.5198
大家一起	-11.5198
很自然	-11.52
筛选	-11.5201
成为现实	-11.5201
▁这是我在	-11.5202
带回家	-11.5204
写过	-11.5205
▁结果发现	-11.5205
疼	-11.5206
完全不知道	-11.5207
如何看待	-11.521
非常糟糕	-11.521
几千年	-11.521
有大约	-11.5211
▁试想一下	-11.5213
先知	-11.5213
应有的	-11.5215
自己的故事	-11.5216
▁我们可以通过	-11.5216
我不认为	-11.5217
来衡量	-11.5217
的增加	-11.5218
有毒	-11.5218
加仑	-11.522
暴力事件	-11.5221
建筑学	-11.5223
来创造	-11.5224
山上	-11.5224
落下	-11.5224
继续下去	-11.5226
世人	-11.5229
不足以	-11.523
埃及人	-11.523
相对于	-11.5231
他们的父母	-11.5232
▁我们可以把	-11.5232
在某个	-11.5232
流动性	-11.5235
每次都	-11.5236
楼房	-11.5237
能带来	-11.5238
的迹象	-11.5238
本应该	-11.5239
这世界	-11.5239
激起	-11.5239
不可避免的	-11.5245
看成是	-11.5245
▁D	-11.5246
被动	-11.5246
必需	-11.5248
肖像	-11.5249
某种程度上	-11.5251
▁因为当	-11.5252
第二大	-11.5255
那份	-11.5255
随机的	-11.5255
硅	-11.5256
有没有可能	-11.5261
写信	-11.5261
红酒	-11.5263
有名的	-11.5263
▁下面是	-11.5263
会感到	-11.5264
是根据	-11.5266
似乎是	-11.5269
的大门	-11.5271
▁而我认为	-11.5273
我们的目标	-11.5275
找到答案	-11.5276
一整个	-11.5276
资	-11.5277
多余的	-11.5277
▁如果你想要	-11.5278
的阶段	-11.5279
我跟	-11.5279
冻	-11.5279
很可能会	-11.528
发生着	-11.5281
为基础	-11.5282
对环境	-11.5282
所做的事	-11.5282
糖果	-11.5284
一个完整的	-11.5287
Lo	-11.5289
容纳	-11.5289
▁你们中	-11.5291
一个名叫	-11.5292
就行	-11.5293
岩洞	-11.5293
▁我们把它	-11.5295
救了	-11.5296
两岁	-11.5297
▁如果他	-11.5298
的每一	-11.5298
来思考	-11.5299
海域	-11.5302
如何将	-11.5303
▁老师	-11.5303
怎样做	-11.5304
各地	-11.5306
▁你也许会	-11.5309
继承	-11.531
这个软件	-11.5313
对他人	-11.5314
▁而这种	-11.5314
正处于	-11.5315
的模样	-11.5315
户外	-11.5318
性生活	-11.5319
沼泽	-11.532
的习惯	-11.5321
的主人	-11.5321
▁艾瑞克	-11.5322
的领导者	-11.5322
▁这确实	-11.5324
比以前	-11.5325
推向	-11.5325
我们可能	-11.5328
▁这已经	-11.5328
▁我是一名	-11.533
的瞬间	-11.5332
并不重要	-11.5334
我们怎样	-11.5335
我做了	-11.5335
▁既	-11.5337
▁而且在	-11.5337
一种全新的	-11.5337
▁应该是	-11.5337
▁除非你	-11.5339
可真	-11.534
讽刺的是	-11.5341
的词汇	-11.5342
这一类	-11.5345
的危机	-11.5345
▁你会得到	-11.5345
你们知道吗	-11.5346
工作机会	-11.5349
都存在	-11.535
▁右边的	-11.535
商业模式	-11.5351
的灵魂	-11.5351
▁对我们来说	-11.5353
▁在座的	-11.5355
赚了	-11.5356
一些数据	-11.5357
创造一种	-11.5357
这个时代	-11.536
的影响力	-11.536
壮	-11.5361
▁某些	-11.5362
最好的朋友	-11.5364
泵	-11.5365
的信	-11.5365
▁如果你去	-11.5367
功	-11.5367
装了	-11.5367
开始考虑	-11.5368
控制了	-11.5369
▁相对于	-11.5371
环境里	-11.5375
▁大概有	-11.5376
可以想象	-11.5377
烦	-11.5377
这些知识	-11.5377
说服了	-11.5377
我的研究	-11.5378
见到的	-11.5379
访	-11.5379
头痛	-11.5379
非常漂亮	-11.538
重的	-11.5381
有个问题	-11.5382
大多数人都	-11.5382
哭了	-11.5383
的老板	-11.5384
目标是	-11.5384
▁我们通常	-11.5385
所有其他	-11.5386
坏的	-11.5386
也包括	-11.5387
只不过	-11.5387
总能	-11.5389
纵	-11.539
前沿	-11.5391
没有太多	-11.5391
优点	-11.5392
▁这很	-11.5393
隐	-11.5394
成立了一个	-11.5394
纸上	-11.5395
▁譬如	-11.5395
样子	-11.5396
步入	-11.5397
不是这样	-11.5398
▁如果人们	-11.5399
磅的	-11.5399
▁而且也	-11.5401
▁这将是	-11.5401
猿	-11.5402
无能为力	-11.5402
不出来	-11.5402
注视	-11.5403
勤	-11.5403
魔	-11.5406
肌	-11.5407
加剧	-11.5407
闲	-11.5408
圣诞	-11.5408
给别人	-11.5408
匠	-11.5409
王国	-11.5409
降雨	-11.5409
莫扎特	-11.541
回馈	-11.541
狩猎	-11.541
胰岛素	-11.541
核磁共振	-11.541
怜悯	-11.541
史密斯	-11.541
恤	-11.541
双胞胎	-11.541
可兰经	-11.541
基里巴斯	-11.541
憎恨	-11.541
荣耀	-11.541
杀戮	-11.541
祷告	-11.541
▁换言之	-11.541
失聪	-11.541
珍惜	-11.541
路易斯	-11.541
恰巧	-11.541
悬浮	-11.541
摇晃	-11.541
渴求	-11.541
威尼斯	-11.541
洗澡	-11.541
评判	-11.541
灰尘	-11.541
消防员	-11.541
Robert	-11.541
火焰	-11.541
达拉斯	-11.541
虚假	-11.541
老爸	-11.5411
周遭	-11.5411
香烟	-11.5411
左侧	-11.5411
东欧	-11.5411
环形	-11.5411
失落	-11.5411
达成一致	-11.5411
光纤	-11.5412
散布	-11.5412
旗子	-11.5412
驾车	-11.5412
首相	-11.5412
空洞	-11.5413
波兰	-11.5413
他能	-11.5413
解码	-11.5413
▁而这就是	-11.5413
室外	-11.5414
团结起来	-11.5414
条款	-11.5414
怎样才能	-11.5414
基层	-11.5414
意料	-11.5414
金星	-11.5414
我的孩子	-11.5414
同感	-11.5415
发生时	-11.5415
开办	-11.5415
珊瑚虫	-11.5415
洗手	-11.5415
环境保护	-11.5415
三点	-11.5415
深信	-11.5416
吸取	-11.5416
表面的	-11.5416
原材料	-11.5417
为基础的	-11.5417
课本	-11.5417
触发	-11.5417
拯救了	-11.5418
光滑	-11.5419
▁在这种	-11.5419
药片	-11.5419
迈向	-11.5419
接种	-11.542
的复杂	-11.542
我们使用	-11.5421
有力的	-11.5421
自己也	-11.5422
还挺	-11.5422
博士学位	-11.5423
把戏	-11.5423
能够通过	-11.5423
要开始	-11.5424
香水	-11.5424
▁无	-11.5426
长长的	-11.5426
都是为了	-11.5426
宇宙飞船	-11.5427
,「	-11.5428
▁为了让	-11.5429
稀有	-11.543
成了一个	-11.5432
▁提高	-11.5432
的教学	-11.5433
多人	-11.5434
指数增长	-11.5435
讲解	-11.5435
英尺高	-11.5436
激进的	-11.5437
做到这点	-11.5438
剑桥	-11.5438
▁我认识	-11.544
苹果公司	-11.544
卓越	-11.544
偏好	-11.5441
痛苦的	-11.5445
手腕	-11.5445
这样子	-11.5446
窗外	-11.5446
▁过了	-11.5449
这栋建筑	-11.5449
地板上	-11.545
▁第二点	-11.5451
是存在的	-11.5452
在思考	-11.5456
晶体	-11.5458
住的	-11.5458
▁语言	-11.5459
现在有	-11.5459
非常快	-11.546
赞成	-11.5461
的基础设施	-11.5461
同样的事情	-11.5461
既有	-11.5465
耶路撒冷	-11.5465
做出决定	-11.5468
▁比我们	-11.5469
我的办公室	-11.5471
所得	-11.5474
的最好	-11.5475
说的那样	-11.5476
nd	-11.5478
▁我们不仅	-11.5479
▁它就是	-11.5482
▁总的来说	-11.5482
也可能是	-11.5484
与此同时	-11.5486
模糊的	-11.5487
▁我很喜欢	-11.5487
▁我将要	-11.5488
景色	-11.5488
这个作品	-11.5491
他们知道	-11.5491
将会成为	-11.5491
中等	-11.5492
造型	-11.5492
▁我尝试	-11.5493
的图表	-11.5493
成熟的	-11.5496
ut	-11.5496
有很好的	-11.5498
深奥	-11.5498
问题所在	-11.5498
看着它	-11.5499
初始	-11.5499
上看到	-11.5501
我们还在	-11.5502
海洋里	-11.5503
最古老的	-11.5503
从这个	-11.5503
的主	-11.5504
关系到	-11.5504
非常不同的	-11.5505
在同一个	-11.5509
一项研究	-11.5511
▁此	-11.5512
以色列人	-11.5512
火星上	-11.5513
▁就像你	-11.5514
▁致力于	-11.5516
▁第	-11.5518
卡特	-11.552
保持着	-11.5521
肉类	-11.5521
能够将	-11.5523
也许可以	-11.5523
牢	-11.5523
和他们的	-11.5524
运到	-11.5524
我们所说的	-11.5525
是世界上最	-11.5526
迅速地	-11.5527
单个	-11.5528
这整个	-11.5528
更换	-11.553
在巴黎	-11.553
新世界	-11.5531
▁我们当时	-11.5533
正是我们	-11.5533
▁而她	-11.5534
光了	-11.5534
稍后	-11.5535
将被	-11.5535
他的名字	-11.5539
来找我	-11.554
在将来	-11.5542
隐喻	-11.5543
的狗	-11.5543
冷战	-11.5544
加入到	-11.5544
很难想象	-11.5547
▁这就是为什么我们	-11.5548
的计算机	-11.5548
很可爱	-11.5548
▁我的朋友	-11.555
不同的事情	-11.555
把事情	-11.5551
脑袋里	-11.5552
成百上千的	-11.5553
大部分时间	-11.5554
进行研究	-11.5556
▁我要说	-11.5556
最严重的	-11.5557
我只能	-11.5559
古典音乐	-11.5559
▁专门	-11.5559
你看到的是	-11.5559
om	-11.5562
▁而是一个	-11.5562
化身	-11.5565
采用了	-11.5565
事实上是	-11.5566
在全球范围内	-11.5566
演讲的	-11.5566
跳过	-11.5568
▁如果它们	-11.5568
在芝加哥	-11.5569
▁我们经常	-11.5569
这是你	-11.5571
闻到	-11.5571
来过	-11.5572
几百个	-11.5574
我们一起	-11.5575
一个机器人	-11.5576
▁我们人类	-11.5577
▁他用	-11.5578
关上	-11.558
实在太	-11.558
本土	-11.5583
▁然后我们就	-11.5583
怎么回事	-11.5584
不住	-11.5584
▁告诉他们	-11.5587
的脚	-11.5587
▁那你就	-11.5588
▁民主	-11.5588
与那些	-11.5588
正在发生的	-11.559
很想	-11.5591
会更	-11.5594
另一端	-11.5595
要将	-11.5595
生活在一起	-11.5599
大于	-11.5601
开展了	-11.5601
占用	-11.5601
我打算	-11.5601
ry	-11.5602
▁对于我们	-11.5603
▁你一定	-11.5604
▁我们生活在一个	-11.5604
坦	-11.5605
西方人	-11.5606
开始时	-11.5609
百万美元	-11.5609
非常不同	-11.561
自然地	-11.5611
但是我们	-11.5611
九个月	-11.5612
▁这些数据	-11.5612
树叶	-11.5613
对外	-11.5614
很多其他	-11.5616
常说	-11.5619
用处	-11.5619
是那种	-11.5619
我爱你	-11.562
结婚了	-11.5621
的第一天	-11.5622
的电力	-11.5623
观众们	-11.5624
▁但最终	-11.5631
谈到了	-11.5632
▁因为我想	-11.5632
感性	-11.5635
的后代	-11.5635
脊髓灰质炎	-11.5635
应该有	-11.5635
对他们说	-11.5636
变动	-11.5639
去问	-11.5639
其中之一	-11.5641
▁他可以	-11.5642
▁没有什么	-11.5642
▁即便是	-11.5644
良	-11.5645
▁我觉得我	-11.5647
年时	-11.5649
用我的	-11.565
覆盖了	-11.565
严格的	-11.5651
殖民	-11.5651
实验中	-11.5652
Dan	-11.5655
乳	-11.5656
在黑暗中	-11.5656
造就	-11.5657
▁他们可能	-11.5658
来研究	-11.5658
需要花费	-11.5658
上升到	-11.5661
要点	-11.5661
Ed	-11.5661
附着	-11.5662
资格	-11.5662
的其中一个	-11.5664
▁这听起来	-11.5664
▁当地	-11.5664
其他事情	-11.5664
目睹了	-11.5666
进口	-11.5667
踏上	-11.5667
分形	-11.5668
性地	-11.5669
把它变成	-11.567
的那些人	-11.5671
航天	-11.5672
颇	-11.5672
终点	-11.5674
这真是	-11.5675
这样的例子	-11.5675
魔力	-11.5675
看起来像是	-11.5676
装在	-11.5676
希望你们	-11.5677
功能性	-11.5677
仅有的	-11.5678
做过的	-11.568
保护自己	-11.5681
▁我是在	-11.5682
一篇文章	-11.5682
使它们	-11.5683
它就是	-11.5685
问题在于	-11.5685
最佳的	-11.5686
很近	-11.5686
撑	-11.5689
一滴	-11.569
都曾	-11.569
很遗憾	-11.5691
所学校	-11.5691
渔	-11.5692
技	-11.5692
过时的	-11.5693
扇	-11.5694
用它们	-11.5694
我就想	-11.5694
▁而实际上	-11.5696
的工作方式	-11.5697
彩票	-11.5697
年之前	-11.5698
复苏	-11.5698
车道	-11.5698
志愿	-11.5699
棉	-11.5699
荣	-11.5699
摄像	-11.5699
炉	-11.57
织	-11.57
证据表明	-11.57
的自我	-11.57
坚	-11.57
ot	-11.5701
箭	-11.5701
册	-11.5701
宫	-11.5701
怒	-11.5701
俗	-11.5701
我们该如何	-11.5701
琴	-11.5701
这些作品	-11.5701
全部的	-11.5702
重返	-11.5702
灌	-11.5703
瘤	-11.5703
我们可以通过	-11.5703
顺便	-11.5704
个国家的	-11.5704
杰夫	-11.5704
瞎	-11.5704
津巴布韦	-11.5704
严谨	-11.5704
华盛顿特区	-11.5704
混淆	-11.5704
视而不见	-11.5704
纠结	-11.5704
驾驭	-11.5704
剥削	-11.5704
弥补	-11.5704
巢穴	-11.5704
小儿麻痹症	-11.5704
构架	-11.5704
礼貌	-11.5704
嗅觉	-11.5704
忍不住	-11.5704
妓女	-11.5704
螺旋桨	-11.5704
截肢	-11.5704
任何人都可以	-11.5704
标示	-11.5704
误导	-11.5704
政党	-11.5704
皮革	-11.5704
野蛮	-11.5704
权益	-11.5704
布莱恩	-11.5705
林冠	-11.5705
终身	-11.5705
耗尽	-11.5705
爬行	-11.5705
随着时间的推移	-11.5705
散播	-11.5705
奶牛	-11.5705
这笔钱	-11.5705
固体	-11.5706
的一份子	-11.5706
着眼于	-11.5706
▁那为什么	-11.5706
竞争对手	-11.5706
瓦解	-11.5706
眼泪	-11.5706
陈旧	-11.5706
西藏	-11.5706
菜单	-11.5706
性别平等	-11.5707
建了	-11.5707
的眼光	-11.5707
站立	-11.5707
偶像	-11.5708
束	-11.5708
金融危机	-11.5708
确切的	-11.5708
表层	-11.5709
实力	-11.5709
罪恶	-11.571
发短信	-11.571
仁爱	-11.571
双重	-11.571
获胜	-11.571
历史学家	-11.5711
气象	-11.5711
纳入	-11.5711
识	-11.5711
正准备	-11.5711
海浪	-11.5711
毛发	-11.5712
拆除	-11.5712
明智	-11.5712
没人会	-11.5713
冰盖	-11.5713
声波	-11.5713
将有	-11.5714
▁我听到	-11.5714
不良	-11.5715
▁全部	-11.5716
控制的	-11.5717
OK	-11.5717
背包	-11.572
教条	-11.572
临床实验	-11.572
和我们一起	-11.5721
▁你从	-11.5721
▁请记住	-11.5721
推翻	-11.5722
分钟的	-11.5722
原始细胞	-11.5723
之类的东西	-11.5724
生物燃料	-11.5726
电视剧	-11.5727
生死	-11.5727
有帮助	-11.5727
的媒体	-11.5727
实地	-11.5727
▁我们还可以	-11.5728
波长	-11.5729
不仅可以	-11.573
心跳	-11.573
她是个	-11.5732
在肯尼亚	-11.5732
摆动	-11.5733
出身	-11.5733
实质上	-11.5735
政府部门	-11.5737
▁昨天	-11.5738
之前就	-11.5738
所做的一切	-11.5739
的想象力	-11.5739
然后你	-11.5741
广泛的	-11.5742
请看	-11.5743
这一事实	-11.5743
通向	-11.5744
成品	-11.5744
Sh	-11.5745
杀人	-11.5745
这个模型	-11.5745
给你们讲	-11.5746
否	-11.5746
▁你要知道	-11.5747
气候危机	-11.5747
该怎么	-11.5749
▁到处都是	-11.5749
另一件事	-11.5749
在实验室	-11.575
想做的	-11.5751
你不必	-11.5751
一段视频	-11.5753
活性	-11.5753
恋	-11.5754
都是关于	-11.5754
▁我们都是	-11.5756
▁我就是	-11.5758
一开始就	-11.5758
社会学家	-11.5759
有关系	-11.5759
有各种各样的	-11.5759
还原	-11.576
关键是	-11.5761
封面	-11.5761
岁生日	-11.5761
的老	-11.5762
切开	-11.5763
这里有一个	-11.5765
▁石油	-11.5766
手掌	-11.5766
再看	-11.5767
粉丝	-11.5768
有所不同	-11.5768
一整套	-11.5768
别的地方	-11.5768
的副作用	-11.5768
当她	-11.577
路德	-11.5771
这两者	-11.5772
外套	-11.5776
一秒钟	-11.5777
用他们的	-11.5777
关键在于	-11.5778
的世界中	-11.578
David	-11.5781
捐	-11.5781
sa	-11.5782
的事儿	-11.5782
这将	-11.5783
▁我个人	-11.5783
活生生的	-11.5784
是另一个	-11.5786
我的第一个	-11.5787
我们拥有	-11.5787
有影响	-11.5788
有一件事	-11.5788
轮到	-11.5788
来设计	-11.5788
的器官	-11.5789
▁一件	-11.579
经常会	-11.579
▁所以她	-11.579
▁发现了	-11.579
▁但事实是	-11.579
有一半	-11.5791
这部	-11.5792
学到了什么	-11.5793
约有	-11.5793
生物技术	-11.5794
告诉自己	-11.5794
▁主持人	-11.5795
的视野	-11.5797
并不是一个	-11.5798
我们生活的	-11.5803
我的确	-11.5803
百分比	-11.5804
的尸体	-11.5804
域	-11.5806
提供了一个	-11.5806
▁数学	-11.5808
▁它已经	-11.5809
悲观	-11.5809
不能用	-11.5809
▁我们尝试	-11.5809
的头脑	-11.581
其实不是	-11.5813
这些话	-11.5814
选票	-11.5815
高的	-11.5816
无线网络	-11.5819
不能被	-11.582
而死	-11.582
从未见过	-11.5822
▁于是我决定	-11.5822
▁大约有	-11.5824
这么一个	-11.5824
残疾人	-11.5824
一次性	-11.5824
提过	-11.5824
假如你	-11.5825
已经从	-11.5825
治疗癌症	-11.5827
我想到	-11.5827
知道怎么	-11.5829
给孩子	-11.583
不完美	-11.583
细微的	-11.583
装上	-11.5831
▁让我们从	-11.5834
一圈	-11.5834
我已	-11.5834
任何一种	-11.5841
一些事	-11.5843
周围环境	-11.5845
加了	-11.5846
▁他们必须	-11.5846
不属于	-11.5846
少量的	-11.5847
纸片	-11.5847
和科技	-11.5848
的体系	-11.5849
的脑袋	-11.585
▁一旦我们	-11.585
喜欢它	-11.5851
十五	-11.5852
▁我有个	-11.5852
仅仅只是	-11.5852
谋生	-11.5854
电动	-11.5854
能为	-11.5854
IM	-11.5855
想了解	-11.5857
这样的想法	-11.5858
两年后	-11.5859
在这个过程中	-11.586
的轨迹	-11.5861
我经常	-11.5861
展示一下	-11.5862
的男孩	-11.5862
▁现在已经	-11.5863
情景	-11.5863
▁所以你们	-11.5864
可持续发展的	-11.5865
感兴趣的	-11.5865
▁不知道	-11.5865
ton	-11.5867
孟加拉	-11.5867
处境	-11.5868
你无法	-11.5868
缺失	-11.5869
现实的	-11.587
差点	-11.5871
▁并让	-11.5872
也必须	-11.5873
我真	-11.5876
ow	-11.5877
真的有	-11.5877
写在	-11.5878
并不像	-11.5878
高等教育	-11.5879
我的心	-11.588
迹象	-11.5881
▁因为我知道	-11.5882
的神经	-11.5883
▁等等	-11.5883
开口	-11.5885
这个程序	-11.5886
的影子	-11.5886
遥控器	-11.5887
相应	-11.5888
▁是那些	-11.589
研究显示	-11.5891
社	-11.5891
驱动的	-11.5894
▁我们可以从	-11.5896
找到了一个	-11.5896
和技术	-11.5898
八十	-11.59
给我们的	-11.5901
的美	-11.5901
露天	-11.5902
了解他们	-11.5902
很美	-11.5903
有人会	-11.5904
▁这真的	-11.5906
试图去	-11.5908
和经济	-11.5909
它看起来	-11.591
甚至还	-11.5911
怎么去	-11.5912
的一小部分	-11.5912
▁从那时起	-11.5913
全世界都	-11.5913
▁而不仅仅是	-11.5915
▁这可不是	-11.5917
的姿势	-11.5917
▁出现在	-11.5917
的一个小	-11.5918
道德的	-11.5918
▁我只是想	-11.5919
不需	-11.592
想象中的	-11.5922
▁我们与	-11.5924
你从	-11.5926
贫穷的	-11.5927
适当	-11.5927
已经改变了	-11.5927
每个人都能	-11.593
荒	-11.593
一排	-11.5933
去学校	-11.5936
就能看到	-11.5937
ak	-11.5937
展品	-11.5937
提供一个	-11.5937
活得	-11.5939
的企业	-11.5939
你们应该	-11.5939
改变它	-11.5943
暖	-11.5945
三百万	-11.5947
捕捉到	-11.5947
认真的	-11.5947
触	-11.5948
临	-11.5948
频	-11.5948
按下	-11.5949
忍	-11.595
写成	-11.5953
人们开始	-11.5955
的睡眠	-11.5955
对于一个	-11.5955
我称之为	-11.5957
逆转	-11.5958
列出	-11.5961
与他	-11.5961
他们的想法	-11.5962
格子	-11.5965
行得通	-11.5967
肚子	-11.5967
甚至不知道	-11.597
被邀请	-11.5971
溜	-11.5971
▁我确信	-11.5972
心想	-11.5973
奇特的	-11.5973
有一点点	-11.5973
▁采用	-11.5974
来参加	-11.5974
抽象的	-11.5974
违法	-11.5974
数年	-11.5975
内部的	-11.5978
他可以	-11.5979
夫妻	-11.5979
犬	-11.5979
沟	-11.598
▁但是实际上	-11.598
▁每周	-11.5981
的平方	-11.5981
跌	-11.5981
升起	-11.5982
大道	-11.5982
联系到	-11.5983
这个事情	-11.5984
那不是	-11.5984
不会是	-11.5984
的测试	-11.5987
诉说	-11.5987
一个实验	-11.5989
捉	-11.599
她自己	-11.5993
深受	-11.5993
▁每次我	-11.5993
很明显的	-11.5994
都只是	-11.5994
搜	-11.5996
协同	-11.5997
一种方式	-11.5997
就需要	-11.5998
柔	-11.5998
灾	-11.6002
隆	-11.6002
▁那么我们就	-11.6002
瘾君子	-11.6003
有些地方	-11.6003
伙计	-11.6003
瓜	-11.6003
的立场	-11.6004
账	-11.6004
认为它	-11.6004
鳍	-11.6004
迁	-11.6004
臭	-11.6004
做成了	-11.6005
浓	-11.6005
豪	-11.6005
铝	-11.6005
厌	-11.6006
芽	-11.6006
斜	-11.6006
氮	-11.6006
蠢	-11.6006
菌丝	-11.6007
前列腺癌	-11.6007
蛙	-11.6007
伊丽莎白	-11.6007
演绎	-11.6007
贿赂	-11.6007
Youtube	-11.6007
委内瑞拉	-11.6007
达赖喇嘛	-11.6007
SETI	-11.6007
翻车鱼	-11.6007
数以百万计的	-11.6007
荒唐	-11.6007
字符	-11.6007
冷漠	-11.6007
浓缩	-11.6007
海绵	-11.6007
珠宝	-11.6007
争夺	-11.6007
攀登	-11.6007
辩护	-11.6007
答复	-11.6007
迷宫	-11.6007
刹车	-11.6008
宽容	-11.6008
加油站	-11.6008
幻象	-11.6008
局势	-11.6008
拼命	-11.6008
香味	-11.6008
急需	-11.6008
知识产权	-11.6008
初步	-11.6008
裙子	-11.6008
保守派	-11.6009
吉姆	-11.6009
四肢	-11.6009
现成的	-11.6009
哥本哈根	-11.6009
疯子	-11.6009
山谷	-11.601
排放量	-11.601
竹子	-11.601
西蒙	-11.601
晚期	-11.601
母语	-11.601
切换	-11.601
通话	-11.601
海运	-11.601
喝酒	-11.6011
进食	-11.6012
翻倍	-11.6013
电路板	-11.6013
老兵	-11.6014
揭开	-11.6014
流传	-11.6014
帮助那些	-11.6014
游动	-11.6015
发给	-11.6015
▁多么	-11.6015
回顾一下	-11.6016
那一	-11.6016
阻挡	-11.6018
最著名的	-11.6018
基础建设	-11.6019
别处	-11.6019
衍生	-11.602
的总	-11.6022
准备好了吗	-11.6023
开罗	-11.6024
这条线	-11.6025
增长率	-11.6025
再去	-11.6025
准备了	-11.6026
这种病毒	-11.6026
提一下	-11.6026
动员	-11.6026
的心脏	-11.6026
战后	-11.6028
走近	-11.6028
教我	-11.6029
国家地理	-11.603
▁如果你看	-11.6033
底线	-11.6033
▁听到	-11.6033
这些机器人	-11.6033
与生俱来的	-11.6034
▁世上	-11.6035
风力	-11.6035
利用了	-11.6035
巨人	-11.6036
继续前进	-11.6036
任何一个人	-11.6037
关心的	-11.6038
那段时间	-11.6039
远远超过	-11.6042
这一现象	-11.6042
▁人们对	-11.6043
中东地区	-11.6044
感冒	-11.6044
自我意识	-11.6045
尼亚	-11.6048
你真的	-11.6048
▁它们都是	-11.6048
无意识	-11.6048
我的孩子们	-11.6048
与世界	-11.6049
我觉得我	-11.6049
▁看看这个	-11.6049
少数人	-11.605
▁我们还有	-11.6051
给予了	-11.6051
▁对吗	-11.6051
后台	-11.6052
遇上	-11.6053
视线	-11.6053
能够改变	-11.6053
▁这里有个	-11.6057
控制它	-11.6057
其他领域	-11.6057
上层	-11.6058
那些没有	-11.6058
所使用的	-11.606
的启发	-11.6061
严重的问题	-11.6063
做很多	-11.6063
回答说	-11.6064
我们所有的	-11.6065
做生意	-11.6067
▁相信我	-11.6068
▁而且他	-11.6071
法国人	-11.6072
经济体系	-11.6072
同类	-11.6072
仔细看	-11.6073
躲在	-11.6074
JC	-11.6074
百分之三十	-11.6074
▁从此	-11.6074
满是	-11.6074
纹身	-11.6075
局限于	-11.6075
把这种	-11.6075
多年的	-11.6075
我站在	-11.6076
想出了	-11.6077
▁剩下的	-11.6077
会场	-11.6078
跟你们说	-11.6079
▁因为我觉得	-11.6081
行进	-11.6081
结晶	-11.6082
可信	-11.6083
德拉	-11.6083
问题时	-11.6083
新型的	-11.6084
需要很多	-11.6085
泛	-11.6085
数量级	-11.6085
实际上就是	-11.6086
放在一个	-11.6087
讨论过	-11.6088
可以获得	-11.6089
认真地	-11.609
尼尔	-11.609
阴茎	-11.6091
需要有	-11.6092
变好	-11.6093
当然了	-11.6093
把东西	-11.6093
思想的	-11.6096
现在我	-11.6097
能产生	-11.6098
琼斯	-11.6098
让学生	-11.6099
此时此刻	-11.6099
士兵们	-11.6099
更早	-11.6099
对于那些	-11.6101
只要你	-11.6102
▁如果你要	-11.6102
来自世界各地的	-11.6103
游说	-11.6103
构成了	-11.6105
浓度	-11.6105
安全感	-11.6107
来观察	-11.6108
太小了	-11.6108
组成了	-11.6111
所有权	-11.6112
所有的东西	-11.6112
健康问题	-11.6113
艺术节	-11.6113
说实话	-11.6113
固定在	-11.6114
▁我指的是	-11.6114
▁那些在	-11.6114
的物理	-11.6115
到你	-11.6116
▁不如	-11.6117
▁这一切都	-11.6118
我知道你	-11.6118
被杀害	-11.6119
对他们来说	-11.6122
其他物种	-11.6122
▁这实际上是	-11.6122
如何运作	-11.6123
看我	-11.6123
的内心	-11.6124
专用	-11.6124
我和我的	-11.6125
给我们带来	-11.6126
中立	-11.6126
维尔	-11.6128
▁是对	-11.6129
▁那我们就	-11.6131
在我们身边	-11.6136
新发现	-11.6137
做任何事	-11.614
英镑	-11.614
生于	-11.6143
展示给	-11.6144
的三个	-11.6145
只知道	-11.6146
监狱里	-11.6147
口头	-11.6148
最先进的	-11.6149
的肿瘤	-11.615
数十年	-11.6151
为什么我	-11.6154
的蛋白质	-11.6154
我要把	-11.6156
▁我们一直在	-11.6156
如此之	-11.6157
圆点	-11.6157
▁在今天	-11.6159
前面的	-11.6161
状物	-11.6166
务	-11.6167
英亩	-11.6168
的进步	-11.6169
痕迹	-11.617
四个月	-11.617
▁避免	-11.617
灭绝了	-11.6171
然后就	-11.6172
▁病人	-11.6172
引发的	-11.6174
想要的东西	-11.6175
出现过	-11.6175
了超过	-11.6176
同意了	-11.6177
▁从中	-11.6177
却又	-11.6177
在很多	-11.6177
▁这些孩子	-11.6181
提炼	-11.6182
授予	-11.619
其他地区	-11.6191
到处都有	-11.6192
失效	-11.6194
▁使它	-11.6197
得更	-11.62
和教育	-11.6201
▁汽车	-11.6201
就会出现	-11.6203
对自己的	-11.6204
完全被	-11.6204
赞	-11.621
在埃及	-11.621
知道他	-11.6212
会给	-11.6213
便可以	-11.6214
▁这完全	-11.6216
骨骼肌	-11.6216
的规律	-11.6218
让她们	-11.6219
共和党	-11.6219
坐上	-11.622
判	-11.622
▁从那以后	-11.6222
一盘	-11.6226
也就是说	-11.6227
的训练	-11.6227
有创意	-11.6227
▁而事实上	-11.6229
说不	-11.6229
▁而它们	-11.623
其它地方	-11.623
我看到了	-11.623
要怎样	-11.623
的纸	-11.6232
而且是	-11.6232
经济危机	-11.6233
是可能的	-11.6234
扼杀	-11.6235
如何做	-11.6236
大家可以	-11.6237
每分钟	-11.6239
能够用	-11.624
立马	-11.6243
而被	-11.6244
▁第四	-11.6245
在右边	-11.6245
▁来解决	-11.6246
没有必要	-11.6248
就在这	-11.6249
右手	-11.625
即使在	-11.6251
▁那不是	-11.6254
不是这样的	-11.6255
建一个	-11.6256
▁传统	-11.6259
在做的	-11.6261
▁你对	-11.6262
可以直接	-11.6262
这个产品	-11.6262
做手术	-11.6263
领悟	-11.6265
不是因为	-11.6267
使用它们	-11.6268
生态学	-11.6269
的表达	-11.627
递	-11.6272
强大的力量	-11.6273
要做的就是	-11.6273
小麦	-11.6274
报酬	-11.6276
的栖息地	-11.6277
大事	-11.6277
▁男	-11.6279
你和我	-11.628
喜欢这个	-11.628
都来自于	-11.628
▁这正是我们	-11.628
的策略	-11.6281
助手	-11.6283
▁蜜蜂	-11.6284
本身就	-11.6284
点钟	-11.6285
家们	-11.6286
答	-11.6287
另一位	-11.6289
不带	-11.6291
征	-11.6299
到哪里	-11.6299
父母们	-11.63
那晚	-11.63
齿	-11.63
▁并开始	-11.63
部分原因是	-11.63
绑架	-11.6301
举一个例子	-11.6303
用来做	-11.6303
空军	-11.6303
▁再加上	-11.6304
的构造	-11.6304
的面孔	-11.6304
狱	-11.6304
很乐意	-11.6307
的工作人员	-11.6307
新鲜的	-11.6308
表现的	-11.6309
我们能做的	-11.6309
传说	-11.6311
你们会	-11.6311
人们说	-11.6313
迫切	-11.6313
▁再看	-11.6315
所有那些	-11.6316
的根本	-11.6316
周年	-11.6317
陷	-11.6317
缠	-11.6317
珍贵的	-11.6317
抗拒	-11.6318
瞄准	-11.6318
尿	-11.6319
肝	-11.6319
▁除非我们	-11.6319
导向	-11.6319
奴隶制	-11.632
平流层	-11.632
抵御	-11.632
蹲	-11.632
=	-11.632
捍卫	-11.632
犹豫	-11.632
哥白尼	-11.632
堕胎	-11.632
摒弃	-11.632
无辜的	-11.632
Alice	-11.632
垄断	-11.632
典范	-11.632
珍妮	-11.632
湖泊	-11.632
左上角	-11.632
闲置	-11.632
争辩	-11.632
异议	-11.632
抢劫	-11.632
造物主	-11.632
凭借	-11.632
麻木	-11.632
反驳	-11.632
查询	-11.632
审核	-11.632
薄膜	-11.632
交汇	-11.632
登录	-11.632
排泄物	-11.632
天主教	-11.632
助理	-11.632
忘掉	-11.632
废弃物	-11.6321
保姆	-11.6321
渺小	-11.6321
入狱	-11.6321
台湾	-11.6321
改编	-11.6321
潜水服	-11.6321
走出来	-11.6321
种族歧视	-11.6321
摆弄	-11.6322
替代品	-11.6322
把人	-11.6322
在旧金山	-11.6322
评分	-11.6323
局部	-11.6323
跟你们分享	-11.6323
▁如果我们把	-11.6323
怪物	-11.6323
绿色环保	-11.6323
民权运动	-11.6324
鲜花	-11.6324
电话号码	-11.6324
树立	-11.6325
馆长	-11.6325
的文字	-11.6325
直面	-11.6325
摄影机	-11.6326
▁你看到的	-11.6326
给你们看看	-11.6326
你不需要	-11.6326
全国各地	-11.6326
以某种方式	-11.6328
车站	-11.6328
相近	-11.6329
图景	-11.6329
是件好事	-11.633
公民社会	-11.633
冰块	-11.6331
候	-11.6331
监听	-11.6333
这件作品	-11.6333
我要去	-11.6333
忙于	-11.6333
全体	-11.6334
有所作为	-11.6335
家长们	-11.6335
突发	-11.6339
我们也知道	-11.634
血流	-11.6342
五分之一	-11.6342
更远	-11.6342
想做	-11.6343
▁用以	-11.6345
在左边	-11.6346
▁我其实	-11.6346
制的	-11.6347
的心灵	-11.6347
han	-11.6348
面对的	-11.6349
给我的	-11.6349
会计	-11.6352
令人兴奋的	-11.6353
La	-11.6354
却不是	-11.6354
当你看到	-11.6354
摆在	-11.6355
能想象	-11.6355
的光线	-11.6355
的鞋子	-11.6356
最困难的	-11.6357
过上	-11.6358
我们才能	-11.6358
长大了	-11.6358
根本就不	-11.6358
播出	-11.6359
最常见的	-11.6361
柔软	-11.6361
怎么才能	-11.6362
这些孩子们	-11.6362
会怎样呢	-11.6362
多远	-11.6363
▁再到	-11.6364
▁老实说	-11.6364
▁国际	-11.6365
经过了	-11.6365
▁那么为什么	-11.6365
开到	-11.6366
很差	-11.6366
配对	-11.6366
看他们	-11.6366
伐木	-11.6367
地下室	-11.6367
不熟悉	-11.6368
审美	-11.637
原谅	-11.6371
但是他们	-11.6371
▁代表	-11.6373
记录下来	-11.6373
▁现在它	-11.6374
我们常常	-11.6376
配偶	-11.6376
的原始	-11.6376
▁就像一个	-11.6376
虚拟的	-11.6376
紧密相连	-11.6377
我们通常	-11.6378
的平衡	-11.6378
的诗	-11.6379
▁是他们	-11.638
迈出	-11.6381
如何把	-11.6384
你如何	-11.6385
层楼	-11.6385
还真	-11.6386
改变我们的	-11.6386
拔	-11.6388
一秒	-11.6389
所做的就是	-11.6389
的方式是	-11.639
不要再	-11.6392
做研究	-11.6394
把整个	-11.6396
▁观察	-11.6396
vi	-11.6397
▁这是你	-11.6397
的诞生	-11.6398
的学习	-11.64
大会上	-11.6403
感受到了	-11.6404
学期	-11.6405
我想要的	-11.6408
给我看	-11.6409
这就是为什么	-11.641
可视	-11.6411
安全地	-11.6411
重心	-11.6412
他们能够	-11.6415
范畴	-11.6418
我们看到的是	-11.642
提醒我	-11.6421
收回	-11.6422
隔绝	-11.6423
被逮捕	-11.6424
这个节目	-11.6425
一英里	-11.6426
峰值	-11.6426
▁但是对于	-11.6427
▁第二种	-11.6428
它没有	-11.6431
一个充满	-11.6431
也会有	-11.6431
相信自己	-11.6431
市区	-11.6431
照相	-11.6432
▁当我们在	-11.6432
我问	-11.6432
▁史蒂夫	-11.6434
经受	-11.6434
这事儿	-11.6437
遗忘	-11.6439
新药	-11.644
▁如果在	-11.6441
精神上的	-11.6441
我只想	-11.6442
抓取	-11.6442
Pe	-11.6443
分化	-11.6443
收集数据	-11.6445
正在发生的事情	-11.6445
没有理由	-11.6446
几率	-11.6447
▁我们怎么	-11.6447
什么样	-11.6447
在晚上	-11.6448
空地	-11.6449
▁即使他们	-11.645
▁使他们	-11.645
数以千计的	-11.6452
优雅的	-11.6452
自己的想法	-11.6453
丢了	-11.6453
ster	-11.6454
为了让	-11.6457
开创了	-11.6457
▁你的大脑	-11.6458
费城	-11.646
那样的话	-11.6461
如果你真的	-11.6462
确实存在	-11.6462
▁但对	-11.6463
不是么	-11.6464
重要性	-11.6464
骑行	-11.6464
个人电脑	-11.6466
▁使我	-11.6467
化了	-11.6468
圣保罗	-11.6468
八岁	-11.6469
▁此刻	-11.6469
▁我不确定	-11.647
一眼	-11.6471
她就	-11.6472
不同寻常	-11.6473
▁真的是	-11.6473
▁美国的	-11.6474
你们看到的	-11.6474
这才是	-11.6474
路程	-11.6475
的尊严	-11.6477
▁我们之所以	-11.6478
长者	-11.6478
我的国家	-11.6478
这种东西	-11.6479
网格	-11.648
一个很小的	-11.6482
浪费了	-11.6483
可以追溯到	-11.6484
各种不同的	-11.6488
的快乐	-11.6489
创办了	-11.6491
绑	-11.6491
马上就要	-11.6492
我遇到	-11.6493
去哪里	-11.6494
重要的事情	-11.6494
在课堂上	-11.6494
绝对是	-11.6496
得好	-11.6496
变小	-11.65
这一年	-11.6501
▁我们为什么	-11.6501
做这些事情	-11.6501
表达自己	-11.6501
晕	-11.6502
的食品	-11.6504
这的确	-11.6504
愿意去	-11.6505
努力地	-11.6505
聚合物	-11.6509
▁如果不	-11.6511
被当作	-11.6512
拉比	-11.6512
会更好	-11.6513
会自动	-11.6514
抑或	-11.6514
▁‘	-11.6515
这是在	-11.6515
▁究竟	-11.6516
希望能够	-11.6517
然后我们	-11.6518
在西方	-11.6519
▁我们首先	-11.652
全都是	-11.6521
在短短	-11.6522
毁坏	-11.6522
这些生物	-11.6522
能够帮助	-11.6523
这些材料	-11.653
那些被	-11.653
的消费	-11.653
发布了	-11.6534
去学习	-11.6534
新的技术	-11.6535
普遍的	-11.6535
难道不	-11.6535
mi	-11.6536
档	-11.6536
的循环	-11.6537
得出的	-11.6537
▁我们并不	-11.6538
去创造	-11.6538
个女孩	-11.6538
乡	-11.654
放一个	-11.654
▁这是非常	-11.6541
烤箱	-11.6542
活着的	-11.6543
比利	-11.6544
头疼	-11.6544
世界上有	-11.6544
▁这看起来	-11.6544
▁人们都	-11.6545
▁这表明	-11.6549
▁一群	-11.6549
已成为	-11.655
境内	-11.655
设计师们	-11.6552
的最高	-11.6553
简称	-11.6556
▁他就是	-11.6558
更好的生活	-11.656
▁这也就是	-11.656
▁但当你	-11.656
▁这两种	-11.656
一部分人	-11.6561
的运作	-11.6562
还很	-11.6562
就是他	-11.6563
▁Ma	-11.6565
低估	-11.6565
其中一位	-11.6566
▁所谓的	-11.6567
某一个	-11.6567
什么事情	-11.6567
取了	-11.6569
被打	-11.6569
将你	-11.657
淹没	-11.6571
的尺寸	-11.6571
Li	-11.6574
所见到的	-11.6576
的行业	-11.6577
▁也可能	-11.6578
▁这位是	-11.6579
挠	-11.6579
快点	-11.6582
加深	-11.6584
▁你真的	-11.6584
理所当然	-11.6584
▁还有就是	-11.6585
恋爱	-11.6585
的边界	-11.6586
任何事	-11.6586
多得多	-11.6587
不会说	-11.6587
▁还有那些	-11.6587
的国度	-11.6588
拓展	-11.6589
▁我这里	-11.6589
看见了	-11.659
多元	-11.6592
毫无意义	-11.6593
▁下面我	-11.6596
外包	-11.6596
单单	-11.6597
在纸上	-11.6598
更低	-11.66
随着时间	-11.66
诊	-11.6601
对科学	-11.6602
▁当我看到	-11.6602
第一个问题	-11.6603
▁研究人员	-11.6604
▁如果一个	-11.6607
▁这将会	-11.6608
我将会	-11.6609
帝	-11.6613
▁正好	-11.6616
保护他们	-11.6616
操	-11.6616
更便宜	-11.6616
后面的	-11.6617
归功于	-11.6619
上过	-11.662
的用户	-11.662
左手	-11.662
里头	-11.662
再到	-11.6621
面纱	-11.6621
店里	-11.6622
的疫苗	-11.6622
在玩	-11.6623
育	-11.6625
看到他们	-11.6626
铅	-11.6628
所知道的	-11.6628
▁这是一个非常	-11.6629
▁想一想	-11.6629
销	-11.663
和文化	-11.6631
我收到	-11.6632
睁	-11.6632
有信心	-11.6633
大幅	-11.6634
志	-11.6634
得分	-11.6635
十六	-11.6635
的总统	-11.6635
地面上	-11.6635
▁刚开始	-11.6636
近距离	-11.6636
能够得到	-11.6637
▁最重要的	-11.6638
村民	-11.6638
钩	-11.664
进入一个	-11.664
一样重要	-11.664
遥控	-11.6641
忽然	-11.6641
我终于	-11.6641
解析	-11.6641
昏	-11.6641
押	-11.6642
胚胎	-11.6642
於	-11.6642
凌晨四点	-11.6642
苏珊	-11.6642
窄	-11.6642
愧	-11.6642
肺结核	-11.6642
Skype	-11.6642
史蒂芬	-11.6642
咯	-11.6642
玫瑰	-11.6642
MRI	-11.6642
四轴飞行器	-11.6642
陪审团	-11.6642
iPad	-11.6642
书呆子	-11.6642
利比里亚	-11.6642
牙买加	-11.6642
辣	-11.6642
°	-11.6642
敏捷	-11.6642
债券	-11.6642
狭窄	-11.6642
矿物	-11.6642
国内生产总值	-11.6642
阴谋	-11.6642
首席	-11.6642
巴比伦	-11.6643
心脏病发作	-11.6643
祝福	-11.6643
保密	-11.6643
欧元	-11.6643
携手	-11.6643
之际	-11.6643
股东	-11.6643
肺癌	-11.6643
赶紧	-11.6643
首领	-11.6643
复原	-11.6643
沃森	-11.6643
建模	-11.6643
红外线	-11.6643
头衔	-11.6643
布置	-11.6643
升华	-11.6643
盖瑞	-11.6643
报复	-11.6643
物资	-11.6644
日志	-11.6644
的密度	-11.6644
种族隔离	-11.6644
偏差	-11.6644
Mary	-11.6644
国会议员	-11.6644
短暂的	-11.6644
饱受	-11.6645
外壳	-11.6645
埃博拉病毒	-11.6645
皮质	-11.6645
被允许	-11.6645
人造卫星	-11.6645
公主	-11.6645
永不	-11.6645
各处	-11.6645
现代艺术博物馆	-11.6646
作用于	-11.6646
链条	-11.6646
切片	-11.6646
留下的	-11.6646
仿生学	-11.6647
自闭症患者	-11.6647
云层	-11.6647
月经	-11.6647
肺部	-11.6648
右手边	-11.6648
日记	-11.6648
毛病	-11.6649
接管	-11.6649
力气	-11.6649
神经学家	-11.6649
诗意	-11.6649
多元化	-11.665
存活下来	-11.6651
▁这张图	-11.6652
运行的	-11.6652
掩盖	-11.6653
我的妈妈	-11.6653
描写	-11.6653
▁请注意	-11.6653
日语	-11.6655
年起	-11.6655
金子	-11.6656
电击	-11.6656
显示器	-11.6659
更广泛的	-11.666
▁但不幸的是	-11.666
入手	-11.6662
去年夏天	-11.6663
信条	-11.6663
下来的	-11.6663
中只有	-11.6664
温室	-11.6664
基因驱动	-11.6665
▁战争	-11.6666
做出反应	-11.6666
▁就象	-11.6667
浪费时间	-11.6668
▁是因为我们	-11.6668
德州	-11.6668
找到我	-11.6668
阻止了	-11.6668
最大化	-11.6669
再也不会	-11.6669
领导能力	-11.667
别的东西	-11.667
你身边	-11.6671
怎么办呢	-11.6672
工程师们	-11.6672
脸部	-11.6673
渐渐地	-11.6674
do	-11.6674
没有人知道	-11.6675
放心	-11.6675
▁我找到了	-11.6678
人心	-11.6678
建的	-11.6678
▁同时我也	-11.6678
灵活的	-11.6679
简短	-11.668
航天器	-11.668
到最后	-11.6681
解释为什么	-11.6681
远古	-11.6682
控制器	-11.6683
名称	-11.6683
被判	-11.6683
摩尔	-11.6684
和平的	-11.6685
抽出	-11.6685
你愿意	-11.6686
栏	-11.6686
的人会	-11.6686
问到	-11.6686
我们还有	-11.6688
等等等等	-11.669
第三次	-11.669
说得	-11.6691
南亚	-11.6693
我们每一个人	-11.6694
的人说	-11.6695
被送到	-11.6697
▁女士们	-11.6697
我希望你们	-11.6697
▁每当我	-11.6697
最差的	-11.6697
被释放	-11.6697
▁我没	-11.6697
是建立在	-11.6699
电报	-11.67
详细的	-11.67
抬头	-11.67
所用	-11.6701
一体	-11.6702
运作的	-11.6702
怪人	-11.6703
▁你可以通过	-11.6704
投入了	-11.6707
他的妻子	-11.6707
来自哪里	-11.6708
标准化	-11.6708
喝咖啡	-11.6708
意义上	-11.6709
出行	-11.6712
并不仅仅是	-11.6714
跳进	-11.6715
人类社会	-11.6717
有一只	-11.6717
国家安全	-11.6718
▁如果这	-11.6719
注定	-11.6719
....	-11.672
!」	-11.672
讲过	-11.6721
在巴西	-11.6722
回收利用	-11.6722
半夜	-11.6723
为那些	-11.6723
有关联	-11.6724
负责任	-11.6725
去帮助	-11.6726
▁我还记得	-11.6726
这种疾病	-11.6727
可言	-11.6727
▁变成了	-11.6728
为生	-11.6729
网球	-11.6729
没有用	-11.6729
蒙特	-11.6731
拆	-11.6731
这个组织	-11.6732
哪怕	-11.6732
显著的	-11.6733
这些声音	-11.6735
一致性	-11.6736
▁这也是我们	-11.6736
我们的未来	-11.6736
▁这很重要	-11.6737
▁这是一件	-11.6738
来表示	-11.6738
越发	-11.6739
亲戚	-11.6739
犯罪率	-11.6739
最贫穷的	-11.6742
所有事情	-11.6743
的二氧化碳	-11.6744
因为这个	-11.6744
自己做	-11.6746
这种事情	-11.6746
小事	-11.6746
觉得很	-11.6746
现代社会	-11.6746
社会进步	-11.6746
讲起	-11.6747
同时也是	-11.6748
▁你能想象	-11.675
没有关系	-11.675
一千个	-11.675
由一个	-11.6751
▁估计	-11.6752
每个人的	-11.6754
流过	-11.6754
我就会	-11.6756
▁这三个	-11.6757
的工程	-11.6757
的句子	-11.6758
人死亡	-11.6758
会怎么样呢	-11.6758
意思就是	-11.6759
▁正是因为	-11.6759
发生了什么事	-11.676
高出	-11.676
增加到	-11.6761
很多不同的	-11.6761
得来的	-11.6762
的控制	-11.6767
看见的	-11.6768
▁都被	-11.6769
▁但是这个	-11.6773
它的时候	-11.6775
▁我坚信	-11.6775
倒是	-11.6777
让我们把	-11.6779
的可能	-11.6779
有一定	-11.6781
女士们先生们	-11.6781
肩	-11.6782
总是会	-11.6782
发生了变化	-11.6784
书店	-11.6785
的反馈	-11.6785
用自己的	-11.6786
▁如果这些	-11.6786
意识到了	-11.6789
我们来看看	-11.6791
▁所以我们必须	-11.6791
了一份	-11.6793
有害的	-11.6795
公共交通	-11.6795
可怜	-11.6796
▁但我们也	-11.6796
再过	-11.6796
的痕迹	-11.6799
关闭了	-11.6799
高尚	-11.6799
在高中	-11.68
没了	-11.68
几点	-11.68
对准	-11.6802
▁我看见	-11.6802
千人	-11.6804
小点	-11.6804
▁这样我们就能	-11.6806
▁他们不是	-11.6806
好转	-11.6807
有个人	-11.6807
告诉了	-11.6809
如果它	-11.6812
方形	-11.6813
了一点	-11.6813
▁总而言之	-11.6817
吨的	-11.6818
其余	-11.6818
如何应对	-11.6819
都想	-11.6821
美国总统	-11.6825
而改变	-11.6825
来制作	-11.6827
限度	-11.6828
▁就会发现	-11.6828
看着他们	-11.6828
▁De	-11.6829
与你们分享	-11.683
要改变	-11.6832
提出一个	-11.6832
▁他们只	-11.6833
少量	-11.6833
你们要	-11.6833
ver	-11.6834
▁我们不应该	-11.6835
他把	-11.6836
样东西	-11.6836
▁他开始	-11.6837
▁我们的确	-11.6837
三个人	-11.6838
污水	-11.6841
非常多	-11.6842
让我们来	-11.6843
的医院	-11.6843
成为我们	-11.6843
获利	-11.6843
表现出来	-11.6844
在这个星球上	-11.6845
人类历史	-11.6847
就可以了	-11.6853
猎人	-11.6857
不难	-11.6858
这个图	-11.686
▁我们给	-11.6861
每当	-11.6862
▁是时候	-11.6866
不适	-11.6866
MA	-11.687
的听众	-11.6872
分布在	-11.6872
你的朋友	-11.6872
这个活动	-11.6875
非常酷	-11.6876
▁可惜	-11.688
会议室	-11.6883
种语言	-11.6884
就在那里	-11.6885
你就知道	-11.6886
低收入	-11.6888
He	-11.6888
▁但是当你	-11.6889
改变他们	-11.689
刚从	-11.6892
▁目前为止	-11.6892
我们是否	-11.6892
▁但当我们	-11.6895
进行交流	-11.6897
几乎所有	-11.6899
每天都会	-11.6899
驱	-11.6901
一个很大的	-11.6902
需要一些	-11.6903
谈论的是	-11.6905
的话语	-11.6905
接受过	-11.6907
九个	-11.6908
口袋	-11.6909
结果表明	-11.691
最容易	-11.691
▁我终于	-11.6911
任何问题	-11.6912
轻轻	-11.6912
只好	-11.6912
▁今天我想	-11.6912
真的能	-11.6913
我唯一	-11.6914
上来说	-11.6914
运用在	-11.6914
都一样	-11.6916
一瞬间	-11.6917
被禁止	-11.6918
▁便	-11.6919
把它叫做	-11.6919
▁他从	-11.6919
夺走	-11.692
进到	-11.692
取消	-11.692
▁收集	-11.6921
韦	-11.6922
的愿景	-11.6926
当一个	-11.6926
▁直至	-11.6927
▁然后它	-11.6929
▁诺曼	-11.6929
一端	-11.6931
使他	-11.6932
抓到	-11.6934
▁有可能	-11.6937
拒绝了	-11.6938
向世界	-11.6938
和电脑	-11.6938
欧洲人	-11.6939
▁于是我想	-11.6941
没有时间	-11.6942
因为这	-11.6942
▁在座	-11.6943
还有另一个	-11.6943
扭	-11.6944
看下	-11.6944
▁我把它	-11.6946
雇	-11.6946
不易	-11.6947
我们把它	-11.695
▁你甚至	-11.6951
我就不	-11.6952
导弹	-11.6952
制造者	-11.6952
▁在欧洲	-11.6954
▁未来的	-11.6954
为中心	-11.6956
▁像这样	-11.6956
吞	-11.6956
脖子	-11.6957
本应	-11.6957
敬	-11.6958
音响	-11.6958
甚么	-11.6959
我要讲的	-11.6959
出错	-11.6959
肢	-11.6959
然后是	-11.696
肠	-11.6961
▁或者在	-11.6961
在城市里	-11.6961
孤单	-11.6962
那些在	-11.6963
▁或者他们	-11.6963
辨识	-11.6964
想法是	-11.6966
栖息	-11.6966
堵	-11.6967
类似的东西	-11.6967
▁当你看到	-11.6967
蚁	-11.6967
der	-11.6967
实习	-11.6968
孕育	-11.6969
枚	-11.697
我再	-11.697
铃	-11.6971
痴迷	-11.6972
正在研究	-11.6972
屏	-11.6972
▁把这些	-11.6972
繁	-11.6972
德克萨斯	-11.6972
定居	-11.6973
阿波罗	-11.6973
乌托邦	-11.6974
艇	-11.6975
乌贼	-11.6975
秃	-11.6976
译者注	-11.6976
班加罗尔	-11.6976
菲律宾	-11.6976
从何而来	-11.6976
原教旨主义	-11.6976
各不相同	-11.6976
完完全全	-11.6976
服役	-11.6976
牲畜	-11.6976
米开朗基罗	-11.6976
饲料	-11.6976
斯诺登	-11.6976
西伯利亚	-11.6976
消逝	-11.6976
韵律	-11.6976
乙醇	-11.6976
波斯尼亚	-11.6976
维生素	-11.6976
颜料	-11.6976
貌似	-11.6976
举措	-11.6976
勉强	-11.6976
启迪	-11.6976
阿姨	-11.6976
协商	-11.6976
材质	-11.6976
陪伴	-11.6976
填补	-11.6976
衰落	-11.6976
干脆	-11.6976
争端	-11.6976
黑桃	-11.6976
待遇	-11.6976
血统	-11.6976
肺炎	-11.6976
双臂	-11.6977
杂音	-11.6977
队友	-11.6977
充气	-11.6977
历经	-11.6977
综合症	-11.6977
论证	-11.6977
减排	-11.6977
集中营	-11.6977
坦克	-11.6977
涌入	-11.6977
爪子	-11.6977
牙医	-11.6977
召唤	-11.6977
物理定律	-11.6977
归类	-11.6978
营业	-11.6978
制服	-11.6978
热烈	-11.6978
我并没有	-11.6978
告别	-11.6978
公元前	-11.6978
村落	-11.6978
网民	-11.6978
珍贵	-11.6978
航线	-11.6979
▁这个地方	-11.6979
上台	-11.6979
在法国	-11.6979
▁可以在	-11.698
净化	-11.698
指定	-11.698
流血	-11.698
开发商	-11.6981
判决	-11.6982
毒害	-11.6982
第二年	-11.6982
金色	-11.6982
法学院	-11.6982
信赖	-11.6982
横向	-11.6983
恰当	-11.6983
▁受到	-11.6983
召开	-11.6983
通过这些	-11.6983
DJ	-11.6984
政客们	-11.6984
▁你将会	-11.6984
目录	-11.6984
扮演了	-11.6985
世界级的	-11.6986
这只是个	-11.6987
蓝光	-11.6987
美国国家安全局	-11.6987
你是谁	-11.6988
借用	-11.6988
张力	-11.6988
把他的	-11.6989
去发现	-11.699
若干	-11.699
侵害	-11.699
才知道	-11.699
一对一的	-11.6991
▁我从来没有	-11.6993
冒犯	-11.6993
发现这些	-11.6995
口中	-11.6996
为我们提供	-11.6997
能够做到	-11.6997
不同种类的	-11.6997
▁但是却	-11.6998
歌词	-11.6998
生机	-11.6999
有人知道	-11.6999
五月	-11.6999
幕后	-11.6999
单身	-11.7001
创建了一个	-11.7001
帮他们	-11.7002
强加	-11.7002
用这种方式	-11.7004
一夜	-11.7007
第一代	-11.7007
合作者	-11.7009
过往	-11.701
很多国家	-11.701
去读	-11.7011
▁我来自	-11.7011
这个房间	-11.7012
的神奇	-11.7012
城里	-11.7012
煤矿	-11.7013
该国	-11.7013
很酷的	-11.7015
的描述	-11.7016
▁这张是	-11.7016
装着	-11.7016
▁所以我们想	-11.7017
邀请我	-11.7017
我身后	-11.7018
▁这些就是	-11.7018
的妻子	-11.7018
▁但没有	-11.7019
我给大家	-11.7019
▁鼓励	-11.7019
拯救生命	-11.702
每天早上	-11.702
El	-11.7021
▁乔治	-11.7022
案子	-11.7023
这张幻灯片	-11.7023
的目的是	-11.7024
多元宇宙	-11.7025
一月	-11.7026
本该	-11.7026
我们也可以	-11.7026
你也许	-11.7026
”,“	-11.7029
三周	-11.7029
房车	-11.7031
的第一次	-11.7031
教育和	-11.7033
许可证	-11.7035
不理解	-11.7036
不许	-11.7037
之多	-11.7039
散发	-11.7039
有意思的是	-11.704
对事物	-11.7043
抽取	-11.7043
就是这样的	-11.7044
每一天	-11.7044
性命	-11.7048
这张地图	-11.705
现在还	-11.705
活的	-11.7051
价钱	-11.7051
开发出	-11.7052
和她的	-11.7052
这个社区	-11.7053
中发现	-11.7053
解决的	-11.7054
红线	-11.7055
我听说	-11.7056
早在	-11.7057
我叫	-11.7058
幸运的是	-11.7059
而生	-11.7059
用电脑	-11.7061
最强大的	-11.7061
▁以及如何	-11.7061
▁你们都知道	-11.7063
废弃的	-11.7063
无论你	-11.7064
里根	-11.7064
贴在	-11.7064
哪个国家	-11.7065
要求我们	-11.7065
永久的	-11.7066
不久后	-11.7067
多达	-11.7068
每条	-11.7069
▁太阳	-11.7069
小狗	-11.707
发作	-11.707
在同一时间	-11.7071
对他说	-11.7071
爵士乐	-11.7071
的思维方式	-11.7071
连在一起	-11.7071
我明白了	-11.7072
▁那也是	-11.7074
艰苦	-11.7076
的领导人	-11.7076
有几	-11.7077
谈一下	-11.7077
大国	-11.7078
温和的	-11.7079
去工作	-11.708
▁每一天	-11.7082
▁让我告诉你	-11.7084
我们是谁	-11.7084
绕过	-11.7086
呆了	-11.7086
认为这是	-11.7086
帮他	-11.7086
▁它由	-11.7087
▁你只要	-11.7087
▁我们是否	-11.7089
捕猎	-11.709
玩乐	-11.7091
改变现状	-11.7092
在中间	-11.7094
灾难性的	-11.7094
所有的这些	-11.7094
真的非常	-11.7095
很好奇	-11.7095
检测到	-11.7095
一个非常简单的	-11.7096
比率	-11.7097
▁你想要	-11.7097
所能做的	-11.7098
会发生什么呢	-11.7098
也不需要	-11.7098
这个图表	-11.71
▁看来	-11.7101
更有效	-11.7101
▁正如我们	-11.7101
▁有多少	-11.7102
一一	-11.7103
ho	-11.7105
第一件	-11.7106
现代人	-11.7108
▁是非常	-11.7111
▁我现在要	-11.7111
将如何	-11.7111
▁他们为	-11.7114
我们不需要	-11.7114
你的工作	-11.7118
激动人心的	-11.7118
生活质量	-11.7119
有一项	-11.7119
▁就好比	-11.712
最坏的	-11.712
此时	-11.7121
养蜂人	-11.7121
来分析	-11.7121
我们就会	-11.7122
需要什么	-11.7122
▁两年前	-11.7122
行程	-11.7124
▁但从	-11.7124
原因在于	-11.7125
我们与	-11.7128
觉得它	-11.7128
这个说法	-11.7128
生来就	-11.7129
▁而对于	-11.7129
Richard	-11.713
的角度看	-11.7131
有某种	-11.7131
来表达	-11.7132
▁已经被	-11.7132
尝试了	-11.7135
每晚	-11.7135
去上学	-11.7136
关于这个	-11.7136
▁你只能	-11.7136
▁他正在	-11.7137
▁世界各地	-11.7138
▁但我还是	-11.7138
令人激动的	-11.714
治疗方案	-11.714
男孩子	-11.7142
小屋	-11.7142
古典	-11.7144
固有的	-11.7146
知道这些	-11.7146
来治疗	-11.7146
再多	-11.7147
在这样的	-11.7148
▁大家好	-11.7148
买下	-11.7154
需要被	-11.7154
媒体实验室	-11.7155
他又	-11.7156
很生气	-11.7158
非常激动	-11.7158
展示给你们	-11.7158
像我们一样	-11.7159
实在是太	-11.7159
类似的事情	-11.716
原子核	-11.716
这个世纪	-11.7161
是不一样的	-11.7162
伤痛	-11.7162
那么重要	-11.7162
我们想要的	-11.7163
周围的人	-11.7163
糊	-11.7164
水和	-11.7167
但他	-11.7167
活儿	-11.7168
的血液	-11.7169
来看一下	-11.7171
其他任何	-11.7171
要怎么	-11.7172
取决于你	-11.7172
你说的	-11.7174
就相当于	-11.7174
导致的	-11.7175
是那么	-11.7177
池	-11.7179
这种植物	-11.7181
做了这个	-11.7182
了解这些	-11.7184
组合在一起	-11.7184
槽	-11.7185
公平的	-11.7186
充	-11.7186
电磁	-11.7188
兴	-11.7188
采取了	-11.7188
大概就是	-11.7188
不值得	-11.7189
的逻辑	-11.719
是不对的	-11.7191
社会网络	-11.7191
片子	-11.7193
些东西	-11.7193
的肌肉	-11.7196
和政府	-11.7199
的生态系统	-11.7199
他们不会	-11.7199
活下去	-11.7199
双腿	-11.72
吃什么	-11.72
▁据说	-11.72
一个完美的	-11.7201
的信心	-11.7201
▁可以用	-11.7202
秘诀	-11.7202
买来	-11.7203
这个主题	-11.7203
▁三个	-11.7204
▁---	-11.7206
得上	-11.7207
好几	-11.7207
好多了	-11.7208
最原始的	-11.721
▁如果你是一个	-11.7211
自家	-11.7212
创作的	-11.7212
用心	-11.7214
我也不知道	-11.7215
▁所以我们要	-11.7216
研究项目	-11.7217
开设	-11.722
▁看到了	-11.7221
趣	-11.7221
在加州	-11.7222
..	-11.7223
宗	-11.7223
这些新	-11.7224
在大脑中	-11.7224
的感知	-11.7225
心思	-11.7226
▁如果要	-11.7226
我们可以做到	-11.7226
宝石	-11.7228
▁我们做了	-11.7228
困	-11.7229
藏起来	-11.7229
抵	-11.723
在它的	-11.7231
▁嘿	-11.7232
核聚变	-11.7232
列举	-11.7232
有创意的	-11.7233
让那些	-11.7234
▁表明	-11.7235
贴上	-11.7236
可以选择	-11.7237
这股	-11.7238
革命性的	-11.7238
▁La	-11.7239
既是	-11.7239
▁你不得不	-11.7241
一个小孩	-11.7241
要记住	-11.7242
我们曾经	-11.7242
人一样	-11.7242
仔细观察	-11.7243
穿梭	-11.7245
代数	-11.7246
▁我想用	-11.7247
在下面	-11.7248
认为我们	-11.7249
九月	-11.7249
▁幸福	-11.725
别的什么	-11.7251
还有人	-11.7252
▁越来越多的	-11.7253
一个重要的	-11.7254
舌头	-11.7255
当我开始	-11.7255
的追求	-11.726
▁我们得到了	-11.726
地雷	-11.7263
较大的	-11.7263
▁这就是一个	-11.7263
的直觉	-11.7263
脚上	-11.7264
有三种	-11.7264
变暖	-11.7265
不光是	-11.7265
的算法	-11.7265
其中一种	-11.7267
仔细的	-11.7267
缩短	-11.7269
▁你无法	-11.7271
政府和	-11.7271
我都会	-11.7274
▁想像一下	-11.7274
▁我的母亲	-11.7275
珍	-11.7276
你可以将	-11.7277
把它放到	-11.7279
指尖	-11.728
还是个	-11.7282
求助	-11.7282
▁我向	-11.7284
著作	-11.7285
的效率	-11.7287
便利	-11.7287
只能在	-11.7288
发光的	-11.7289
一幕	-11.7289
▁当我开始	-11.729
有效率	-11.729
我们看不到	-11.7292
的分布	-11.7292
我们应	-11.7292
收集了	-11.7293
能真正	-11.7294
有很多种	-11.7294
椅	-11.7295
分辨率	-11.7297
这些建筑	-11.7298
垂	-11.7299
▁传统的	-11.7299
你的手	-11.7299
教室里	-11.7299
停留在	-11.73
充足	-11.73
传播到	-11.7301
▁然后我想	-11.7302
可能会说	-11.7303
▁使其	-11.7304
▁而不只是	-11.7305
▁做一个	-11.7305
令人吃惊	-11.7306
就应该	-11.7308
温和	-11.7308
剥	-11.7309
泪	-11.731
清晨	-11.731
人类学	-11.7311
跑道	-11.7311
蕴含	-11.7311
▁你开始	-11.7311
▁我们其实	-11.7312
最后一	-11.7312
▁它需要	-11.7313
的创意	-11.7313
闪烁	-11.7313
▁我们也在	-11.7314
更加复杂	-11.7314
我们都会	-11.7315
作出了	-11.7316
我们刚	-11.7316
最有效的	-11.7316
先驱	-11.7317
驾	-11.7317
明亮	-11.7318
寂静	-11.7318
丛	-11.7318
蜡	-11.7318
转折	-11.7319
器械	-11.7319
轰	-11.7319
伞	-11.732
凑	-11.732
癫痫	-11.732
硫	-11.732
肾	-11.732
坎	-11.732
喇叭	-11.732
的崛起	-11.732
葛	-11.732
娶	-11.732
年复一年	-11.732
淀粉	-11.732
通货膨胀	-11.732
长话短说	-11.732
土卫六	-11.732
弗朗西斯	-11.732
感同身受	-11.732
肆虐	-11.732
竭尽全力	-11.732
纪念碑	-11.732
螃蟹	-11.732
费洛蒙	-11.732
胡萝卜	-11.732
贤淑	-11.732
阶梯	-11.732
恐吓	-11.732
冷静	-11.732
尖锐	-11.7321
责备	-11.7321
确诊	-11.7321
茶壶	-11.7321
故乡	-11.7321
地中海	-11.7321
天文望远镜	-11.7321
悉尼	-11.7321
同理心	-11.7321
内涵	-11.7321
轮胎	-11.7321
功夫	-11.7321
断裂	-11.7321
充实	-11.7321
复兴	-11.7321
游泳池	-11.7321
孙女	-11.7321
精密	-11.7321
归属感	-11.7321
汽车安全座椅	-11.7321
右侧	-11.7321
收费	-11.7321
罗斯福	-11.7321
骗局	-11.7321
混蛋	-11.7321
达芬奇	-11.7321
立方体	-11.7321
南美洲	-11.7321
一大群	-11.7322
主权	-11.7322
阻力	-11.7322
种族屠杀	-11.7322
就不会有	-11.7322
模因	-11.7322
复杂的问题	-11.7322
节食	-11.7322
即兴表演	-11.7322
调控	-11.7322
住院	-11.7322
军方	-11.7323
团结在一起	-11.7323
行贿	-11.7323
班级	-11.7323
取样	-11.7323
介于	-11.7324
睾丸	-11.7324
像我这样的	-11.7324
背部	-11.7324
帮派	-11.7324
野心	-11.7324
伯特	-11.7324
道具	-11.7325
机密	-11.7325
欢迎来到	-11.7325
千万别	-11.7325
雷达	-11.7325
拥挤	-11.7325
远方	-11.7326
真的可以	-11.7326
几十	-11.7326
悲痛	-11.7326
规矩	-11.7327
收取	-11.7327
的创造力	-11.7328
跨国公司	-11.7328
理应	-11.7328
纳税人	-11.7329
制品	-11.7329
▁儿童	-11.7329
出租车	-11.7329
继而	-11.733
管理员	-11.733
制药公司	-11.7331
一块儿	-11.7332
假象	-11.7332
飞越	-11.7333
问世	-11.7333
大猩猩	-11.7333
它真的	-11.7333
打字	-11.7334
和自然	-11.7334
复发	-11.7334
给出了	-11.7335
弱点	-11.7336
冰山	-11.7337
我们的政府	-11.7337
意义重大	-11.7337
▁其中包括	-11.7338
我说过	-11.7339
电脑游戏	-11.7339
的数目	-11.7339
生存下来	-11.7339
的塑料	-11.734
互联	-11.734
再现	-11.7341
光片	-11.7341
事件发生	-11.7342
好极了	-11.7342
能够看到	-11.7343
转基因	-11.7343
研究院	-11.7344
展现出	-11.7344
▁他说他	-11.7345
在最近	-11.7345
即可	-11.7345
木板	-11.7346
两个星期	-11.7346
忙着	-11.7346
这项运动	-11.7346
▁一定	-11.7346
非常感谢你	-11.7347
细胞中	-11.7348
感到很	-11.7349
停顿	-11.7349
以便	-11.735
遇见了	-11.735
▁它比	-11.7351
都是些	-11.7351
▁但是当我	-11.7351
思想家	-11.7352
理解了	-11.7353
有益的	-11.7354
和环境	-11.7354
到我的	-11.7355
我们为什么不	-11.7357
有不少	-11.7358
▁突然之间	-11.7358
行事	-11.7359
利亚	-11.736
令人振奋的	-11.7361
数据点	-11.7361
▁因为我认为	-11.7362
人际	-11.7363
我朋友	-11.7363
是否愿意	-11.7364
百分之五十	-11.7365
整个城市	-11.7365
东方	-11.7367
发电机	-11.7368
地貌	-11.7369
已有的	-11.7369
的叫声	-11.737
较为	-11.737
这些分子	-11.737
the	-11.7371
不是很好	-11.7371
纽约州	-11.7375
对你说	-11.7375
过来的	-11.7375
不同的方式	-11.7376
公海	-11.7378
幼年	-11.7378
系统里	-11.7379
还有些	-11.738
亲手	-11.7381
向往	-11.7382
我就开始	-11.7382
的玩具	-11.7383
什么也没有	-11.7385
真实的自己	-11.7385
轴上	-11.7386
带你	-11.7389
有同样的	-11.7389
冷藏	-11.739
▁那么这	-11.739
......”	-11.7391
必须在	-11.7392
森林里	-11.7392
肯尼亚的	-11.7392
▁很多时候	-11.7392
读完	-11.7393
透明化	-11.7394
农民们	-11.7394
这真的是	-11.7396
他的儿子	-11.7396
就是一种	-11.7396
食物和	-11.7396
移动电话	-11.7397
总和	-11.7397
▁我真	-11.7397
知道这	-11.7397
北半球	-11.7398
外面的	-11.7398
的起点	-11.7401
鸡肉	-11.7401
谈论它	-11.7402
不感兴趣	-11.7403
新时代	-11.7403
这组	-11.7404
建立起来	-11.7405
是出于	-11.7406
会受到	-11.7407
伊拉克战争	-11.7407
的领袖	-11.7409
第七	-11.7409
翻了	-11.7409
的金属	-11.741
▁历史上	-11.7413
巴拉	-11.7413
部电影	-11.7415
来制造	-11.7417
▁恐怕	-11.7419
到你的	-11.742
死在	-11.742
能感觉到	-11.7421
得到了一个	-11.7424
生产商	-11.7424
在内	-11.7425
所创造的	-11.7425
公园里	-11.7426
的专利	-11.7427
JA	-11.7427
一定有	-11.743
拍打	-11.7432
非常荣幸	-11.7433
是怎么做的	-11.7434
经典的	-11.7435
▁哪些	-11.7437
它们就	-11.7438
货车	-11.7438
最令人	-11.7439
▁de	-11.7441
▁重点是	-11.7442
谈论到	-11.7442
▁女	-11.7442
人们认为	-11.7443
也很重要	-11.7443
他们都是	-11.7444
释放出	-11.745
▁从来没有	-11.7451
从小就	-11.7451
赶上	-11.7452
▁如果我们想要	-11.7453
在现实中	-11.7454
集成	-11.7454
▁商业	-11.7455
在某	-11.7455
之手	-11.7456
跟大家	-11.746
▁现在他们	-11.7462
两种不同的	-11.7462
赋予了	-11.7463
宝贵	-11.7464
基础上	-11.7464
▁连接	-11.7465
能做什么	-11.7467
他们必须	-11.7467
我们可以把	-11.7468
的构想	-11.747
清楚地	-11.747
在互联网上	-11.7471
▁从事	-11.7471
▁事实	-11.7472
在澳大利亚	-11.7472
发病	-11.7472
大脑中的	-11.7477
的损失	-11.7478
[...]
