<unk>	0
<s>	0
</s>	0
,	-2.88051
.	-3.06963
▁the	-3.31958
▁to	-3.78005
'	-3.7941
▁of	-3.86694
▁a	-3.93513
▁and	-3.94138
▁that	-4.11316
▁I	-4.19583
s	-4.2317
▁in	-4.30461
▁is	-4.46157
▁you	-4.48529
▁it	-4.52162
▁we	-4.59678
▁	-4.64886
▁And	-4.84351
▁this	-4.88937
▁was	-5.18916
0	-5.23492
▁for	-5.2623
▁are	-5.29418
▁have	-5.30066
▁they	-5.34753
t	-5.36693
▁on	-5.36938
▁with	-5.41714
▁--	-5.41827
▁can	-5.46444
-	-5.49843
▁So	-5.5095
?	-5.51309
▁what	-5.53086
▁about	-5.55753
▁be	-5.59406
re	-5.68272
▁not	-5.71611
▁at	-5.73226
▁all	-5.73456
▁do	-5.7489
▁as	-5.78322
▁there	-5.82004
▁people	-5.836
▁one	-5.84185
▁my	-5.84615
▁like	-5.84704
▁"	-5.8676
▁It	-5.87333
▁so	-5.87893
▁from	-5.88128
▁but	-5.95158
:	-5.97708
1	-5.98646
▁an	-5.99161
▁our	-6.00853
▁just	-6.01658
▁or	-6.03169
▁We	-6.05668
▁But	-6.07798
▁these	-6.09479
▁if	-6.09785
▁me	-6.10824
▁out	-6.11378
▁very	-6.13154
▁The	-6.14938
▁know	-6.14942
▁going	-6.17833
▁by	-6.17878
▁them	-6.18474
▁up	-6.18719
▁when	-6.21152
▁because	-6.22865
▁more	-6.22962
▁had	-6.23376
▁he	-6.26892
▁think	-6.27997
▁see	-6.28181
▁who	-6.29144
m	-6.30253
▁were	-6.30871
▁their	-6.31431
▁which	-6.31855
▁your	-6.32622
▁would	-6.33521
▁really	-6.34535
ve	-6.34607
▁how	-6.35327
▁get	-6.35812
2	-6.42055
▁us	-6.44115
▁time	-6.45803
▁world	-6.47477
▁here	-6.47501
▁has	-6.49293
▁This	-6.50649
▁then	-6.5109
▁You	-6.52647
▁some	-6.53081
▁into	-6.53622
▁actually	-6.54397
▁don	-6.55445
▁way	-6.55485
▁will	-6.59295
▁where	-6.59453
ing	-6.59691
▁years	-6.59756
▁things	-6.60905
▁now	-6.61841
▁other	-6.6215
▁go	-6.63158
▁want	-6.63625
▁Now	-6.64223
▁could	-6.65117
▁They	-6.67086
▁been	-6.68015
▁make	-6.68119
▁said	-6.76085
▁something	-6.78953
5	-6.79576
▁right	-6.81536
▁than	-6.82584
d	-6.8285
▁those	-6.83301
▁no	-6.83899
▁two	-6.84029
▁first	-6.8558
▁also	-6.87695
▁thing	-6.88823
▁got	-6.90476
▁little	-6.90491
▁much	-6.90506
▁look	-6.9215
▁back	-6.9252
▁over	-6.94086
▁say	-6.94485
▁That	-6.95872
▁work	-6.96081
▁only	-6.98722
9	-6.99103
▁need	-6.9984
▁most	-7.00805
▁she	-7.01662
▁his	-7.01809
▁life	-7.02244
▁even	-7.03439
▁In	-7.05268
▁take	-7.05698
▁many	-7.06127
▁lot	-7.07176
▁kind	-7.08428
ll	-7.09216
▁did	-7.11502
▁new	-7.11931
▁around	-7.12022
3	-7.12953
▁What	-7.14829
▁good	-7.14937
▁different	-7.14938
▁There	-7.15938
▁♫	-7.17944
▁down	-7.20102
▁through	-7.21761
▁her	-7.22109
▁same	-7.23238
▁every	-7.23707
▁use	-7.26113
▁come	-7.26419
▁being	-7.27621
▁He	-7.28818
;	-7.30032
▁doing	-7.30639
▁put	-7.32376
▁three	-7.32985
▁day	-7.3453
▁If	-7.34561
4	-7.34954
▁called	-7.38838
▁well	-7.39187
▁percent	-7.39587
▁any	-7.40124
▁made	-7.43138
▁Well	-7.43578
8	-7.4419
▁find	-7.45152
▁tell	-7.45765
▁human	-7.46446
▁why	-7.48274
▁change	-7.4893
▁fact	-7.49256
▁year	-7.49404
▁didn	-7.51292
ed	-7.52124
▁talk	-7.52322
▁should	-7.53068
▁today	-7.53193
▁A	-7.53322
▁started	-7.53374
▁idea	-7.53956
▁great	-7.54006
▁own	-7.54893
6	-7.57226
▁let	-7.58064
"	-7.5819
▁after	-7.58206
▁last	-7.59735
▁thought	-7.59775
▁went	-7.60338
▁better	-7.61019
7	-7.61291
▁big	-7.61611
▁give	-7.61822
▁might	-7.61882
▁before	-7.62186
▁important	-7.62498
▁another	-7.63273
▁problem	-7.63696
▁course	-7.64412
▁able	-7.64881
▁never	-7.65326
▁part	-7.66382
▁system	-7.67323
▁still	-7.67398
▁off	-7.67703
▁together	-7.68304
▁start	-7.68999
▁him	-7.69439
▁show	-7.70782
▁next	-7.71592
▁ago	-7.71719
▁story	-7.72358
▁place	-7.72546
▁came	-7.72574
▁bit	-7.73346
▁brain	-7.73372
▁long	-7.74641
▁again	-7.7477
▁few	-7.74829
▁water	-7.76561
▁does	-7.77008
▁used	-7.77208
▁between	-7.77442
▁When	-7.77488
▁mean	-7.7773
▁each	-7.77776
▁technology	-7.79695
▁data	-7.80966
▁its	-7.82549
▁question	-7.82904
▁found	-7.82907
▁women	-7.83126
▁example	-7.83633
▁looking	-7.84205
▁end	-7.85875
▁point	-7.86326
▁doesn	-7.86665
▁wanted	-7.87077
▁too	-7.87478
▁love	-7.87574
▁understand	-7.87725
▁done	-7.87985
▁Because	-7.88033
,"	-7.88181
▁sort	-7.89224
▁call	-7.89655
▁ever	-7.89781
▁real	-7.91163
n	-7.91224
▁whole	-7.91289
▁live	-7.91386
▁million	-7.92673
▁trying	-7.93458
▁four	-7.93548
▁always	-7.9469
▁person	-7.94998
▁away	-7.95242
▁children	-7.95537
▁try	-7.95818
▁working	-7.9588
▁believe	-7.96033
▁feel	-7.96428
▁school	-7.96834
▁may	-7.97573
▁help	-7.98186
▁country	-7.99701
▁power	-8.02566
▁using	-8.02849
▁How	-8.03404
▁thinking	-8.03989
▁information	-8.0426
▁money	-8.0448
▁took	-8.04555
▁means	-8.04559
e	-8.04888
▁create	-8.04925
▁high	-8.05691
▁maybe	-8.058
▁five	-8.05823
▁become	-8.06075
▁number	-8.0623
▁space	-8.06698
▁everything	-8.07008
▁small	-8.07854
▁design	-8.08644
▁kids	-8.08721
▁home	-8.09782
▁One	-8.09833
▁old	-8.10961
▁getting	-8.11713
▁left	-8.11749
▁enough	-8.12019
▁future	-8.12141
▁second	-8.12813
▁quite	-8.13516
▁best	-8.13685
▁light	-8.13824
▁sense	-8.1445
▁hard	-8.14557
ly	-8.15341
▁making	-8.15677
▁These	-8.15782
▁happened	-8.16299
▁energy	-8.16407
▁talking	-8.17054
▁comes	-8.17082
▁probably	-8.17729
▁social	-8.17896
▁My	-8.18053
I	-8.18149
▁interesting	-8.18376
▁building	-8.18394
▁less	-8.18567
▁food	-8.18642
▁She	-8.18896
▁countries	-8.19007
▁told	-8.19036
y	-8.1955
▁body	-8.19866
▁man	-8.20232
▁stuff	-8.20254
▁without	-8.2063
▁ask	-8.21289
▁dollars	-8.23161
▁times	-8.23286
▁pretty	-8.23859
▁science	-8.23962
▁Here	-8.24057
▁coming	-8.24213
▁anything	-8.24249
▁happen	-8.24409
▁moment	-8.24721
▁lives	-8.25103
▁such	-8.25225
▁play	-8.25684
▁build	-8.25759
▁across	-8.265
▁saw	-8.27047
▁side	-8.27822
▁Let	-8.28374
▁For	-8.28592
▁family	-8.28803
▁half	-8.2885
▁room	-8.29296
▁experience	-8.30461
▁seen	-8.30467
▁else	-8.30702
▁asked	-8.31128
▁later	-8.31182
▁men	-8.31254
▁Africa	-8.31255
▁living	-8.31561
▁case	-8.32539
▁simple	-8.32673
▁reason	-8.33074
▁move	-8.33162
▁having	-8.33191
▁goes	-8.33525
▁learn	-8.34016
▁care	-8.34023
▁happens	-8.35098
▁hand	-8.35234
▁says	-8.35324
▁computer	-8.35452
▁far	-8.36113
▁picture	-8.36124
▁bad	-8.36471
▁open	-8.36502
▁process	-8.36616
▁single	-8.36796
▁makes	-8.37317
▁young	-8.37672
▁city	-8.37877
▁days	-8.37952
▁car	-8.38909
▁Thank	-8.38922
▁almost	-8.38945
▁As	-8.39276
▁inside	-8.3931
▁while	-8.39313
▁health	-8.39749
▁New	-8.39954
▁saying	-8.40233
▁already	-8.40265
▁planet	-8.4036
▁mind	-8.404
▁community	-8.40449
▁ways	-8.40537
▁problems	-8.41147
▁Earth	-8.41367
▁yet	-8.41948
▁project	-8.41957
▁am	-8.42315
▁All	-8.42559
▁looked	-8.42743
▁set	-8.42763
▁bring	-8.42888
▁both	-8.42911
▁U	-8.43012
▁possible	-8.43156
▁global	-8.43254
▁billion	-8.43487
▁top	-8.43502
▁once	-8.4374
▁whether	-8.43781
▁book	-8.43893
▁six	-8.44435
▁someone	-8.44597
▁basically	-8.44983
▁nothing	-8.45128
▁business	-8.45233
▁matter	-8.45457
▁No	-8.45511
▁answer	-8.45599
▁guy	-8.46233
▁often	-8.46346
▁keep	-8.46411
▁within	-8.46751
▁wrong	-8.46941
▁history	-8.47052
▁myself	-8.47253
▁under	-8.47811
▁true	-8.47832
▁remember	-8.48767
▁ideas	-8.49056
▁hope	-8.49111
▁months	-8.49288
▁public	-8.49348
▁Why	-8.49423
▁imagine	-8.49527
▁sure	-8.49543
▁United	-8.50235
▁job	-8.50335
▁heard	-8.51435
▁control	-8.51525
▁amazing	-8.51997
▁child	-8.52131
▁read	-8.52192
▁couple	-8.5241
▁face	-8.52504
▁looks	-8.52787
▁order	-8.52978
▁group	-8.53449
▁age	-8.53558
▁cells	-8.53864
▁beautiful	-8.54108
▁government	-8.54244
▁turn	-8.54914
▁built	-8.55441
▁wasn	-8.55818
▁words	-8.55934
▁piece	-8.56958
▁until	-8.57339
▁form	-8.58857
▁music	-8.5934
▁model	-8.59407
▁self	-8.59443
▁everybody	-8.59473
▁Internet	-8.59621
▁cancer	-8.59634
▁language	-8.59636
▁completely	-8.59685
▁species	-8.59732
▁decided	-8.5983
▁head	-8.59969
▁became	-8.60019
▁States	-8.60181
▁knew	-8.60322
▁research	-8.60444
▁though	-8.6084
▁word	-8.60917
▁line	-8.61137
▁education	-8.61738
▁friends	-8.62174
▁video	-8.62185
▁America	-8.62316
▁places	-8.62434
▁run	-8.62552
▁share	-8.62646
▁happening	-8.62704
▁learned	-8.63042
▁stop	-8.63376
▁study	-8.63516
▁hear	-8.63592
▁stories	-8.63753
▁large	-8.63772
▁exactly	-8.6386
▁must	-8.64063
▁taking	-8.64239
th	-8.64263
▁night	-8.64296
▁name	-8.6448
▁somebody	-8.64551
▁itself	-8.64944
▁nature	-8.64973
▁students	-8.65224
▁woman	-8.65249
▁works	-8.65457
▁universe	-8.65692
▁animals	-8.65974
▁society	-8.66015
▁since	-8.66403
▁themselves	-8.67067
▁against	-8.67238
▁ourselves	-8.67293
▁heart	-8.67338
▁level	-8.67702
▁state	-8.67758
▁front	-8.68485
▁sometimes	-8.68882
S	-8.69186
▁huge	-8.69264
▁isn	-8.69367
a	-8.69382
▁India	-8.69652
▁disease	-8.70106
▁company	-8.70238
▁along	-8.70364
▁turns	-8.7079
▁per	-8.70903
▁questions	-8.70907
▁created	-8.70972
▁hours	-8.71353
▁environment	-8.71539
▁worked	-8.71625
▁minutes	-8.7163
▁OK	-8.71632
▁couldn	-8.71926
▁particular	-8.72144
▁mother	-8.72903
▁rather	-8.73025
▁figure	-8.73533
▁war	-8.73873
▁least	-8.74143
▁kinds	-8.74296
▁past	-8.74317
▁thousands	-8.74617
▁Then	-8.74905
▁everyone	-8.74941
▁God	-8.75468
▁early	-8.75582
▁game	-8.756
▁won	-8.75754
▁entire	-8.75869
▁sound	-8.76484
▁guys	-8.76992
▁third	-8.77379
▁instead	-8.77558
▁gets	-8.77805
▁happy	-8.77843
▁...	-8.78019
▁gave	-8.7809
▁difference	-8.78367
▁house	-8.78554
▁outside	-8.78578
▁taken	-8.79159
▁TED	-8.79896
▁American	-8.79998
▁black	-8.80018
▁natural	-8.8084
▁China	-8.80872
▁art	-8.81001
▁changed	-8.81038
▁close	-8.81289
▁full	-8.81347
▁learning	-8.81983
▁middle	-8.82188
▁machine	-8.82288
▁Or	-8.82332
▁leave	-8.82371
▁systems	-8.82537
▁air	-8.83473
▁seven	-8.83703
▁cell	-8.83864
▁Okay	-8.83867
▁turned	-8.84569
▁lots	-8.84576
▁cities	-8.8464
▁century	-8.84822
▁market	-8.85555
▁others	-8.85569
▁yourself	-8.85792
▁behind	-8.85883
▁population	-8.86334
▁given	-8.86451
▁news	-8.86694
▁area	-8.8685
▁free	-8.87024
▁eyes	-8.87025
▁difficult	-8.87657
▁began	-8.87858
▁needed	-8.87928
▁finally	-8.88007
al	-8.88271
▁perhaps	-8.88283
▁easy	-8.88284
▁beginning	-8.88345
▁local	-8.88805
▁cost	-8.8892
▁seeing	-8.89359
▁York	-8.8938
year	-8.89705
▁culture	-8.89818
▁moving	-8.89943
▁deal	-8.90129
▁companies	-8.90172
▁team	-8.90204
▁walk	-8.90455
▁image	-8.90483
▁terms	-8.90515
▁realized	-8.91155
▁simply	-8.91194
▁powerful	-8.91202
▁longer	-8.91264
▁father	-8.91365
▁cannot	-8.91537
during	-8.91654
▁ones	-8.92268
▁size	-8.92367
▁wonderful	-8.92658
▁Some	-8.93033
▁certain	-8.9311
▁oil	-8.93129
▁reality	-8.93764
▁media	-8.93877
▁hands	-8.93884
▁grow	-8.93911
▁view	-8.93929
▁common	-8.94592
▁paper	-8.94907
▁felt	-8.94971
▁economic	-8.95104
▁tried	-8.9511
▁amount	-8.95116
▁land	-8.95233
▁whatever	-8.95417
o	-8.9552
▁parents	-8.95521
▁parts	-8.95772
▁eight	-8.95881
▁takes	-8.95917
▁quickly	-8.9604
▁phone	-8.96194
▁week	-8.96479
in	-8.96949
The	-8.97216
▁People	-8.97514
▁spend	-8.9773
▁To	-8.98279
▁At	-8.98446
▁interested	-8.98745
▁spent	-8.98874
▁death	-8.98945
▁rest	-8.99166
▁opportunity	-8.99193
▁growth	-8.99295
▁gone	-8.99315
▁scale	-8.99424
▁needs	-8.99425
▁political	-8.9965
▁buy	-8.99707
▁ocean	-8.99709
▁poor	-9.00605
▁behavior	-9.01243
▁ability	-9.0149
▁weeks	-9.0166
▁low	-9.01729
▁pay	-9.02047
▁surface	-9.02063
▁either	-9.02108
▁fish	-9.02146
▁field	-9.02181
▁sitting	-9.02273
▁test	-9.02443
▁friend	-9.02525
▁economy	-9.02602
Well	-9.02617
▁known	-9.03796
▁challenge	-9.03874
▁Our	-9.03926
▁S	-9.04221
▁climate	-9.04316
▁lost	-9.0433
▁value	-9.04412
▁write	-9.04436
▁humans	-9.04462
▁Do	-9.04476
▁Just	-9.05122
▁animal	-9.05184
▁DNA	-9.05291
▁blue	-9.05538
▁complex	-9.05658
▁program	-9.05663
▁feeling	-9.06102
▁incredible	-9.06151
▁feet	-9.06234
old	-9.06668
▁access	-9.06957
▁step	-9.07193
▁T	-9.07491
▁average	-9.07801
▁white	-9.08052
▁morning	-9.08181
▁shows	-9.08184
▁green	-9.08756
▁wouldn	-9.08792
▁bottom	-9.08911
▁based	-9.09202
▁blood	-9.09291
▁changes	-9.09329
▁patients	-9.09442
▁realize	-9.09496
▁growing	-9.09538
▁areas	-9.09539
▁physical	-9.09603
▁CA	-9.09811
▁structure	-9.09842
▁brought	-9.10151
▁born	-9.1017
▁speak	-9.10204
▁ground	-9.10322
▁red	-9.10582
▁risk	-9.10642
▁die	-9.10836
▁attention	-9.10914
▁On	-9.11304
▁short	-9.11338
▁scientists	-9.11431
▁individual	-9.11542
▁understanding	-9.11733
er	-9.11885
▁Right	-9.12091
▁literally	-9.12135
▁E	-9.12485
▁result	-9.12618
▁wrote	-9.12692
▁Not	-9.13254
▁numbers	-9.13432
▁hundreds	-9.13726
▁map	-9.13976
▁technologies	-9.13976
▁eat	-9.14203
You	-9.14515
▁running	-9.14543
▁knowledge	-9.14952
▁support	-9.15016
What	-9.15115
es	-9.15202
▁movement	-9.15337
▁nice	-9.15358
▁girl	-9.15383
▁giving	-9.15498
▁starting	-9.1563
▁alone	-9.15684
▁material	-9.15738
▁developed	-9.15943
▁forward	-9.16019
▁watch	-9.16497
▁seems	-9.1668
▁issue	-9.16761
▁miles	-9.16915
▁tools	-9.16973
▁key	-9.17062
▁allow	-9.17747
▁C	-9.17806
▁telling	-9.17871
▁force	-9.17884
▁Yeah	-9.18256
▁audience	-9.18286
▁kid	-9.18301
▁books	-9.18513
▁anyone	-9.18788
▁hold	-9.18792
▁met	-9.19128
▁B	-9.19495
▁theory	-9.19532
▁center	-9.19596
▁talked	-9.19784
▁millions	-9.19871
▁absolutely	-9.19906
▁personal	-9.20053
▁fear	-9.20054
to	-9.2013
▁chance	-9.20226
▁images	-9.20407
▁stage	-9.20575
▁deep	-9.21091
▁issues	-9.21243
▁fly	-9.21374
▁rate	-9.21377
▁solution	-9.21414
▁network	-9.21592
▁focus	-9.2162
▁cut	-9.21907
▁solve	-9.21919
▁English	-9.22104
▁clear	-9.22395
▁showed	-9.22721
▁industry	-9.22887
▁Can	-9.23017
▁development	-9.23198
▁Europe	-9.23259
▁send	-9.23415
▁fun	-9.2342
▁online	-9.23566
▁discovered	-9.23767
▁fast	-9.23853
▁non	-9.23896
▁impact	-9.24056
▁World	-9.24164
▁dark	-9.2434
▁situation	-9.24487
▁girls	-9.24708
▁sea	-9.2496
▁normal	-9.25129
▁film	-9.2515
▁voice	-9.25192
▁creating	-9.25213
▁cars	-9.25333
▁robot	-9.25346
▁innovation	-9.25357
▁recently	-9.25563
▁resources	-9.25757
▁product	-9.25876
▁developing	-9.25891
▁stand	-9.25934
▁relationship	-9.25953
▁gives	-9.2598
on	-9.26114
▁experiment	-9.26132
▁South	-9.2636
▁color	-9.26425
▁produce	-9.26848
▁designed	-9.26876
▁begin	-9.27206
▁law	-9.2733
▁evidence	-9.27447
▁type	-9.27481
▁save	-9.27776
▁available	-9.27907
▁thank	-9.27943
▁shape	-9.27975
▁meet	-9.28123
▁seem	-9.28307
▁soon	-9.28467
▁especially	-9.28514
▁patient	-9.28529
▁baby	-9.28532
▁lab	-9.28566
▁major	-9.28667
▁tiny	-9.28732
▁playing	-9.28939
▁incredibly	-9.29163
▁asking	-9.29341
▁yes	-9.29464
▁reasons	-9.29471
▁medical	-9.29641
▁special	-9.29681
▁cool	-9.29706
▁act	-9.29723
▁journey	-9.29759
▁involved	-9.29827
▁sex	-9.30059
▁bigger	-9.30238
▁drive	-9.30308
▁changing	-9.30951
▁guess	-9.3113
▁By	-9.3116
▁street	-9.31167
▁generation	-9.31517
▁explain	-9.31688
▁message	-9.31848
▁groups	-9.31932
▁effect	-9.31989
▁computers	-9.32445
▁approach	-9.32672
▁choice	-9.32738
▁add	-9.32757
▁Google	-9.32808
."	-9.32894
▁beyond	-9.33118
▁putting	-9.33157
▁ice	-9.33189
▁pick	-9.33386
▁drug	-9.33437
▁lived	-9.3354
▁basic	-9.33617
▁towards	-9.33656
▁eye	-9.33746
▁stay	-9.33751
▁similar	-9.33775
▁several	-9.33789
▁likely	-9.33862
▁reach	-9.33918
▁solar	-9.34065
▁dead	-9.34187
▁Chinese	-9.34259
▁perfect	-9.34393
▁pictures	-9.34464
▁Yes	-9.34501
▁modern	-9.34923
D	-9.35307
▁drugs	-9.35317
▁hundred	-9.35426
▁becomes	-9.35627
▁First	-9.35634
▁writing	-9.35837
▁present	-9.35936
▁device	-9.36186
▁died	-9.36283
▁truth	-9.36467
▁box	-9.36735
▁potential	-9.36766
▁Oh	-9.36822
▁nine	-9.36837
▁teach	-9.37082
▁haven	-9.37531
▁software	-9.37721
▁communities	-9.37943
▁office	-9.3808
▁break	-9.38163
▁carbon	-9.38341
▁digital	-9.38415
▁With	-9.38566
▁un	-9.38665
r	-9.38704
▁Maybe	-9.38866
▁anybody	-9.38908
▁measure	-9.39166
▁action	-9.39758
▁After	-9.39861
▁Every	-9.39896
▁quality	-9.39901
▁particularly	-9.40131
▁D	-9.40342
▁higher	-9.40412
▁develop	-9.40849
▁certainly	-9.4085
▁rules	-9.40897
▁camera	-9.41
▁provide	-9.41186
▁month	-9.41216
▁violence	-9.41601
▁showing	-9.4173
▁Of	-9.41789
▁biggest	-9.42029
▁largest	-9.42153
▁object	-9.42195
▁moved	-9.42414
▁obviously	-9.42537
▁walking	-9.42552
▁mass	-9.42667
▁sit	-9.42673
▁schools	-9.4273
▁code	-9.42868
▁totally	-9.43047
▁hit	-9.43204
▁M	-9.43262
▁okay	-9.43272
▁exciting	-9.43273
▁onto	-9.43322
▁scientific	-9.43332
▁period	-9.43504
▁response	-9.43536
▁wall	-9.43931
▁materials	-9.43996
▁among	-9.44006
▁sounds	-9.44237
▁role	-9.44298
▁evolution	-9.44341
▁strong	-9.44489
▁cause	-9.44567
▁leaders	-9.44603
▁class	-9.44617
▁dream	-9.44722
▁worth	-9.44878
▁table	-9.44941
▁tend	-9.44983
▁extremely	-9.4503
▁aren	-9.4516
▁plants	-9.45223
▁examples	-9.4548
▁lead	-9.45638
Oh	-9.45765
▁results	-9.46044
▁nobody	-9.4606
▁follow	-9.46086
▁teachers	-9.46197
▁student	-9.46272
▁hour	-9.46584
▁ready	-9.46586
▁national	-9.46614
▁success	-9.46764
▁watching	-9.46989
▁further	-9.47059
▁fall	-9.47143
▁starts	-9.47233
▁everywhere	-9.47346
▁favorite	-9.47653
▁security	-9.47696
▁sun	-9.48312
▁eventually	-9.48368
▁African	-9.48373
▁individuals	-9.4839
▁allowed	-9.48495
▁crazy	-9.48633
▁continue	-9.48819
▁speed	-9.49135
▁expect	-9.49174
▁protect	-9.49174
▁North	-9.49415
▁named	-9.49552
▁creative	-9.49631
▁tree	-9.4971
▁skin	-9.4978
▁notice	-9.49848
▁plan	-9.49923
▁listen	-9.49966
▁choose	-9.50154
▁Even	-9.50262
▁vision	-9.50388
▁safe	-9.50435
▁grew	-9.50479
▁led	-9.50741
▁sleep	-9.50989
▁screen	-9.51286
▁plant	-9.51326
▁projects	-9.51336
▁trees	-9.51404
▁games	-9.5155
▁essentially	-9.51558
▁list	-9.51559
▁general	-9.51654
▁goal	-9.51716
▁village	-9.51853
▁objects	-9.51894
▁connected	-9.52246
▁models	-9.52348
▁wish	-9.5236
▁extraordinary	-9.52369
▁sent	-9.52438
▁movie	-9.52464
▁late	-9.52584
▁shown	-9.52586
the	-9.52665
▁poverty	-9.52667
▁families	-9.52906
▁bunch	-9.52911
▁meaning	-9.52938
▁pattern	-9.53192
▁memory	-9.53455
▁spread	-9.53483
▁thousand	-9.53507
▁robots	-9.53528
▁wife	-9.53755
▁college	-9.5398
▁jobs	-9.53983
▁Most	-9.54013
▁democracy	-9.54021
▁worse	-9.54088
▁including	-9.54294
▁taught	-9.54313
▁Chris	-9.5447
▁above	-9.54579
▁recognize	-9.54683
▁faster	-9.5489
▁somewhere	-9.54896
▁decision	-9.54953
▁son	-9.54974
▁smart	-9.54981
▁source	-9.55233
▁boy	-9.55295
▁record	-9.55308
▁hospital	-9.5531
▁supposed	-9.55425
▁lose	-9.5549
▁doctor	-9.55553
▁road	-9.55604
▁medicine	-9.55636
▁suddenly	-9.55693
▁fight	-9.55727
▁killed	-9.55747
▁police	-9.55774
▁ended	-9.55907
▁lower	-9.55919
▁allows	-9.55935
▁conditions	-9.5596
▁finding	-9.56053
▁meant	-9.56213
▁excited	-9.5624
▁happiness	-9.5625
▁increase	-9.56278
▁Those	-9.56282
▁activity	-9.56288
▁door	-9.56327
▁mine	-9.56361
▁larger	-9.56377
▁conversation	-9.56392
▁teacher	-9.56475
▁minute	-9.56528
▁Who	-9.56536
▁Today	-9.56554
▁West	-9.56584
▁positive	-9.56781
▁Where	-9.56875
▁near	-9.56978
▁wait	-9.57172
▁knows	-9.57261
▁visual	-9.57324
▁crisis	-9.57418
K	-9.57561
▁tool	-9.57641
▁rights	-9.57684
▁cases	-9.57698
▁standing	-9.57734
▁revolution	-9.57768
▁fire	-9.57796
▁wind	-9.57821
▁truly	-9.57964
▁fine	-9.58041
▁forest	-9.58047
▁indeed	-9.58249
▁Look	-9.58301
▁main	-9.58462
▁compassion	-9.58472
▁perspective	-9.58482
up	-9.58518
▁successful	-9.58804
▁impossible	-9.58843
▁context	-9.59236
▁older	-9.59261
▁buildings	-9.59318
▁exist	-9.59391
▁trust	-9.5946
▁fundamental	-9.59608
▁serious	-9.597
▁gas	-9.59723
▁site	-9.59734
▁complicated	-9.5999
▁kept	-9.60004
▁international	-9.60047
▁products	-9.60054
▁waste	-9.60155
We	-9.60247
▁traditional	-9.60286
▁genes	-9.60396
▁interest	-9.60508
▁organization	-9.60575
▁studies	-9.606
▁military	-9.60607
▁tells	-9.61542
▁kill	-9.61694
▁rich	-9.61736
▁reading	-9.61759
▁nuclear	-9.6188
▁HIV	-9.62062
▁service	-9.62117
▁region	-9.62266
▁workers	-9.62331
and	-9.62369
▁usually	-9.62395
▁moral	-9.62608
▁training	-9.62639
▁song	-9.62819
▁series	-9.63319
▁hot	-9.63953
▁smaller	-9.64
▁treatment	-9.64193
▁somehow	-9.64287
▁treat	-9.64372
▁subject	-9.64438
▁electricity	-9.64504
▁anymore	-9.6453
▁alive	-9.64555
▁stars	-9.647
▁pain	-9.6471
▁position	-9.64748
▁brains	-9.64756
▁progress	-9.64872
▁re	-9.64964
▁forms	-9.65231
▁TV	-9.65293
▁yeah	-9.65732
▁sorts	-9.65751
▁upon	-9.66096
▁wants	-9.66136
▁please	-9.66142
▁decisions	-9.66254
▁pieces	-9.66376
▁consider	-9.6647
▁travel	-9.66474
▁slow	-9.66512
▁private	-9.66705
▁version	-9.6674
▁touch	-9.66792
▁solutions	-9.66801
▁dangerous	-9.6697
▁biology	-9.66999
▁critical	-9.67006
▁becoming	-9.67048
▁price	-9.67076
▁freedom	-9.67096
▁patterns	-9.6721
▁bacteria	-9.67299
▁physics	-9.67346
▁specific	-9.67375
▁policy	-9.67616
▁written	-9.67697
▁career	-9.67746
▁skills	-9.67793
▁healthy	-9.67824
▁lines	-9.67857
▁actual	-9.67998
▁Like	-9.68267
▁wonder	-9.68577
an	-9.68947
▁anywhere	-9.68948
▁loved	-9.69051
▁page	-9.69172
▁expensive	-9.69201
▁zero	-9.69378
▁waiting	-9.69389
▁concept	-9.69558
▁points	-9.69864
▁bodies	-9.6989
▁cold	-9.699
▁earlier	-9.70184
▁famous	-9.70199
▁machines	-9.70376
▁weren	-9.70603
▁listening	-9.70663
▁Americans	-9.70941
▁War	-9.70992
▁search	-9.71097
▁intelligence	-9.71137
▁mental	-9.71235
▁t	-9.71253
▁doctors	-9.71359
▁seconds	-9.71369
l	-9.71382
▁institutions	-9.71394
▁architecture	-9.71497
▁immediately	-9.71501
▁clearly	-9.7153
▁citizens	-9.71596
▁direction	-9.71602
▁content	-9.71661
▁train	-9.71669
▁floor	-9.7176
▁Another	-9.71848
▁East	-9.71862
▁costs	-9.71922
▁address	-9.71936
▁range	-9.72083
▁shot	-9.72121
▁greatest	-9.722
▁math	-9.72386
▁peace	-9.72483
▁current	-9.72578
▁Which	-9.72596
▁throughout	-9.72635
▁neurons	-9.73182
▁greater	-9.7337
▁Don	-9.73476
▁himself	-9.73499
▁forth	-9.73503
▁Imagine	-9.73526
▁diseases	-9.73706
▁decade	-9.7392
▁pull	-9.74164
▁website	-9.74271
▁capital	-9.74315
▁connect	-9.74495
▁pressure	-9.74718
▁rise	-9.74819
▁income	-9.74846
▁fantastic	-9.74872
▁apply	-9.74944
▁walked	-9.74969
▁teaching	-9.74981
▁financial	-9.75006
▁store	-9.75026
▁driving	-9.75057
▁sell	-9.75064
▁City	-9.75267
▁P	-9.75292
▁University	-9.75529
▁governments	-9.75697
▁effective	-9.75705
▁board	-9.75808
▁massive	-9.75899
▁Are	-9.76
▁meeting	-9.76173
▁mobile	-9.76259
▁plastic	-9.76384
▁final	-9.76392
▁fuel	-9.76543
▁therefore	-9.76588
▁legs	-9.76653
▁practice	-9.76905
▁production	-9.76918
▁humanity	-9.76937
No	-9.7702
▁square	-9.77064
▁decide	-9.77117
▁arm	-9.77201
▁familiar	-9.7728
▁join	-9.77289
▁strange	-9.77546
▁except	-9.77599
▁dog	-9.77767
▁terrible	-9.77962
▁challenges	-9.7818
▁race	-9.78255
▁levels	-9.7827
▁services	-9.7841
▁connection	-9.78833
▁Mars	-9.78909
▁mom	-9.78985
▁path	-9.79047
st	-9.79056
▁sky	-9.79136
▁clean	-9.79266
▁decades	-9.79301
▁beauty	-9.79383
▁beings	-9.79406
▁performance	-9.79422
▁politics	-9.79443
▁following	-9.79575
▁extra	-9.79687
A	-9.79731
▁various	-9.79731
▁Two	-9.79795
▁values	-9.79939
▁female	-9.79943
▁engineering	-9.80041
▁virus	-9.80109
▁ahead	-9.80128
▁feed	-9.8022
▁minds	-9.80437
▁types	-9.80444
▁remarkable	-9.80464
▁instance	-9.80708
▁enormous	-9.80788
▁function	-9.80908
▁colleagues	-9.80947
▁useful	-9.80949
▁babies	-9.81172
▁although	-9.81178
▁invented	-9.8122
▁environmental	-9.81279
▁Many	-9.81471
▁helped	-9.81503
▁unique	-9.81509
▁raise	-9.81611
▁genetic	-9.81727
▁shared	-9.81949
▁programs	-9.82098
▁weight	-9.82147
▁willing	-9.82148
▁choices	-9.82173
▁obvious	-9.82296
▁London	-9.82342
▁prison	-9.82447
▁temperature	-9.82498
▁town	-9.82851
▁flying	-9.82895
▁wealth	-9.82921
▁male	-9.83014
▁understood	-9.83046
▁worst	-9.83053
▁sign	-9.83095
▁organizations	-9.8315
▁complete	-9.83238
▁draw	-9.83296
▁conflict	-9.8365
▁supply	-9.83763
▁possibly	-9.84125
▁anyway	-9.84314
▁push	-9.84324
▁slightly	-9.84499
▁web	-9.84509
▁survive	-9.84638
▁flow	-9.84717
▁sat	-9.84721
ic	-9.84768
▁effects	-9.84837
▁stopped	-9.84884
▁aid	-9.85045
▁recent	-9.85249
▁mostly	-9.85262
?"	-9.85293
▁television	-9.85302
▁win	-9.85368
▁de	-9.8538
▁fit	-9.85558
▁infrastructure	-9.85602
▁track	-9.85605
▁California	-9.85627
▁ran	-9.85641
▁laws	-9.85671
▁slide	-9.85718
▁below	-9.85736
▁artist	-9.85891
▁straight	-9.85964
se	-9.85993
▁foot	-9.86036
▁aware	-9.86226
▁streets	-9.86326
▁post	-9.864
▁From	-9.86445
▁magic	-9.86755
▁communicate	-9.86968
▁improve	-9.8714
▁J	-9.87203
▁urban	-9.87212
▁causes	-9.8724
▁heat	-9.87313
▁atmosphere	-9.87526
▁directly	-9.87572
▁capacity	-9.8762
▁task	-9.87691
▁quick	-9.87907
▁Afghanistan	-9.87931
like	-9.88018
▁term	-9.88187
▁secret	-9.88188
▁Instead	-9.88332
▁cultural	-9.88406
▁meters	-9.88476
▁popular	-9.88577
▁nation	-9.88652
▁forget	-9.88667
▁press	-9.88694
▁paid	-9.88841
▁gene	-9.8886
▁trade	-9.88876
▁explore	-9.88932
▁biological	-9.89125
▁purpose	-9.89162
▁rule	-9.89176
▁Think	-9.89358
▁achieve	-9.89377
▁easily	-9.89503
▁Western	-9.89548
▁summer	-9.89561
▁relationships	-9.89562
▁star	-9.89668
▁reduce	-9.89697
▁bed	-9.89873
▁Your	-9.89884
▁responsibility	-9.8991
▁birth	-9.90145
▁drop	-9.90199
▁text	-9.90209
▁societies	-9.90288
▁Facebook	-9.90297
▁bought	-9.90326
at	-9.90508
▁daughter	-9.90643
▁original	-9.90719
▁degrees	-9.90909
▁significant	-9.91075
▁twice	-9.91083
▁creativity	-9.91107
▁experiments	-9.91179
▁attack	-9.91186
▁worry	-9.91366
▁speaking	-9.91548
▁apart	-9.91566
▁dying	-9.91598
▁total	-9.91615
▁noticed	-9.91689
▁communication	-9.91831
▁legal	-9.91902
▁afraid	-9.91905
▁affect	-9.91954
▁sustainable	-9.91995
▁pre	-9.92001
▁rock	-9.92121
▁radio	-9.92139
▁event	-9.92181
▁shift	-9.92293
▁National	-9.92317
▁published	-9.92336
▁closer	-9.92449
▁played	-9.926
▁differently	-9.92658
▁funny	-9.92702
▁highly	-9.92847
▁return	-9.92886
▁dance	-9.92921
▁photograph	-9.93027
or	-9.93222
▁evolved	-9.9324
▁emotional	-9.93528
▁standard	-9.93651
▁boys	-9.9375
▁R	-9.93976
▁broken	-9.94024
▁oxygen	-9.94099
▁cover	-9.94197
▁Great	-9.94245
▁speech	-9.9439
time	-9.94448
▁inspired	-9.94504
▁stick	-9.94619
▁active	-9.94631
▁John	-9.94943
▁networks	-9.94964
▁devices	-9.94984
▁chemical	-9.95068
▁carry	-9.95081
▁window	-9.95151
▁conference	-9.95198
▁markets	-9.95259
▁central	-9.95354
▁Man	-9.95383
▁produced	-9.95484
▁character	-9.95523
▁scientist	-9.9556
▁religion	-9.95596
▁states	-9.95616
▁corner	-9.95971
▁helping	-9.96055
▁His	-9.96128
▁hole	-9.96143
▁answers	-9.9621
▁Dr	-9.96216
How	-9.96232
ever	-9.96304
as	-9.9675
▁forces	-9.96762
▁members	-9.96794
▁diversity	-9.96876
▁vast	-9.96912
▁planets	-9.96913
▁molecules	-9.96951
▁An	-9.96993
▁glass	-9.97028
▁sick	-9.97224
▁identity	-9.97285
▁nearly	-9.97318
▁gotten	-9.97318
▁passed	-9.97341
▁missing	-9.97342
▁basis	-9.97359
▁seemed	-9.9743
▁oh	-9.97509
▁designers	-9.97824
Why	-9.98064
is	-9.98078
▁surgery	-9.98143
▁discover	-9.98144
▁earth	-9.98299
▁email	-9.98512
▁hearing	-9.98903
▁hair	-9.99043
▁mission	-9.99097
▁spending	-9.99366
▁represent	-9.99398
▁complexity	-9.9947
▁trouble	-9.9947
▁eating	-9.9969
▁report	-9.99708
▁differences	-9.99771
▁pass	-9.99802
▁opposite	-9.99804
▁dreams	-9.99885
▁feels	-10.0015
▁cross	-10.0029
▁studying	-10.0036
▁investment	-10.0041
▁uses	-10.0042
▁forever	-10.0044
▁San	-10.0054
▁depend	-10.0078
▁condition	-10.0097
▁agree	-10.0101
▁engage	-10.0115
▁afford	-10.0119
▁Take	-10.0133
▁G	-10.0134
▁raised	-10.0139
▁etc	-10.016
▁civil	-10.0166
▁Indian	-10.0167
▁passion	-10.0177
▁focused	-10.0187
▁boat	-10.0192
▁describe	-10.0203
▁mountain	-10.0208
▁easier	-10.0209
▁core	-10.0218
▁genome	-10.022
▁none	-10.0224
▁dad	-10.0226
▁trial	-10.0227
▁fully	-10.0227
▁experiences	-10.0235
▁blind	-10.0268
▁interact	-10.028
able	-10.0284
▁birds	-10.0297
▁knowing	-10.0299
▁opportunities	-10.0299
▁giant	-10.0316
It	-10.0321
▁tremendous	-10.0342
▁party	-10.0344
▁photo	-10.0347
▁failure	-10.0354
based	-10.0383
▁enjoy	-10.0393
▁lucky	-10.0393
▁visit	-10.0426
▁notion	-10.043
▁Again	-10.0434
▁possibility	-10.0436
▁landscape	-10.0447
▁wild	-10.0452
▁importantly	-10.0461
▁distance	-10.0464
▁consciousness	-10.0486
▁ball	-10.0519
▁signal	-10.0525
▁despite	-10.0527
▁However	-10.0531
▁sold	-10.0531
▁justice	-10.0538
▁neighborhood	-10.0538
▁Over	-10.0543
ness	-10.0565
▁Brazil	-10.0574
▁ultimately	-10.0575
▁fairly	-10.0575
▁Actually	-10.0586
▁turning	-10.0588
▁respect	-10.0589
▁held	-10.0604
us	-10.0605
▁stress	-10.0617
term	-10.0619
▁stuck	-10.062
▁coffee	-10.0623
▁entirely	-10.0628
▁David	-10.0629
▁More	-10.0634
▁count	-10.0643
C	-10.0647
▁rid	-10.065
▁sharing	-10.0651
▁throw	-10.066
▁H	-10.0664
▁park	-10.0666
▁imagination	-10.0686
▁fix	-10.0687
▁painting	-10.0691
▁benefits	-10.0691
▁ancient	-10.0717
▁effort	-10.0727
▁Second	-10.0734
▁predict	-10.0744
▁co	-10.0753
▁emotions	-10.0765
▁lights	-10.077
▁tissue	-10.0777
▁Asia	-10.0795
▁definition	-10.08
▁European	-10.08
▁virtual	-10.0807
▁necessarily	-10.0808
▁phenomenon	-10.0809
▁structures	-10.0816
▁stem	-10.0846
▁Twitter	-10.0847
▁Iraq	-10.0856
▁Sometimes	-10.0863
▁check	-10.09
h	-10.0913
▁suffering	-10.0914
▁artists	-10.0922
▁husband	-10.0926
▁bone	-10.0927
▁opened	-10.0937
▁card	-10.0951
▁leadership	-10.0952
▁Middle	-10.0955
▁figured	-10.0956
▁sector	-10.0971
▁charge	-10.0974
▁efficient	-10.0984
▁Japan	-10.1
▁influence	-10.1
▁necessary	-10.1001
▁creates	-10.101
▁See	-10.101
▁Once	-10.1012
▁matters	-10.1016
▁cycle	-10.1026
▁negative	-10.1036
▁collective	-10.1048
▁university	-10.105
▁yellow	-10.1054
▁extreme	-10.1059
▁argument	-10.1067
▁creatures	-10.1069
▁loss	-10.1069
N	-10.1099
▁sorry	-10.1102
▁labor	-10.1108
▁brother	-10.1118
▁elements	-10.1129
▁pounds	-10.1131
▁campaign	-10.1141
▁failed	-10.1151
▁Go	-10.1152
▁religious	-10.1154
▁particles	-10.1158
▁background	-10.1171
▁brings	-10.1183
▁catch	-10.1184
▁studied	-10.12
▁phones	-10.1205
▁competition	-10.1225
▁argue	-10.1227
▁holding	-10.1237
▁responsible	-10.1247
▁bank	-10.1251
▁account	-10.1256
▁quote	-10.1258
▁sub	-10.1261
▁super	-10.1274
▁leading	-10.1276
▁gender	-10.1289
▁events	-10.1295
▁respond	-10.1296
dimensional	-10.1315
▁balance	-10.1327
▁river	-10.1333
▁strategy	-10.1346
▁farmers	-10.135
▁random	-10.1356
This	-10.1356
▁due	-10.137
▁lack	-10.138
▁finish	-10.1388
▁proud	-10.1393
▁Washington	-10.1395
▁compared	-10.1406
▁walls	-10.1412
▁Did	-10.1437
▁remind	-10.1442
▁offer	-10.1444
▁deeply	-10.1451
▁mouse	-10.1452
▁Mr	-10.1453
▁weird	-10.1454
▁Is	-10.1456
▁discovery	-10.146
▁letter	-10.1471
▁flight	-10.1481
▁childhood	-10.1501
▁adults	-10.1508
by	-10.1525
▁crime	-10.1527
▁sudden	-10.1545
▁lesson	-10.1548
▁leaving	-10.1549
▁invest	-10.1549
of	-10.1567
▁dollar	-10.1572
▁deliver	-10.1573
▁degree	-10.1582
▁British	-10.16
▁typical	-10.1603
▁double	-10.1606
▁managed	-10.1615
▁bridge	-10.1616
▁bees	-10.1623
▁contact	-10.1625
▁O	-10.1627
▁fighting	-10.1627
▁organisms	-10.1634
▁fascinating	-10.1651
▁unfortunately	-10.1651
▁W	-10.1656
▁majority	-10.166
▁watched	-10.1665
▁businesses	-10.167
▁benefit	-10.1671
▁equal	-10.1677
▁billions	-10.1683
▁F	-10.1701
▁sand	-10.1703
▁limited	-10.1708
▁French	-10.1708
▁caught	-10.1708
▁moments	-10.1718
▁Al	-10.1719
▁CO	-10.1722
▁edge	-10.1726
▁collect	-10.1731
▁industrial	-10.1746
▁commercial	-10.1754
▁finished	-10.1766
▁separate	-10.177
▁coast	-10.1772
▁engine	-10.1774
▁bird	-10.1794
▁wearing	-10.1832
▁transform	-10.1858
▁closed	-10.1862
▁engineers	-10.1871
▁believed	-10.1872
▁surprise	-10.1875
▁noise	-10.1899
▁hidden	-10.1912
▁colors	-10.1915
▁concerned	-10.1917
▁base	-10.1918
▁invisible	-10.1921
▁spaces	-10.1923
▁cloud	-10.1937
▁brand	-10.1938
▁related	-10.194
▁sister	-10.1946
▁sequence	-10.195
▁profound	-10.1963
▁otherwise	-10.1966
▁Web	-10.1967
▁leads	-10.1974
▁saving	-10.1976
▁followed	-10.1976
▁soil	-10.1981
▁interaction	-10.1998
▁constantly	-10.202
▁slowly	-10.2022
▁capable	-10.2025
▁Very	-10.2027
▁avoid	-10.2028
▁everyday	-10.2028
▁calls	-10.2059
▁oceans	-10.2065
it	-10.2084
▁kilometers	-10.2098
▁plane	-10.2117
▁insects	-10.212
▁helps	-10.213
▁married	-10.2131
▁highest	-10.2132
▁normally	-10.2133
▁prove	-10.2141
▁described	-10.2143
▁Have	-10.2145
▁block	-10.2147
▁trained	-10.2159
▁anti	-10.2161
▁civilization	-10.2164
▁sexual	-10.2183
▁safety	-10.2185
▁launched	-10.2186
▁currently	-10.2186
▁received	-10.2189
▁jump	-10.219
▁professional	-10.219
▁brilliant	-10.2208
i	-10.2232
▁sentence	-10.2239
▁mentioned	-10.2239
▁perfectly	-10.2242
▁hate	-10.2267
▁museum	-10.2275
▁multiple	-10.2291
▁enable	-10.2292
▁mathematics	-10.2293
▁fashion	-10.2314
▁folks	-10.2316
▁identify	-10.2335
▁honest	-10.2338
▁dinner	-10.234
▁b	-10.2343
▁graph	-10.2343
▁foreign	-10.2345
▁serve	-10.235
▁weapons	-10.2351
▁invited	-10.2353
▁surprised	-10.2359
▁principles	-10.2362
▁advantage	-10.2366
▁express	-10.2378
▁tens	-10.2383
▁leader	-10.2389
▁continent	-10.2396
▁traffic	-10.2402
▁survival	-10.2403
▁factory	-10.2409
▁Life	-10.2409
▁theater	-10.2416
▁Big	-10.242
▁bus	-10.2432
▁demand	-10.2435
▁article	-10.2443
▁protein	-10.2444
▁rain	-10.2451
▁manage	-10.246
▁grown	-10.2462
▁Everybody	-10.2469
▁steps	-10.2477
▁partner	-10.2498
▁gay	-10.2501
▁layer	-10.2504
▁consequences	-10.2519
▁considered	-10.2525
▁wave	-10.2528
▁smell	-10.2531
▁wake	-10.254
▁faces	-10.2542
▁leg	-10.2554
▁principle	-10.2554
▁magazine	-10.2556
▁Australia	-10.2559
▁paying	-10.2559
▁moon	-10.256
▁breast	-10.2561
▁era	-10.2566
▁threat	-10.2569
▁bear	-10.2575
▁begins	-10.2577
▁harder	-10.2588
▁shoes	-10.259
▁fell	-10.2593
▁exists	-10.2597
▁debate	-10.2604
▁signals	-10.2613
▁pages	-10.2621
▁detect	-10.2623
▁operating	-10.2629
▁GDP	-10.263
▁seriously	-10.2631
▁versus	-10.2635
▁Would	-10.2636
▁hell	-10.2642
▁ship	-10.2645
▁faith	-10.2647
▁detail	-10.2648
▁depression	-10.2648
▁prevent	-10.2649
▁tough	-10.2661
▁fill	-10.268
▁surprising	-10.2682
▁define	-10.2685
▁soldiers	-10.2686
▁Mexico	-10.2686
▁existence	-10.269
▁names	-10.2697
▁target	-10.2712
▁Does	-10.2713
▁spot	-10.2722
▁Good	-10.2723
If	-10.2737
▁paint	-10.2738
▁galaxies	-10.2741
▁worried	-10.2741
▁drawing	-10.2752
▁associated	-10.2752
▁mouth	-10.2753
▁match	-10.2762
▁direct	-10.2781
▁classroom	-10.2787
▁alternative	-10.2789
▁adult	-10.2793
▁creation	-10.2796
▁quantum	-10.2799
▁healthcare	-10.28
▁comfortable	-10.2803
▁unless	-10.2805
▁desire	-10.2835
▁molecule	-10.2845
▁coral	-10.2848
▁researchers	-10.2849
▁testing	-10.285
bringing	-10.286
▁Audience	-10.2862
▁planning	-10.2862
▁treated	-10.2871
▁moves	-10.2878
▁gold	-10.2883
▁island	-10.2885
▁letters	-10.2888
▁Be	-10.2889
▁compare	-10.2892
▁arms	-10.2903
▁platform	-10.2906
▁scene	-10.2911
▁marriage	-10.2913
▁cheap	-10.2913
▁belief	-10.2914
▁England	-10.2915
▁wisdom	-10.2916
▁equipment	-10.2916
▁Their	-10.2939
est	-10.2952
▁struggle	-10.2953
▁forced	-10.296
▁president	-10.2968
▁nervous	-10.2974
▁tons	-10.2975
▁George	-10.2981
▁designer	-10.2988
▁experts	-10.3
▁circle	-10.3016
▁whom	-10.302
▁L	-10.3033
▁daily	-10.3033
▁capture	-10.3034
▁hopefully	-10.3035
▁electric	-10.3038
▁Three	-10.3042
▁emissions	-10.3056
▁processes	-10.3059
▁date	-10.3059
▁release	-10.3077
▁spoke	-10.3079
▁exact	-10.3091
▁flu	-10.3095
▁hasn	-10.3103
▁stood	-10.3103
▁weather	-10.3105
▁consumption	-10.3107
▁wear	-10.3135
▁vehicle	-10.3144
▁dealing	-10.3144
▁autism	-10.3153
▁rural	-10.3156
▁Germany	-10.3157
▁feedback	-10.3158
▁chair	-10.3166
▁Everything	-10.3168
▁expected	-10.3171
▁picked	-10.3171
▁warming	-10.3172
▁statistics	-10.3177
▁organic	-10.3178
▁saved	-10.3186
▁lie	-10.3189
▁experienced	-10.3196
▁p	-10.3207
▁Bill	-10.3208
▁agriculture	-10.3214
▁chain	-10.3217
▁Richard	-10.3221
▁distribution	-10.3222
▁toward	-10.3241
▁calling	-10.3245
▁President	-10.3252
▁generations	-10.326
▁gap	-10.326
▁bread	-10.3272
▁increasingly	-10.3276
▁importance	-10.3277
▁motion	-10.3287
▁trip	-10.3287
▁filled	-10.3289
▁clinical	-10.3291
▁heads	-10.33
▁equivalent	-10.3311
▁vote	-10.3311
▁drink	-10.3316
▁engineer	-10.3321
▁ants	-10.3326
▁airplane	-10.3329
▁MIT	-10.3334
▁galaxy	-10.3335
▁technical	-10.3337
▁reaction	-10.3339
▁artificial	-10.334
▁analysis	-10.3342
▁fair	-10.3352
▁covered	-10.3364
▁fail	-10.3371
▁fourth	-10.3377
▁selling	-10.3377
▁Kenya	-10.3385
Hey	-10.3386
▁accident	-10.3388
▁dynamic	-10.3388
▁remote	-10.3393
▁Times	-10.3394
▁property	-10.3396
▁net	-10.3404
▁leaves	-10.3409
▁universal	-10.3409
▁inner	-10.3439
▁mothers	-10.3457
▁arrived	-10.3464
▁convinced	-10.3469
ers	-10.3479
▁lunch	-10.3484
▁keeping	-10.349
▁organized	-10.3491
▁accept	-10.3498
▁dry	-10.35
▁collection	-10.3521
▁hide	-10.3529
▁lies	-10.3547
▁caused	-10.355
▁seat	-10.3552
▁fields	-10.3563
▁damage	-10.3573
▁method	-10.3575
▁satellite	-10.3581
▁stupid	-10.3582
▁AIDS	-10.3583
▁desert	-10.3584
▁awful	-10.3585
▁heavy	-10.3589
▁ordinary	-10.3593
▁economics	-10.3596
▁Einstein	-10.36
▁Sun	-10.3601
▁users	-10.3604
▁switch	-10.3623
▁Iran	-10.3631
▁factors	-10.3633
▁launch	-10.3636
▁breath	-10.3637
one	-10.3639
▁shapes	-10.3644
▁yesterday	-10.3645
▁exchange	-10.3646
▁cognitive	-10.3648
▁dimensions	-10.3649
▁bar	-10.3655
▁suggest	-10.3684
▁s	-10.3684
▁connections	-10.3686
▁sad	-10.3688
▁appear	-10.3691
▁addition	-10.3707
▁muscle	-10.3707
▁interface	-10.3713
▁Japanese	-10.3715
▁wondering	-10.3733
▁driver	-10.3735
▁meat	-10.3737
▁killing	-10.3741
less	-10.3743
▁spirit	-10.3744
▁movies	-10.3749
▁opening	-10.3756
▁honor	-10.3767
▁curious	-10.377
▁losing	-10.3778
▁roll	-10.3784
▁released	-10.379
▁homes	-10.3803
▁remain	-10.3817
▁link	-10.3824
▁emotion	-10.3833
Yes	-10.3835
▁requires	-10.3835
▁epidemic	-10.3839
▁Center	-10.384
▁beat	-10.3851
▁cameras	-10.3852
▁intelligent	-10.3852
▁expression	-10.386
▁rare	-10.3863
▁independent	-10.3877
▁photos	-10.3881
▁introduce	-10.3894
▁underneath	-10.3901
▁metaphor	-10.3904
▁Amazon	-10.3904
c	-10.3906
▁construction	-10.3912
▁videos	-10.3916
▁sites	-10.3919
▁sending	-10.3938
▁cutting	-10.3946
▁strength	-10.3957
▁promise	-10.3957
▁players	-10.3964
▁electrical	-10.3965
▁Harvard	-10.3966
▁properties	-10.3966
▁rapidly	-10.3967
▁victims	-10.3968
▁rates	-10.397
▁malaria	-10.3973
▁voices	-10.3973
▁deeper	-10.3973
▁bottle	-10.3977
▁station	-10.3977
▁trillion	-10.3989
▁according	-10.399
▁credit	-10.3993
▁unit	-10.3993
▁languages	-10.4001
▁gain	-10.4013
▁movements	-10.4018
▁variety	-10.4033
▁professor	-10.4035
▁inequality	-10.4036
▁advanced	-10.4048
▁warm	-10.4059
▁resource	-10.4066
▁cards	-10.4076
▁empty	-10.4087
▁exercise	-10.4093
▁represents	-10.4096
▁battery	-10.4097
▁Francisco	-10.4097
▁Britain	-10.41
▁tomorrow	-10.4102
▁management	-10.4104
▁transition	-10.4118
That	-10.4126
▁broke	-10.4133
▁signs	-10.414
▁require	-10.4155
▁waves	-10.4158
▁essential	-10.4158
▁designing	-10.416
▁emerging	-10.4163
▁possibilities	-10.4163
▁poetry	-10.4165
▁carefully	-10.4165
▁risks	-10.4168
▁characters	-10.4171
▁wide	-10.4176
▁facing	-10.4179
▁medium	-10.4179
▁joy	-10.4182
▁flag	-10.4187
▁feelings	-10.4192
▁talks	-10.4196
▁gun	-10.4203
▁copy	-10.4211
▁messages	-10.4211
▁hadn	-10.4217
▁north	-10.4217
▁NASA	-10.4229
▁budget	-10.4233
▁nations	-10.426
▁Could	-10.4262
▁holes	-10.4283
▁gift	-10.4296
▁specifically	-10.4298
▁gentlemen	-10.4301
▁microbes	-10.4303
▁increasing	-10.4305
▁required	-10.4312
▁grandmother	-10.4312
▁regular	-10.4318
▁foundation	-10.4326
▁member	-10.4328
▁camp	-10.4331
▁lifetime	-10.4336
▁lay	-10.4338
▁trials	-10.4351
▁enter	-10.4351
▁absolute	-10.4358
▁chemistry	-10.4367
▁generate	-10.4369
▁graduate	-10.437
▁effectively	-10.4373
▁Congress	-10.4378
out	-10.4378
▁evil	-10.439
▁Street	-10.4399
▁farm	-10.4405
▁arts	-10.4406
▁former	-10.4409
▁convince	-10.442
▁vulnerable	-10.4436
▁location	-10.4443
▁fellow	-10.445
▁Last	-10.4451
en	-10.4451
▁finger	-10.4452
▁School	-10.4453
▁mid	-10.4454
▁pop	-10.4466
▁player	-10.4473
▁houses	-10.4478
▁trick	-10.4484
▁participate	-10.4489
▁Nigeria	-10.449
▁print	-10.4496
▁ride	-10.4497
▁relatively	-10.4503
▁Thanks	-10.451
▁transformation	-10.4514
▁producing	-10.4518
▁sources	-10.4567
▁mathematical	-10.4569
▁tradition	-10.4573
▁hurt	-10.4574
▁dots	-10.4576
▁details	-10.459
▁Los	-10.4603
▁depends	-10.4612
▁flat	-10.4626
▁crowd	-10.4639
▁Since	-10.4642
▁Canada	-10.4643
▁Anderson	-10.4644
▁climb	-10.465
▁user	-10.4651
▁funding	-10.4656
▁engaged	-10.4659
▁cure	-10.4662
▁bright	-10.4672
▁south	-10.4676
▁multi	-10.4676
▁fresh	-10.4678
▁lessons	-10.4678
▁politicians	-10.4678
▁o	-10.4682
▁frame	-10.4692
▁grade	-10.4693
▁encourage	-10.4699
▁teeth	-10.4709
▁pure	-10.4712
▁BG	-10.4712
▁lady	-10.4714
▁corruption	-10.4717
▁combination	-10.4723
▁replace	-10.4733
▁techniques	-10.4742
▁roof	-10.4746
▁buying	-10.4763
▁intellectual	-10.477
▁Her	-10.478
▁include	-10.478
▁roughly	-10.4781
▁Chicago	-10.4783
▁Institute	-10.4785
▁valuable	-10.4785
▁metal	-10.4785
▁chemicals	-10.4786
▁Israel	-10.4786
▁formed	-10.4787
▁invention	-10.4795
▁w	-10.4808
▁forests	-10.4808
▁fewer	-10.4815
▁mountains	-10.4841
▁coal	-10.4845
▁smile	-10.4846
▁mirror	-10.4852
▁spectrum	-10.4858
▁James	-10.4865
▁fossil	-10.4869
▁disaster	-10.4871
▁taste	-10.4872
▁outcome	-10.488
▁maps	-10.4885
▁previous	-10.492
▁primary	-10.4922
▁Anyway	-10.4924
▁dinosaurs	-10.4926
▁unusual	-10.493
▁Yet	-10.4934
▁ecosystem	-10.4937
▁vaccine	-10.494
▁bits	-10.4955
▁setting	-10.4956
▁cat	-10.4971
▁wood	-10.4976
▁note	-10.5
▁evolutionary	-10.5004
▁molecular	-10.5005
▁discussion	-10.5011
▁round	-10.5015
▁however	-10.5025
▁diet	-10.5041
▁manufacturing	-10.5069
▁transport	-10.5069
▁status	-10.507
▁reward	-10.5071
▁mistake	-10.5073
▁restaurant	-10.5084
▁poem	-10.5086
▁increased	-10.5099
▁nose	-10.5106
▁cultures	-10.5109
▁Come	-10.5111
▁goals	-10.5113
▁th	-10.5119
▁cave	-10.5119
▁remove	-10.5134
▁mention	-10.5134
▁definitely	-10.514
▁worldwide	-10.5142
▁flies	-10.5145
▁potentially	-10.5149
▁affected	-10.5154
▁protection	-10.5163
▁bubble	-10.5166
▁sugar	-10.5167
▁symptoms	-10.5168
▁row	-10.517
▁centers	-10.5171
▁carrying	-10.5175
▁sharks	-10.5185
hand	-10.5188
▁perform	-10.5198
▁radiation	-10.5215
ch	-10.5215
▁motor	-10.5216
▁Boston	-10.5217
▁battle	-10.5217
▁steel	-10.5218
▁Women	-10.5219
▁generally	-10.5219
▁applied	-10.522
▁sample	-10.5231
▁introduced	-10.5234
▁click	-10.5239
▁added	-10.524
▁Muslim	-10.5241
▁option	-10.5252
▁correct	-10.5262
▁thanks	-10.5278
▁staff	-10.5282
▁illegal	-10.5285
▁typically	-10.5291
me	-10.5292
▁viruses	-10.5298
▁pulled	-10.5299
ach	-10.5302
▁conscious	-10.5303
▁newspaper	-10.5308
▁opinion	-10.5308
▁awareness	-10.5309
▁reached	-10.5309
▁kitchen	-10.5316
▁blocks	-10.5317
▁hospitals	-10.5327
▁actions	-10.533
▁neighbors	-10.5331
▁i	-10.5359
▁YouTube	-10.5362
▁sophisticated	-10.5364
▁micro	-10.5365
▁operate	-10.5376
▁recorded	-10.5385
▁components	-10.5388
▁employees	-10.5389
▁traveling	-10.5393
▁fund	-10.5397
▁doubt	-10.5398
▁winter	-10.54
▁atoms	-10.5403
▁existing	-10.5409
▁soul	-10.541
▁France	-10.5432
▁meaningful	-10.5437
▁fundamentally	-10.5443
▁zoom	-10.5444
▁instrument	-10.5445
▁situations	-10.5448
▁factor	-10.5448
▁topic	-10.5455
▁Arab	-10.5457
▁la	-10.5469
▁joke	-10.5473
▁Paul	-10.5486
▁fat	-10.5489
▁'	-10.5493
▁criminal	-10.5496
▁interests	-10.5504
▁facts	-10.5509
▁physically	-10.5523
▁bomb	-10.5528
▁personally	-10.5529
▁regions	-10.5532
▁display	-10.5536
▁mechanism	-10.5536
▁Bank	-10.5539
▁Y	-10.5542
▁protected	-10.5548
▁tape	-10.5562
H	-10.5572
▁radical	-10.558
▁interview	-10.5582
▁liked	-10.5582
▁empathy	-10.5589
▁providing	-10.5592
▁activities	-10.5592
▁stronger	-10.5596
▁attacks	-10.5609
▁tumor	-10.5617
ng	-10.5618
▁quiet	-10.562
▁plus	-10.5634
▁element	-10.5637
▁organs	-10.565
▁fishing	-10.5651
▁Steve	-10.566
▁drives	-10.5663
▁combine	-10.5664
▁ultimate	-10.5666
▁mortality	-10.5667
▁Perhaps	-10.5668
▁innovative	-10.5669
▁scared	-10.5671
▁gravity	-10.5672
▁destruction	-10.5674
▁feature	-10.5674
▁naturally	-10.5679
▁awesome	-10.568
▁curve	-10.5684
▁mess	-10.5694
▁pleasure	-10.5698
▁collaboration	-10.5702
ally	-10.5704
▁conversations	-10.5706
▁ends	-10.572
▁reflect	-10.572
▁hydrogen	-10.5728
▁Russia	-10.5731
▁inspiration	-10.574
▁Valley	-10.5743
▁pollution	-10.5743
▁equality	-10.5751
▁joined	-10.5759
▁relative	-10.5772
▁consumer	-10.5778
scale	-10.5783
▁behaviors	-10.58
man	-10.5813
he	-10.5816
▁technological	-10.5821
▁false	-10.5822
▁productive	-10.5823
▁relevant	-10.5827
▁prepared	-10.583
▁While	-10.5832
▁aging	-10.5848
▁State	-10.5855
▁dogs	-10.5859
▁election	-10.5865
▁grid	-10.5868
▁features	-10.5871
▁solved	-10.5877
▁studio	-10.5889
▁eggs	-10.5891
▁laugh	-10.5898
▁dramatic	-10.59
▁policies	-10.59
▁practical	-10.5901
▁concrete	-10.5901
▁Also	-10.5902
▁privacy	-10.5902
▁democratic	-10.5905
▁hoping	-10.5905
▁computing	-10.5905
▁remains	-10.5906
▁efficiency	-10.5911
▁vehicles	-10.5912
▁algorithms	-10.5917
▁puzzle	-10.5917
▁printing	-10.592
▁Charles	-10.5925
▁environments	-10.5928
▁shark	-10.5933
▁perception	-10.5933
▁ancestors	-10.5941
▁processing	-10.5955
▁institution	-10.5957
ies	-10.5968
▁dropped	-10.598
▁authority	-10.598
▁underwater	-10.5981
▁cortex	-10.5981
▁passionate	-10.5985
▁Nobody	-10.5987
▁collected	-10.5988
▁singing	-10.5993
▁puts	-10.5996
▁pair	-10.5997
▁clip	-10.6003
▁Darwin	-10.6008
▁length	-10.6013
▁quarter	-10.6016
▁horse	-10.6016
▁operation	-10.6022
▁narrative	-10.6026
▁shop	-10.6034
▁organ	-10.605
▁Michael	-10.6051
▁lying	-10.6052
▁Pakistan	-10.6057
▁housing	-10.6061
▁Paris	-10.6064
▁breathe	-10.6066
▁visible	-10.6071
▁zone	-10.6107
▁ought	-10.6111
ity	-10.6126
▁sports	-10.6127
▁literature	-10.614
▁driven	-10.614
▁illness	-10.6141
▁transportation	-10.6141
▁surrounded	-10.6142
▁bag	-10.6145
▁equally	-10.6145
▁sing	-10.6152
▁notes	-10.6152
▁runs	-10.6155
▁hits	-10.6155
▁partners	-10.6163
▁tail	-10.6168
▁mile	-10.6173
▁hang	-10.6173
▁silence	-10.6173
▁organism	-10.6178
▁framework	-10.6181
▁chicken	-10.6181
▁mix	-10.6186
being	-10.6187
▁musical	-10.6194
▁afternoon	-10.6197
▁church	-10.6218
▁liquid	-10.6219
▁advice	-10.6223
▁challenging	-10.6223
▁swimming	-10.6224
▁clothes	-10.6225
▁King	-10.6235
▁acting	-10.6235
▁terrorism	-10.6236
▁largely	-10.6238
▁photographs	-10.6242
▁wine	-10.6243
we	-10.6246
▁parent	-10.6251
▁explained	-10.6251
▁occur	-10.6254
▁band	-10.6273
ion	-10.6278
▁thoughts	-10.628
▁shame	-10.6281
▁sides	-10.6287
▁chose	-10.6294
▁master	-10.6297
day	-10.6303
▁memories	-10.6304
▁psychology	-10.6304
▁fiction	-10.6313
▁infected	-10.6317
▁chart	-10.6334
▁agreed	-10.6334
▁younger	-10.6341
▁stock	-10.6341
▁trend	-10.6341
▁tested	-10.6348
▁aspect	-10.6349
▁functions	-10.6352
▁worker	-10.6357
▁crash	-10.6364
▁handle	-10.6366
▁embrace	-10.6375
▁appreciate	-10.6376
▁fingers	-10.6377
▁keeps	-10.6382
▁accurate	-10.6384
▁sunlight	-10.6387
▁contrast	-10.6387
▁burn	-10.639
▁occurred	-10.6391
▁Five	-10.6398
▁circumstances	-10.6412
▁peak	-10.6412
▁neighbor	-10.6422
▁falling	-10.6423
▁conclusion	-10.6425
▁iPhone	-10.6431
▁percentage	-10.644
▁tonight	-10.6446
Look	-10.6452
▁contribute	-10.6464
▁horrible	-10.647
▁conservation	-10.6471
▁Unfortunately	-10.6472
▁boring	-10.6475
▁Day	-10.6478
▁busy	-10.6481
▁fake	-10.6483
▁nowhere	-10.6484
▁stayed	-10.6488
▁Only	-10.6493
▁violent	-10.6496
▁confidence	-10.65
▁constant	-10.6503
▁defined	-10.6507
▁prime	-10.6507
▁applications	-10.6508
▁novel	-10.651
▁patent	-10.6512
▁presentation	-10.6514
▁hotel	-10.6514
▁greenhouse	-10.6517
▁split	-10.6518
▁button	-10.6528
▁mistakes	-10.6535
▁sensitive	-10.6539
▁rocket	-10.6541
▁reverse	-10.655
▁sensors	-10.655
▁selection	-10.6554
▁da	-10.6562
▁cooking	-10.6563
▁amounts	-10.6565
▁combined	-10.657
▁solid	-10.6582
▁assume	-10.6585
▁borders	-10.6595
▁statement	-10.6598
▁unknown	-10.6608
▁volume	-10.661
▁insight	-10.6611
▁options	-10.6615
▁admit	-10.6617
▁presence	-10.6624
▁GPS	-10.6638
▁flew	-10.6638
▁thin	-10.6638
▁angry	-10.6639
▁September	-10.664
▁figures	-10.6647
▁Something	-10.6653
▁jail	-10.6662
▁proteins	-10.6662
▁determine	-10.6666
▁score	-10.6673
▁danger	-10.6676
all	-10.6678
▁somewhat	-10.6679
▁laptop	-10.668
▁tracking	-10.6681
▁explanation	-10.6683
▁Number	-10.6699
▁suppose	-10.6712
▁entrepreneurs	-10.6714
▁resistance	-10.6724
▁sustainability	-10.6724
▁nor	-10.6728
▁closely	-10.6738
▁d	-10.6741
▁claim	-10.6748
▁parking	-10.675
▁cents	-10.6752
▁tests	-10.6753
▁upper	-10.6754
▁garden	-10.6757
▁abuse	-10.6764
▁swim	-10.677
▁spring	-10.6776
▁expert	-10.6778
▁stream	-10.6782
▁border	-10.6797
▁internal	-10.6805
▁stone	-10.6808
▁Angeles	-10.681
▁psychological	-10.6813
▁capitalism	-10.6815
▁fixed	-10.6824
▁harm	-10.6825
▁receive	-10.6829
▁House	-10.6832
▁attempt	-10.6836
▁grand	-10.6857
▁grab	-10.6859
▁repeat	-10.6861
▁records	-10.6863
▁Health	-10.6866
▁Park	-10.6866
▁exploration	-10.6873
▁controlled	-10.6879
▁marketing	-10.6893
▁marine	-10.6894
▁appropriate	-10.6894
▁laboratory	-10.6897
▁soft	-10.6902
▁burning	-10.6918
▁wars	-10.6938
▁provided	-10.6943
▁skill	-10.6952
▁plate	-10.6957
▁root	-10.6958
▁Project	-10.6959
▁prefer	-10.6961
▁director	-10.6968
▁overall	-10.6969
▁sweet	-10.6971
▁celebrate	-10.6974
▁PM	-10.6985
▁unlike	-10.6986
▁milk	-10.6987
▁centuries	-10.6987
▁Egypt	-10.6989
▁therapy	-10.699
▁mice	-10.6993
▁Before	-10.7002
▁suffer	-10.7008
▁faced	-10.7013
▁succeed	-10.7015
▁senses	-10.7017
▁shoot	-10.7021
▁collapse	-10.7026
▁silk	-10.703
▁signed	-10.7031
▁architect	-10.7032
▁Science	-10.7042
▁string	-10.7048
▁comfort	-10.7061
called	-10.7061
▁abstract	-10.7065
Do	-10.7065
▁evening	-10.7069
▁inspire	-10.7072
▁ladies	-10.7073
▁songs	-10.7078
▁causing	-10.708
▁rocks	-10.7084
k	-10.7088
▁tax	-10.7094
▁expand	-10.7105
com	-10.7109
▁secure	-10.711
▁wheel	-10.7111
▁roads	-10.7115
▁solving	-10.712
▁measured	-10.7121
▁technique	-10.7122
▁bones	-10.7123
▁height	-10.7125
▁electronic	-10.7128
▁deaths	-10.7138
side	-10.714
▁vessels	-10.7142
▁invite	-10.7158
▁clever	-10.716
▁struck	-10.7163
▁Obama	-10.7171
▁toxic	-10.7175
▁wondered	-10.7178
▁existed	-10.7181
▁logic	-10.7182
▁Apple	-10.7183
▁pushing	-10.7194
▁Wikipedia	-10.7196
▁survey	-10.7197
▁decline	-10.7204
▁application	-10.7213
▁German	-10.7217
▁app	-10.7224
▁phase	-10.7224
▁birthday	-10.723
▁piano	-10.7232
▁chip	-10.7233
▁customers	-10.7236
▁privilege	-10.7241
▁outcomes	-10.7241
▁Pacific	-10.7248
▁extent	-10.7254
▁Museum	-10.7255
▁trigger	-10.7255
▁emergency	-10.7255
▁destroyed	-10.7258
▁floating	-10.7261
▁transformed	-10.7262
▁Everyone	-10.7264
▁offered	-10.7264
▁classes	-10.7266
▁king	-10.7272
▁breathing	-10.7277
▁boxes	-10.7278
▁beach	-10.729
▁title	-10.7295
▁department	-10.7306
▁limb	-10.7313
▁maintain	-10.7325
▁Basically	-10.7343
▁library	-10.7346
▁economies	-10.7346
▁suggests	-10.7351
making	-10.7355
▁subjects	-10.736
▁educational	-10.7363
▁flowers	-10.7372
▁implications	-10.7374
▁translate	-10.7384
▁relate	-10.7386
G	-10.7394
▁creature	-10.7399
▁paradigm	-10.7403
▁economists	-10.7413
▁May	-10.7414
▁error	-10.7416
▁shoulder	-10.7417
▁K	-10.7419
▁pump	-10.7424
▁grandfather	-10.7427
▁N	-10.743
▁ignore	-10.7436
▁tall	-10.7437
▁shut	-10.7437
▁Thomas	-10.7437
▁Union	-10.7438
▁globe	-10.7439
T	-10.7439
▁films	-10.7443
▁symbol	-10.7448
▁wherever	-10.7453
▁army	-10.7453
▁drinking	-10.7454
▁season	-10.747
▁extract	-10.7471
▁aspects	-10.7486
▁finance	-10.7493
▁villages	-10.7499
▁monkey	-10.7512
▁carried	-10.7528
▁humor	-10.7528
▁measuring	-10.7529
▁identical	-10.753
▁June	-10.7531
▁Finally	-10.7532
▁recording	-10.7534
▁courage	-10.7535
Yeah	-10.7539
▁Remember	-10.7539
▁Please	-10.7541
▁feeding	-10.7546
▁profit	-10.7549
▁whales	-10.7551
▁rely	-10.7569
▁limits	-10.7572
▁prototype	-10.7573
▁continued	-10.7573
▁destroy	-10.7582
▁miss	-10.7584
▁Global	-10.7587
▁microscope	-10.7588
▁samples	-10.7597
▁severe	-10.7608
▁Korea	-10.7608
▁dramatically	-10.7622
▁engaging	-10.7623
▁shall	-10.7624
▁mechanical	-10.7626
▁standards	-10.7632
▁represented	-10.7646
▁Robert	-10.7653
▁savings	-10.766
▁evolve	-10.766
▁nest	-10.7665
▁phrase	-10.7667
▁judge	-10.7669
▁license	-10.7676
▁equation	-10.7683
▁sight	-10.7685
▁toilet	-10.7686
▁plans	-10.7687
▁input	-10.7687
▁instruments	-10.7691
▁dozen	-10.7696
▁careful	-10.7714
▁Christmas	-10.7715
▁neither	-10.7715
▁frankly	-10.7715
▁automatically	-10.7716
▁precisely	-10.7717
▁infinite	-10.7729
▁presented	-10.7743
▁males	-10.7747
▁linked	-10.7749
▁blow	-10.7752
▁spreading	-10.7758
▁raw	-10.776
▁prize	-10.7761
▁balloon	-10.7766
▁falls	-10.7779
▁Latin	-10.7788
▁January	-10.7815
▁distributed	-10.7819
▁tea	-10.7823
▁Islam	-10.7825
▁dense	-10.7846
▁teams	-10.7846
▁rational	-10.7848
▁Any	-10.7852
E	-10.7855
▁anger	-10.7856
▁disappear	-10.786
▁disorder	-10.7866
▁suit	-10.7867
▁component	-10.7873
▁arguments	-10.7873
▁fruit	-10.7875
▁surgeon	-10.7878
▁bike	-10.7884
▁truck	-10.7888
▁wireless	-10.7905
▁Sweden	-10.7907
▁hunger	-10.7908
▁intense	-10.791
▁invent	-10.7911
▁Will	-10.7919
▁overcome	-10.7921
▁traveled	-10.7926
▁snow	-10.7939
▁wire	-10.7941
down	-10.7941
▁adapt	-10.7941
▁counter	-10.7943
▁cow	-10.7948
▁architects	-10.7957
▁mammals	-10.7963
▁reference	-10.7966
▁colleague	-10.797
▁telescope	-10.7973
▁Other	-10.7977
▁clock	-10.7978
▁ears	-10.7979
▁whale	-10.798
▁corporate	-10.7982
▁Adam	-10.7987
▁parallel	-10.7994
▁conventional	-10.8003
▁Dan	-10.8003
▁committed	-10.8004
▁poorest	-10.8009
Okay	-10.802
▁papers	-10.802
▁obsessed	-10.8022
▁seek	-10.8026
ry	-10.8051
▁style	-10.8054
▁clinic	-10.8065
▁desk	-10.8072
▁weak	-10.8072
▁exhibition	-10.8075
▁performing	-10.8083
▁sets	-10.8091
▁bias	-10.8097
▁ideal	-10.8097
▁unexpected	-10.81
▁enemy	-10.8102
▁Foundation	-10.8102
▁pregnant	-10.8102
▁scary	-10.8104
▁personality	-10.8104
▁properly	-10.8105
▁insurance	-10.8105
▁dancing	-10.8107
▁controlling	-10.8109
▁Next	-10.811
▁immune	-10.8112
▁rooms	-10.812
▁thrown	-10.8127
▁achieved	-10.8134
▁organize	-10.814
But	-10.8147
▁increases	-10.8156
ian	-10.8161
▁Island	-10.8168
▁academic	-10.8171
▁contain	-10.8171
▁pocket	-10.8175
▁habitat	-10.8177
▁classic	-10.8178
▁smoke	-10.8188
▁cup	-10.8193
▁c	-10.8195
▁scan	-10.8199
▁Central	-10.8201
▁pollen	-10.8202
▁polio	-10.8203
▁spinal	-10.8204
▁journalist	-10.8206
▁recognition	-10.8207
▁mainly	-10.8208
▁behavioral	-10.8209
▁windows	-10.821
▁crying	-10.8213
▁entered	-10.8213
▁appeared	-10.8216
▁host	-10.8234
▁clouds	-10.8242
▁Four	-10.8243
▁lung	-10.8256
▁elephant	-10.8272
▁telephone	-10.8274
▁orbit	-10.8277
▁peer	-10.828
▁White	-10.8282
▁flower	-10.8288
My	-10.8293
F	-10.8294
▁painful	-10.8299
▁sphere	-10.8301
▁colony	-10.8301
▁exploring	-10.8302
▁methods	-10.8307
▁tired	-10.8307
▁missed	-10.8307
▁diverse	-10.8308
▁limit	-10.8321
▁rising	-10.8325
▁f	-10.8329
▁collecting	-10.8331
▁interacting	-10.8332
▁gang	-10.8356
▁divide	-10.8356
▁brothers	-10.8361
▁commitment	-10.8375
▁channel	-10.8377
▁vaccines	-10.838
▁populations	-10.8384
▁tries	-10.8388
▁Gulf	-10.8401
▁strategies	-10.8402
▁suicide	-10.8402
▁permanent	-10.8402
▁mystery	-10.8404
▁philosophy	-10.8405
▁stands	-10.8405
▁placed	-10.841
▁removed	-10.842
century	-10.8427
▁raising	-10.843
▁imagined	-10.8435
▁pro	-10.8436
▁connecting	-10.8441
▁pack	-10.8454
O	-10.8456
▁concern	-10.846
source	-10.8464
▁grass	-10.8472
▁Red	-10.8473
▁efforts	-10.8475
▁units	-10.8476
▁robotic	-10.8479
▁apartment	-10.8479
▁drove	-10.8486
▁engagement	-10.8486
▁bill	-10.8487
▁grows	-10.8488
▁gather	-10.8491
▁Africans	-10.8492
▁vertical	-10.8502
▁cord	-10.8502
▁plenty	-10.8504
▁Bush	-10.8504
▁embedded	-10.8504
▁Higgs	-10.8505
▁grain	-10.8505
▁darkness	-10.8506
▁brief	-10.8506
▁Microsoft	-10.8507
▁entertainment	-10.8509
▁International	-10.8511
▁cheaper	-10.8513
▁accepted	-10.8515
▁density	-10.852
▁Revolution	-10.8521
▁Nations	-10.853
▁gray	-10.8537
▁disorders	-10.854
▁recognized	-10.8556
▁escape	-10.8573
▁consumers	-10.8573
R	-10.8574
▁diagram	-10.8583
▁Voice	-10.8587
▁lifestyle	-10.8589
▁tube	-10.8595
▁shooting	-10.8599
▁rescue	-10.8607
▁Manhattan	-10.8607
▁universities	-10.8607
▁hardware	-10.8607
▁ridiculous	-10.8607
▁fascinated	-10.8608
▁curiosity	-10.861
▁heroes	-10.8612
▁recovery	-10.8614
▁isolated	-10.8615
▁appears	-10.8617
▁writer	-10.8621
▁attached	-10.8621
▁pushed	-10.8623
▁attract	-10.8627
hour	-10.8631
▁seeds	-10.8634
▁hero	-10.8638
▁odd	-10.8649
▁reaching	-10.8687
▁cartoon	-10.8688
▁sculpture	-10.8688
▁citizen	-10.8691
▁liver	-10.8692
▁directions	-10.8696
▁Talk	-10.8709
▁facial	-10.8711
▁hungry	-10.8714
▁productivity	-10.8714
▁surveillance	-10.8714
▁oldest	-10.872
▁produces	-10.8724
▁tasks	-10.8726
▁ha	-10.8728
▁divided	-10.8731
Let	-10.8732
▁captured	-10.8734
▁Art	-10.8734
▁globally	-10.8737
▁monkeys	-10.8753
▁antibiotics	-10.8755
▁Sea	-10.877
▁blog	-10.8771
W	-10.8776
▁acts	-10.8777
▁shock	-10.8778
▁estimate	-10.8781
ar	-10.8783
▁convert	-10.879
▁illusion	-10.8791
▁involves	-10.8792
▁Pole	-10.8801
▁Ph	-10.8802
▁Human	-10.8808
▁furniture	-10.8816
▁apparently	-10.8817
▁interactive	-10.8818
▁muscles	-10.8819
▁Texas	-10.882
▁court	-10.882
▁herself	-10.8821
▁virtually	-10.8821
▁promote	-10.8825
▁latest	-10.8825
▁usual	-10.8826
▁corals	-10.8834
▁Nothing	-10.8843
▁interactions	-10.8859
▁searching	-10.886
▁cook	-10.8861
▁needle	-10.8865
▁lovely	-10.8867
▁monitor	-10.8883
▁advance	-10.8885
▁practices	-10.8886
▁crops	-10.8894
▁volunteers	-10.8901
▁till	-10.8905
▁flip	-10.8907
▁loop	-10.8912
▁banks	-10.8916
▁ear	-10.892
▁Stanford	-10.8923
▁Indeed	-10.8926
▁dirty	-10.8927
▁extinct	-10.8928
▁Islamic	-10.8931
▁aside	-10.8941
▁laughing	-10.8943
▁Give	-10.8944
▁reported	-10.8952
▁dust	-10.8955
▁II	-10.8968
▁section	-10.8979
▁ring	-10.8981
▁behave	-10.8983
▁goods	-10.8984
▁penguins	-10.8989
▁walks	-10.8996
▁neighborhoods	-10.9006
▁Martin	-10.9006
▁agenda	-10.9012
▁particle	-10.9016
▁stations	-10.9022
▁federal	-10.9028
▁genius	-10.9029
▁Ghana	-10.903
▁Congo	-10.903
▁Department	-10.903
▁axis	-10.9031
▁dignity	-10.9031
▁magnetic	-10.9032
▁dioxide	-10.9033
▁Hollywood	-10.9033
▁underground	-10.9034
▁elsewhere	-10.9034
foot	-10.9038
▁V	-10.9039
▁parties	-10.904
▁cute	-10.906
▁Sam	-10.9073
▁expectations	-10.9077
▁hearts	-10.9086
▁shake	-10.9087
▁tip	-10.9089
▁meetings	-10.9106
▁paintings	-10.911
▁breaking	-10.9111
▁encounter	-10.9113
▁repair	-10.9117
▁concepts	-10.9133
▁pretend	-10.9138
▁cooperation	-10.9139
▁accessible	-10.914
▁prices	-10.9141
▁opposed	-10.9141
▁capita	-10.9142
▁spiritual	-10.9142
▁dedicated	-10.9142
▁obesity	-10.9144
▁exposed	-10.9149
ma	-10.9152
▁delivered	-10.9153
▁document	-10.9155
▁Atlantic	-10.9156
▁visited	-10.916
▁m	-10.9164
▁domestic	-10.9164
▁hall	-10.9172
▁wanting	-10.9178
▁fifth	-10.9184
olds	-10.9187
ne	-10.92
▁resolution	-10.92
class	-10.9205
way	-10.9211
▁generated	-10.9232
▁chocolate	-10.9233
▁Tom	-10.9236
▁ceiling	-10.9237
▁crucial	-10.9246
▁optimistic	-10.9249
▁Nobel	-10.9249
▁vital	-10.9251
▁historical	-10.9256
▁sheep	-10.9259
▁Woman	-10.9265
level	-10.9274
▁loud	-10.9274
▁surely	-10.9274
▁objective	-10.9276
▁locked	-10.9278
▁gut	-10.928
▁Really	-10.9289
American	-10.9293
▁protecting	-10.9301
ray	-10.9334
▁incentives	-10.9335
▁algorithm	-10.934
▁plot	-10.9342
▁Haiti	-10.9355
▁calculate	-10.9355
▁legacy	-10.936
▁frozen	-10.9361
▁hire	-10.9362
▁charity	-10.9363
▁disappeared	-10.9366
▁meter	-10.9368
▁contract	-10.9369
▁beliefs	-10.9378
▁layers	-10.9406
▁proper	-10.9417
dollar	-10.943
▁pile	-10.9431
▁subtle	-10.9439
▁functional	-10.9449
▁dress	-10.945
▁mad	-10.9451
▁tears	-10.9454
▁Space	-10.9461
▁official	-10.9462
▁route	-10.9462
▁debt	-10.9468
▁silent	-10.9471
▁transparency	-10.9472
▁brown	-10.9476
▁distant	-10.9477
le	-10.9485
▁refugees	-10.9486
▁amongst	-10.9491
▁Never	-10.9496
f	-10.9498
▁spoken	-10.9504
▁backwards	-10.9511
▁printed	-10.9513
▁react	-10.9521
▁myth	-10.9527
▁lecture	-10.9527
▁pool	-10.9531
▁ingredients	-10.9536
▁focusing	-10.9542
▁tag	-10.9554
u	-10.9568
▁motivation	-10.9569
▁talent	-10.957
▁welcome	-10.9573
▁dolphins	-10.9576
▁bicycle	-10.9577
▁lens	-10.9577
▁essence	-10.9586
▁circuit	-10.9587
▁uncomfortable	-10.9587
▁ugly	-10.9588
▁governance	-10.9589
▁affordable	-10.9589
▁announced	-10.959
▁diabetes	-10.9592
ation	-10.9592
▁Rio	-10.9595
▁integrated	-10.9598
▁chosen	-10.9602
▁sheet	-10.9608
▁investing	-10.9619
▁touched	-10.962
▁database	-10.9625
▁tap	-10.9639
▁drawn	-10.9643
▁reform	-10.9646
▁Was	-10.9669
▁fold	-10.9681
▁transfer	-10.9681
▁quit	-10.9685
▁guide	-10.9685
▁harvest	-10.969
▁refugee	-10.969
▁cash	-10.9696
▁grateful	-10.9698
▁pace	-10.9701
▁northern	-10.9701
▁chaos	-10.9701
▁rapid	-10.9701
▁dominant	-10.9702
▁agencies	-10.9703
▁defense	-10.9705
▁granted	-10.9706
▁Narrator	-10.9707
▁impacts	-10.9711
▁leap	-10.9715
▁programming	-10.9718
▁angle	-10.972
▁anxiety	-10.9727
▁contains	-10.9731
▁inspiring	-10.9734
▁Mary	-10.9738
▁theories	-10.9746
▁orange	-10.9749
▁cry	-10.976
▁characteristics	-10.9762
▁Tell	-10.9762
Don	-10.9775
▁load	-10.9785
▁filter	-10.9786
▁bio	-10.9787
▁thick	-10.9792
▁demonstrate	-10.9794
▁pitch	-10.9796
▁initial	-10.9803
▁spider	-10.9804
▁Ten	-10.9806
▁animation	-10.9808
▁earthquake	-10.9809
▁senior	-10.9809
▁analyze	-10.981
tech	-10.9812
▁depth	-10.9816
▁boundaries	-10.9817
▁discoveries	-10.9818
▁laughter	-10.982
▁inter	-10.982
▁drivers	-10.9821
▁advertising	-10.9822
▁chest	-10.9826
▁belong	-10.9832
▁diagnosed	-10.9833
▁actors	-10.9838
▁sum	-10.9841
▁storm	-10.985
▁US	-10.987
B	-10.9876
▁mark	-10.9884
▁hanging	-10.9887
▁consume	-10.989
▁favor	-10.9901
▁ten	-10.9904
ous	-10.9912
▁consequence	-10.9922
▁chapter	-10.9927
▁laser	-10.9927
▁intervention	-10.9928
off	-10.9929
▁terrorist	-10.9929
▁improvement	-10.9933
▁footprint	-10.9933
▁tragedy	-10.9935
▁neuroscience	-10.9935
▁struggling	-10.9935
▁probability	-10.9935
▁football	-10.9937
▁Antarctica	-10.9937
▁minister	-10.994
▁simplicity	-10.9941
▁fan	-10.9943
▁stable	-10.9955
▁tied	-10.9955
▁painted	-10.9956
nna	-10.9958
▁dive	-10.9969
▁designs	-10.9996
▁external	-11.0008
▁fuels	-11.0012
▁picking	-11.0019
▁emerge	-11.0022
▁Back	-11.0024
▁reveal	-11.0024
▁Frank	-11.0025
▁scales	-11.0026
▁clients	-11.0029
▁pilot	-11.0031
▁Muslims	-11.0035
▁drill	-11.004
▁conclude	-11.0042
▁nurses	-11.0043
▁CEO	-11.0044
▁attitude	-11.0044
▁script	-11.0046
▁Bang	-11.0046
▁farmer	-11.0048
▁neuron	-11.0051
▁Jewish	-11.0054
▁October	-11.0054
▁baseball	-11.0054
▁neural	-11.0055
▁Ocean	-11.0055
▁transparent	-11.0058
▁synthetic	-11.0061
▁Peter	-11.0062
▁agricultural	-11.0064
▁richer	-11.0066
▁identified	-11.0069
▁mechanics	-11.007
▁tackle	-11.0072
▁officer	-11.0072
▁dig	-11.0072
▁combat	-11.0075
▁Things	-11.0081
▁tank	-11.0082
▁lungs	-11.0087
▁communications	-11.0088
▁dependent	-11.0088
▁pour	-11.0089
▁passing	-11.009
▁reduced	-11.0092
▁served	-11.0092
▁slides	-11.0096
▁dozens	-11.0098
▁conflicts	-11.0107
▁romantic	-11.0107
▁relations	-11.0144
▁narrow	-11.0148
▁Uganda	-11.0148
▁variation	-11.0166
▁ensure	-11.0166
▁Alzheimer	-11.0174
▁DH	-11.0177
▁aircraft	-11.0177
▁slavery	-11.0177
▁symmetry	-11.0178
▁agency	-11.0179
▁speaker	-11.0182
▁terrorists	-11.0185
▁naked	-11.0185
▁Mother	-11.0187
▁laid	-11.0187
▁indicate	-11.0188
▁sensory	-11.0188
▁dynamics	-11.0191
▁apple	-11.0192
▁controls	-11.0193
▁Act	-11.0194
▁participants	-11.0196
▁suggesting	-11.0198
▁pointed	-11.02
▁iron	-11.0208
▁leverage	-11.021
▁hip	-11.0212
▁landed	-11.0214
▁lift	-11.0216
▁doors	-11.023
So	-11.023
▁reduction	-11.023
▁trends	-11.0236
▁east	-11.0245
▁mechanisms	-11.0258
▁Hi	-11.027
▁alien	-11.0271
▁lawyer	-11.0273
▁assumptions	-11.0273
▁continues	-11.0276
▁discuss	-11.0278
▁g	-11.0288
▁blame	-11.0289
▁strangers	-11.0291
▁physicist	-11.0293
▁River	-11.0294
▁Bible	-11.0295
▁capability	-11.0296
▁participation	-11.0296
▁Italy	-11.0297
▁spectacular	-11.0297
▁Green	-11.0297
▁tech	-11.0301
▁shrimp	-11.0302
▁pig	-11.0303
▁upset	-11.0307
▁gases	-11.0311
▁returned	-11.0313
▁smoking	-11.0319
▁pen	-11.032
▁failing	-11.0323
▁La	-11.0329
▁author	-11.0336
sum	-11.0339
▁roots	-11.0343
▁afterwards	-11.0347
▁earn	-11.0352
▁educated	-11.0363
▁command	-11.0368
▁dimension	-11.0376
▁lighting	-11.0397
▁musicians	-11.0401
▁Get	-11.0403
▁thinks	-11.0403
▁predictions	-11.0406
▁fluid	-11.0406
▁observation	-11.0416
▁reputation	-11.0418
▁dinosaur	-11.0419
▁happier	-11.042
▁facility	-11.042
▁biodiversity	-11.042
▁additional	-11.042
▁artistic	-11.0422
▁review	-11.0422
▁permission	-11.0422
▁briefly	-11.0422
free	-11.0424
▁rarely	-11.0424
▁photographer	-11.0426
▁originally	-11.0427
▁southern	-11.0429
▁plays	-11.043
▁merely	-11.0431
▁reminded	-11.0433
▁circles	-11.0441
▁origin	-11.0443
▁Third	-11.0445
▁Mark	-11.0447
▁separated	-11.045
▁crossing	-11.0456
▁Jim	-11.046
▁informed	-11.0463
▁edges	-11.0466
bout	-11.0469
▁mate	-11.047
▁electronics	-11.0476
▁sales	-11.0492
▁actor	-11.0495
▁luck	-11.0495
▁Bob	-11.0497
▁fed	-11.0502
▁navigate	-11.0511
▁seats	-11.0516
▁chimpanzees	-11.0516
▁tricks	-11.0525
There	-11.0527
▁Time	-11.053
w	-11.053
▁broad	-11.053
▁transplant	-11.0536
▁pink	-11.0541
▁confident	-11.0542
▁skull	-11.0543
▁reports	-11.0543
▁links	-11.0544
▁Obviously	-11.0545
▁begun	-11.0547
▁ethical	-11.0548
▁flexible	-11.0548
▁beer	-11.0548
▁Eastern	-11.0551
▁speakers	-11.0557
▁predicted	-11.0559
▁General	-11.0562
▁injury	-11.0563
▁grandchildren	-11.0567
▁marry	-11.0569
▁views	-11.0574
▁pulling	-11.059
▁sisters	-11.0596
▁victim	-11.0609
▁seed	-11.0611
▁Make	-11.0613
▁funded	-11.0622
▁elections	-11.0624
▁biologists	-11.0637
▁knee	-11.0645
▁ecosystems	-11.0645
▁includes	-11.0649
▁download	-11.0651
▁extend	-11.0651
▁Rwanda	-11.0656
▁Ethiopia	-11.0658
▁reefs	-11.0661
▁shelter	-11.0667
▁comment	-11.0669
▁district	-11.067
▁depressed	-11.0672
▁underlying	-11.0673
▁ignorance	-11.0675
▁session	-11.0675
▁glad	-11.0677
▁predator	-11.0681
▁suggested	-11.0682
▁Wall	-11.0685
▁algae	-11.0688
▁photography	-11.0689
▁proof	-11.0693
▁output	-11.07
▁expanding	-11.0701
▁frequency	-11.0707
▁elephants	-11.0708
▁determined	-11.0713
▁soap	-11.0715
▁symbols	-11.0722
▁flows	-11.0736
▁poet	-11.0757
▁Boy	-11.0764
▁weapon	-11.0775
▁crack	-11.0775
▁golf	-11.0785
▁boss	-11.0795
▁immediate	-11.0797
▁scenario	-11.0799
▁origami	-11.0799
▁inevitable	-11.08
▁shopping	-11.08
▁nerve	-11.0802
▁experiencing	-11.0802
▁tribes	-11.0805
▁heaven	-11.0805
▁significantly	-11.0807
▁domain	-11.0809
unclear	-11.0812
▁treatments	-11.0816
▁representation	-11.0819
▁toys	-11.0819
▁Nature	-11.0826
▁bars	-11.0836
▁chances	-11.0837
▁supported	-11.084
▁interestingly	-11.0841
▁Black	-11.0855
▁surfaces	-11.0862
▁partly	-11.087
ting	-11.0878
▁helpful	-11.0879
ther	-11.0883
▁owner	-11.0883
▁passwords	-11.0896
▁teenagers	-11.0903
▁meal	-11.0905
▁observe	-11.0913
Wow	-11.0919
▁tuna	-11.0919
▁pursue	-11.0921
ized	-11.0922
▁Oxford	-11.0929
▁innovations	-11.0931
▁fought	-11.0931
▁realm	-11.0931
▁shadow	-11.0931
▁buried	-11.0932
▁unlikely	-11.0933
▁unbelievable	-11.0933
▁radically	-11.0933
▁revenue	-11.0934
▁extended	-11.0935
▁lawyers	-11.0937
▁smarter	-11.094
▁Children	-11.0943
▁expansion	-11.0945
▁translated	-11.0947
▁safer	-11.0955
▁stages	-11.0964
▁killer	-11.0969
▁routine	-11.0971
▁urge	-11.0982
▁rough	-11.0984
▁sleeping	-11.0989
▁Child	-11.0989
▁Me	-11.0994
▁plug	-11.0995
▁fabric	-11.1002
▁operations	-11.101
▁balls	-11.1012
▁exception	-11.1025
▁mold	-11.1031
▁stops	-11.1033
Where	-11.1058
▁Florida	-11.1061
▁primitive	-11.1061
▁sacred	-11.1064
▁pyramid	-11.1065
▁globalization	-11.1065
▁soldier	-11.1066
▁fastest	-11.1067
▁experimental	-11.1069
▁tribe	-11.1069
▁dialogue	-11.1071
▁figuring	-11.1071
▁mixed	-11.1072
▁printer	-11.1073
▁constructed	-11.1075
▁abilities	-11.1075
▁positions	-11.1079
▁Prize	-11.1079
▁Long	-11.1082
▁firm	-11.1088
▁documents	-11.1088
▁Law	-11.1089
▁powers	-11.1089
▁entering	-11.1091
▁invested	-11.1094
▁throwing	-11.1103
▁brave	-11.1104
▁nets	-11.1105
▁mode	-11.1112
▁answered	-11.1137
▁stores	-11.1144
▁prisoners	-11.1149
▁sits	-11.1171
ary	-11.1172
▁panels	-11.1182
▁Spanish	-11.1194
▁primarily	-11.1194
▁dictionary	-11.1194
▁gradually	-11.1195
▁KB	-11.1197
▁mood	-11.1197
▁December	-11.1197
▁fragile	-11.1197
▁smallpox	-11.1198
▁imagery	-11.1198
clock	-11.12
▁skeleton	-11.1201
▁elite	-11.1201
▁Rome	-11.1201
▁shocked	-11.1204
▁transmission	-11.1205
▁arrested	-11.1205
▁proposed	-11.1205
ily	-11.1207
▁connectivity	-11.1208
▁accidents	-11.1214
▁daughters	-11.122
▁targets	-11.1227
half	-11.1237
When	-11.1246
▁bears	-11.1266
ted	-11.1267
▁De	-11.1271
▁caring	-11.1284
▁cats	-11.1287
▁Court	-11.1287
▁regime	-11.1292
x	-11.1296
▁arrive	-11.1318
▁refer	-11.1319
▁deserve	-11.1324
▁convey	-11.1325
▁corn	-11.1328
▁Smith	-11.1329
▁category	-11.1329
▁robust	-11.1333
▁adventure	-11.1333
▁widely	-11.1333
▁magical	-11.1336
▁medication	-11.1336
▁forgotten	-11.1336
▁satellites	-11.1337
▁smooth	-11.134
▁Soviet	-11.1341
▁Bay	-11.1342
▁reef	-11.1344
▁investors	-11.1349
▁fiber	-11.135
▁Hey	-11.1352
▁None	-11.1357
ce	-11.1358
▁spots	-11.1362
▁stroke	-11.1367
▁sentences	-11.1369
▁tour	-11.1371
▁Six	-11.138
▁breaks	-11.1383
letting	-11.1398
▁shaped	-11.1417
▁spin	-11.1433
▁recover	-11.1437
▁kick	-11.1454
▁poster	-11.1463
▁collaborative	-11.1466
▁whatsoever	-11.1466
▁capabilities	-11.1466
▁industries	-11.1466
▁frustrated	-11.1467
▁confused	-11.147
▁mosquito	-11.147
▁sandwich	-11.1475
▁simulation	-11.1475
▁demonstration	-11.1475
▁array	-11.1477
▁threats	-11.1477
▁successfully	-11.1478
▁civic	-11.1479
▁club	-11.1479
▁precise	-11.148
▁adopted	-11.148
▁fraction	-11.148
▁imaging	-11.1481
▁surprisingly	-11.1487
▁approaches	-11.1489
▁climbing	-11.1492
▁included	-11.1492
▁gathering	-11.1494
▁rush	-11.1506
▁trucks	-11.1508
▁High	-11.1512
▁founded	-11.1516
▁professionals	-11.1521
▁explaining	-11.1547
▁rivers	-11.1549
▁Up	-11.1554
▁wings	-11.156
▁rat	-11.1587
▁cast	-11.1588
▁polar	-11.1592
▁fabulous	-11.1603
▁file	-11.1604
▁consistent	-11.1604
▁hypothesis	-11.1605
▁Square	-11.1605
▁elderly	-11.1605
▁choosing	-11.1606
▁perceive	-11.1606
▁Turkey	-11.1608
▁sensor	-11.1609
▁Italian	-11.1609
▁silly	-11.1612
▁architectural	-11.1613
▁attractive	-11.1613
▁Somebody	-11.1614
▁burned	-11.1614
▁miracle	-11.1616
▁wider	-11.1616
▁strongly	-11.1618
▁nurse	-11.1618
▁infection	-11.1619
▁translation	-11.1619
▁emerged	-11.162
▁MRI	-11.162
▁wheelchair	-11.1622
▁physician	-11.1623
▁elected	-11.163
▁inches	-11.1631
▁farming	-11.1632
▁stranger	-11.1637
▁graphic	-11.1637
▁publish	-11.164
▁rice	-11.1643
▁survived	-11.1652
▁wired	-11.1657
▁chips	-11.1657
▁difficulty	-11.166
▁ages	-11.1676
▁holds	-11.1678
▁females	-11.168
▁regret	-11.1681
▁Research	-11.1698
▁sacrifice	-11.1703
▁ex	-11.1709
▁plain	-11.171
▁dear	-11.1714
▁mysterious	-11.1743
▁Norway	-11.1746
▁colonies	-11.1746
▁authorities	-11.1746
▁resilience	-11.1746
▁oxytocin	-11.1746
▁healthier	-11.1747
▁pride	-11.1747
▁instantly	-11.1748
▁bats	-11.1749
▁initially	-11.1749
▁closing	-11.1749
▁compelling	-11.1751
▁dolphin	-11.1758
▁Greek	-11.1758
▁description	-11.1759
▁keyboard	-11.176
▁Arabic	-11.1761
▁panel	-11.1762
▁threshold	-11.1763
▁thumb	-11.177
▁uncle	-11.177
▁lake	-11.1772
▁wealthy	-11.1772
▁opens	-11.1774
▁nutrients	-11.1776
▁copyright	-11.1779
▁autonomous	-11.178
▁channels	-11.1786
▁sport	-11.1793
▁covering	-11.1793
▁bags	-11.18
▁hackers	-11.1816
▁suspect	-11.1818
▁linear	-11.1822
▁pairs	-11.1823
▁Saturn	-11.1837
L	-11.1838
▁guns	-11.1845
▁forming	-11.185
uthern	-11.1867
▁steal	-11.1873
▁rebuild	-11.1877
▁February	-11.1889
▁trajectory	-11.1889
▁footage	-11.189
▁paralyzed	-11.189
▁structural	-11.1891
▁resist	-11.1891
▁wise	-11.1892
▁vacuum	-11.1892
▁fortune	-11.1895
▁reducing	-11.1897
▁suffered	-11.1897
▁Video	-11.1899
▁hitting	-11.1901
▁perceived	-11.1902
▁jumped	-11.1903
▁airport	-11.1904
▁egg	-11.1906
▁intuition	-11.1906
▁Gates	-11.1906
▁salt	-11.1906
▁Without	-11.1909
▁sticks	-11.1917
▁Ea	-11.1923
▁agent	-11.1923
▁Russian	-11.1927
▁cable	-11.1943
go	-11.1945
▁caves	-11.195
▁Asian	-11.1963
▁instructions	-11.1979
▁Put	-11.1981
▁bubbles	-11.1995
▁compete	-11.2008
▁traditions	-11.2024
▁restore	-11.2029
▁Ebola	-11.2033
▁minimum	-11.2034
▁tendency	-11.2034
▁methane	-11.2034
▁Cambridge	-11.2034
▁curriculum	-11.2034
▁excitement	-11.2034
▁optimism	-11.2034
▁March	-11.2034
▁qualities	-11.2034
▁microbial	-11.2037
▁bizarre	-11.2038
▁Northern	-11.2038
▁replicate	-11.2038
▁improving	-11.2039
▁unable	-11.204
OK	-11.2041
▁versions	-11.2041
▁interviewed	-11.2044
▁reactions	-11.2044
▁chairs	-11.2044
▁affects	-11.2046
▁fortunate	-11.2047
▁garage	-11.2051
▁intuitive	-11.2052
▁renewable	-11.2054
▁prediction	-11.2055
▁Ah	-11.2057
▁ill	-11.206
▁extinction	-11.2069
▁conservative	-11.207
▁writers	-11.2076
▁Should	-11.2077
▁socially	-11.2082
▁improved	-11.2083
▁worlds	-11.2083
▁prepare	-11.2083
▁serving	-11.2083
▁measures	-11.2088
▁upside	-11.211
▁articles	-11.2114
▁bucks	-11.2114
▁mail	-11.2117
▁preserve	-11.2118
▁supporting	-11.2134
▁instant	-11.214
▁tissues	-11.2144
▁bee	-11.2145
▁gods	-11.216
▁adjust	-11.2176
▁Arctic	-11.218
▁garbage	-11.2181
▁expertise	-11.2181
▁unprecedented	-11.2181
▁simultaneously	-11.2181
▁factories	-11.2182
▁genetically	-11.2183
▁clay	-11.2186
▁profoundly	-11.2187
▁clothing	-11.2187
▁Jesus	-11.2188
▁Silicon	-11.2188
▁threatened	-11.2188
▁expectancy	-11.2188
▁woke	-11.2191
▁Wow	-11.2192
▁remained	-11.2193
▁generous	-11.2193
▁reasonable	-11.2194
▁detailed	-11.2195
▁boom	-11.2195
▁quest	-11.2197
▁dish	-11.2199
▁trash	-11.2199
▁substance	-11.22
▁pandemic	-11.22
▁exponential	-11.2201
▁chief	-11.2216
▁mining	-11.2216
▁warning	-11.222
▁genocide	-11.2223
▁journalists	-11.2228
▁Eric	-11.2238
▁Through	-11.224
▁terror	-11.2248
▁assets	-11.2256
▁staying	-11.226
▁remembered	-11.2267
▁accounts	-11.227
▁Air	-11.227
▁wing	-11.2278
▁tumors	-11.228
▁bombs	-11.2283
▁cake	-11.2312
▁shell	-11.2318
▁washing	-11.2319
▁innocent	-11.2327
▁propose	-11.2328
▁absorb	-11.233
▁facilities	-11.233
▁disability	-11.233
▁beneath	-11.233
▁binary	-11.233
▁FBI	-11.2333
▁Blue	-11.2334
▁gentleman	-11.2334
▁golden	-11.2334
▁anonymous	-11.2335
▁audio	-11.2335
▁openness	-11.2336
▁collectively	-11.2337
▁Secondly	-11.2337
▁prosperity	-11.2338
▁silver	-11.234
nd	-11.2346
▁competitive	-11.2346
▁established	-11.235
▁photographed	-11.235
▁insect	-11.2351
▁demographic	-11.2352
▁Joe	-11.2353
▁remaining	-11.2359
▁intended	-11.236
▁odds	-11.2361
▁beautifully	-11.2364
▁drawings	-11.2364
▁native	-11.2367
▁winning	-11.2368
▁demands	-11.2375
cal	-11.2376
▁St	-11.2381
▁completed	-11.2385
▁corporations	-11.239
▁tracks	-11.239
▁loan	-11.2401
▁cyber	-11.2402
▁mimic	-11.2405
▁scores	-11.2406
▁besides	-11.2406
ie	-11.2436
▁liberal	-11.2436
▁owned	-11.2437
▁Gore	-11.2444
g	-11.2452
men	-11.2463
▁computation	-11.2466
▁astonishing	-11.2479
▁tragic	-11.2481
▁Although	-11.2482
▁contemporary	-11.2482
▁striking	-11.2482
▁diagnosis	-11.2482
▁gaps	-11.2483
▁realizing	-11.2485
▁witness	-11.2485
▁honey	-11.2487
▁homeless	-11.2488
▁opera	-11.2489
▁ownership	-11.2493
▁peaceful	-11.2499
▁ticket	-11.2504
▁comparison	-11.2505
▁delivery	-11.2505
▁extension	-11.2505
▁fate	-11.2507
▁helicopter	-11.2509
▁achievement	-11.2509
▁homework	-11.2513
minute	-11.252
▁Christian	-11.2521
▁portion	-11.2521
▁profile	-11.2528
▁spill	-11.2544
▁gear	-11.2545
In	-11.255
▁dumb	-11.2571
▁mathematicians	-11.2572
▁burden	-11.2579
▁headed	-11.2601
▁challenged	-11.2609
RB	-11.2613
▁Dur	-11.2617
▁friendly	-11.2621
▁aggressive	-11.2633
▁educate	-11.2634
▁luxury	-11.2635
▁Beijing	-11.2635
▁humanitarian	-11.2635
▁uncertainty	-11.2635
▁Moore	-11.2637
▁precious	-11.2637
▁Both	-11.2637
▁wildlife	-11.2637
▁Derek	-11.2639
▁Minister	-11.2643
▁conducted	-11.2643
▁beaten	-11.2647
▁glasses	-11.265
▁toy	-11.2651
▁dating	-11.2651
▁hired	-11.2652
▁bare	-11.2655
M	-11.2661
▁explosion	-11.2661
▁concentration	-11.2661
▁judgment	-11.2662
▁Sunday	-11.2663
▁encouraged	-11.2663
▁se	-11.2664
▁mindset	-11.2665
▁activist	-11.2667
▁listened	-11.2667
▁detection	-11.2674
▁badly	-11.2675
▁Sorry	-11.2676
▁influenced	-11.2677
▁wound	-11.2689
▁neat	-11.2694
▁rolling	-11.2698
▁forgot	-11.2698
▁profits	-11.2705
▁Ben	-11.2707
▁expecting	-11.2708
▁cheese	-11.2709
▁claims	-11.2716
▁ships	-11.2717
▁approaching	-11.2722
▁hill	-11.2724
▁Mom	-11.2734
▁ending	-11.2739
▁armed	-11.2752
▁bother	-11.2756
▁soup	-11.2769
um	-11.2779
▁Chile	-11.2783
▁acknowledge	-11.2785
▁alcohol	-11.279
▁August	-11.2791
▁Until	-11.2791
▁cosmic	-11.2791
▁exposure	-11.2791
▁magnitude	-11.2791
▁July	-11.2792
▁periods	-11.2792
▁Spain	-11.2792
▁terrifying	-11.2792
▁impressive	-11.2792
▁continuous	-11.2793
▁Santa	-11.2794
▁nearby	-11.2794
▁workforce	-11.2795
▁cotton	-11.2795
▁categories	-11.2795
▁analogy	-11.2796
▁fancy	-11.2796
▁vulnerability	-11.2799
▁physicists	-11.28
▁rubber	-11.2802
▁hardest	-11.2803
▁safely	-11.2805
handed	-11.2805
Can	-11.2807
▁horizon	-11.2816
▁hunting	-11.2818
▁nonprofit	-11.2821
▁agreement	-11.2821
▁musician	-11.2821
▁located	-11.2822
▁strike	-11.2823
▁entrepreneur	-11.2824
▁tongue	-11.2824
▁passenger	-11.2827
▁neck	-11.2828
▁discipline	-11.2834
▁sharp	-11.2837
p	-11.2842
▁telescopes	-11.2842
▁youth	-11.2844
am	-11.2847
▁rats	-11.2848
▁shots	-11.2852
▁crew	-11.2878
▁occurs	-11.2886
▁El	-11.2886
▁Scott	-11.2893
▁items	-11.2902
life	-11.2905
▁kills	-11.2915
▁distinct	-11.2939
▁damn	-11.294
▁branch	-11.294
▁Taliban	-11.295
▁matrix	-11.295
▁assistance	-11.295
▁enforcement	-11.295
▁deforestation	-11.295
▁terribly	-11.2951
▁campus	-11.2951
▁morality	-11.2952
▁historic	-11.2952
▁mobility	-11.2953
▁implement	-11.2955
▁hiding	-11.2956
▁gathered	-11.2958
▁temporary	-11.2959
▁Am	-11.2966
▁shit	-11.2968
▁Design	-11.297
▁tune	-11.2973
▁ignored	-11.2973
▁Lab	-11.2974
king	-11.298
▁bathroom	-11.2981
Sahara	-11.2982
▁purposes	-11.2983
▁assumption	-11.2983
▁subway	-11.2984
▁customer	-11.2986
▁secrets	-11.299
▁offering	-11.2992
▁islands	-11.2993
▁proved	-11.2993
▁someday	-11.2997
▁Islands	-11.2998
▁wash	-11.3008
▁researcher	-11.3014
▁obstacles	-11.3028
▁bug	-11.3032
▁bat	-11.3034
looking	-11.3038
▁Hello	-11.3039
▁engines	-11.3045
generating	-11.3046
cost	-11.3051
▁charges	-11.3054
▁loans	-11.3058
▁beating	-11.3066
▁newspapers	-11.3067
▁manager	-11.3068
▁parks	-11.307
▁outer	-11.3073
▁tower	-11.309
▁camps	-11.309
▁bottles	-11.3095
▁pigs	-11.3107
▁Saudi	-11.3111
▁Council	-11.3111
▁straightforward	-11.3112
▁legislation	-11.3112
▁occasionally	-11.3112
▁estate	-11.3113
tic	-11.3114
▁commit	-11.3114
▁Alexander	-11.3115
▁reliable	-11.3116
▁continuing	-11.3119
▁activate	-11.312
▁makers	-11.312
▁Mike	-11.3123
▁murder	-11.3132
▁grandparents	-11.3136
▁interpret	-11.314
▁stretch	-11.3141
▁client	-11.3143
▁column	-11.3144
▁construct	-11.3144
▁wrap	-11.3145
▁annual	-11.3145
▁scanner	-11.3145
▁recipe	-11.3146
▁drone	-11.3147
▁constraints	-11.3147
▁teenager	-11.3149
▁queen	-11.315
▁closest	-11.3153
▁loving	-11.3155
▁ratio	-11.3155
▁trace	-11.3162
▁static	-11.3163
▁limitations	-11.3167
ment	-11.3173
▁lock	-11.3173
▁install	-11.3176
▁scratch	-11.3181
▁Jack	-11.3181
▁NGOs	-11.3184
▁traits	-11.3184
▁sink	-11.3192
▁bow	-11.3192
▁transmit	-11.3196
▁insights	-11.3196
▁leaf	-11.3217
ealand	-11.3232
▁restaurants	-11.3237
▁frog	-11.3242
▁failures	-11.3242
▁Grand	-11.3245
▁concert	-11.3248
▁Homo	-11.3268
▁reproduce	-11.3268
▁highlight	-11.327
▁responses	-11.3272
▁genuine	-11.3275
▁excellent	-11.3276
▁pursuit	-11.3276
▁supplies	-11.3276
▁desperately	-11.3277
▁strategic	-11.3279
▁honestly	-11.3282
▁Vietnam	-11.3283
▁blank	-11.3284
▁succeeded	-11.3285
▁specialized	-11.3286
▁shipping	-11.3287
▁lamp	-11.3287
▁Ladies	-11.3288
▁wipe	-11.3288
▁glamorous	-11.3288
▁protest	-11.329
▁airplanes	-11.3294
▁volunteer	-11.3294
▁label	-11.3297
▁observed	-11.33
▁mapping	-11.3302
do	-11.3304
for	-11.3306
▁dressed	-11.3306
▁hook	-11.3306
▁graduated	-11.3306
▁proportion	-11.3311
▁manner	-11.3312
▁pause	-11.3312
▁procedure	-11.3313
▁administration	-11.3313
▁cartoons	-11.3314
▁household	-11.3316
▁hormone	-11.3316
▁kingdom	-11.3316
▁interpretation	-11.3322
el	-11.3324
▁concerns	-11.3325
▁vagina	-11.3328
▁Girl	-11.3333
▁discovering	-11.3334
▁Social	-11.3337
rs	-11.334
▁counting	-11.334
▁flowing	-11.334
▁shine	-11.3341
▁tie	-11.3343
zero	-11.3344
▁crimes	-11.3356
▁genetics	-11.3357
▁establish	-11.3357
▁Age	-11.3357
▁patents	-11.336
state	-11.3377
▁lions	-11.3397
▁reinvent	-11.3403
▁crop	-11.3405
P	-11.3405
▁drones	-11.3405
▁labs	-11.3409
▁activists	-11.3416
be	-11.3417
▁funds	-11.3423
ism	-11.3425
▁sustain	-11.3428
▁ongoing	-11.3431
▁comments	-11.3437
▁graphics	-11.3441
▁Bronx	-11.3442
▁earliest	-11.3442
▁indigenous	-11.3442
▁contrary	-11.3442
▁Almost	-11.3443
▁storytelling	-11.3443
▁classical	-11.3443
▁voting	-11.3445
▁blah	-11.3446
▁landing	-11.3446
▁bored	-11.3446
▁Army	-11.3447
▁dung	-11.3447
▁previously	-11.3447
▁yourselves	-11.3449
▁lowest	-11.3449
▁dawn	-11.3449
▁stability	-11.345
▁insane	-11.345
line	-11.345
LT	-11.3451
▁canopy	-11.3452
▁currency	-11.3455
▁Whereas	-11.3457
▁compassionate	-11.3458
known	-11.346
▁Technology	-11.3464
▁decrease	-11.3466
▁fortunately	-11.3468
▁illustrate	-11.347
▁package	-11.3471
▁classrooms	-11.3477
▁AK	-11.3479
▁vessel	-11.348
▁chimpanzee	-11.348
▁philosopher	-11.3481
▁appearance	-11.3481
▁incentive	-11.3482
▁rape	-11.3482
▁residents	-11.3484
▁surrounding	-11.349
▁pockets	-11.3493
▁offices	-11.3497
▁Whatever	-11.3501
no	-11.3501
ueen	-11.3503
▁Yorker	-11.3508
sized	-11.3508
▁Out	-11.351
made	-11.3511
▁mentor	-11.3527
you	-11.3541
▁rethink	-11.3551
▁explains	-11.3553
▁mayor	-11.3558
▁glue	-11.3558
▁managers	-11.3574
▁Ford	-11.3586
▁rope	-11.3598
▁Henry	-11.3611
▁Except	-11.3611
▁absence	-11.3611
▁miserable	-11.3612
▁storage	-11.3612
▁encouraging	-11.3613
▁ambitious	-11.3616
▁Nelson	-11.362
▁Twenty	-11.362
▁connects	-11.3622
▁Howard	-11.3623
▁passive	-11.3624
▁trauma	-11.3632
▁performed	-11.3635
▁guarantee	-11.3638
▁circuits	-11.364
▁monitoring	-11.364
▁manipulate	-11.3641
▁motivated	-11.3641
▁sauce	-11.3644
▁via	-11.3646
▁regard	-11.3647
▁exhibit	-11.3651
▁god	-11.3652
▁Friday	-11.3653
▁economist	-11.3653
▁eaten	-11.3654
▁marketplace	-11.3654
▁robotics	-11.3657
▁signature	-11.3658
▁impression	-11.3662
▁errors	-11.3671
▁pointing	-11.3682
▁rose	-11.3687
▁blogs	-11.369
▁fears	-11.3703
▁rituals	-11.3715
▁cap	-11.3717
▁proven	-11.3727
▁poems	-11.3737
▁Dad	-11.3746
▁Brown	-11.376
▁Indians	-11.3762
▁confront	-11.3768
▁physicians	-11.3771
ish	-11.3773
▁phenomena	-11.3782
▁Delhi	-11.3784
▁geometry	-11.3784
▁territory	-11.3784
▁dopamine	-11.3784
▁endangered	-11.3784
▁elementary	-11.3784
▁preparing	-11.3784
▁County	-11.3785
▁al	-11.3786
▁ecological	-11.3786
▁Johnson	-11.3786
▁Shanghai	-11.3788
▁branches	-11.3789
▁receiving	-11.3789
▁overnight	-11.3789
▁guilty	-11.3791
▁destiny	-11.3792
▁personalized	-11.3793
▁exploit	-11.3794
▁fits	-11.3794
▁Moon	-11.3798
▁neutral	-11.3799
▁Tim	-11.3801
▁Love	-11.3801
▁planes	-11.3805
▁clue	-11.3809
▁nuts	-11.3816
▁entry	-11.3817
▁diving	-11.3817
▁venture	-11.3819
▁promised	-11.3819
▁approached	-11.3826
▁barrier	-11.3828
▁William	-11.3829
▁pioneer	-11.3829
▁assignment	-11.3829
▁continents	-11.3829
▁downtown	-11.3831
▁catching	-11.3832
▁password	-11.3833
▁tsunami	-11.3833
▁Professor	-11.3833
▁recall	-11.3837
▁retirement	-11.3837
▁tension	-11.3838
▁clinics	-11.3845
▁deck	-11.385
▁sixth	-11.3852
▁van	-11.3853
▁prisons	-11.3865
▁wedding	-11.3866
▁logical	-11.3868
driven	-11.3877
▁shifting	-11.3881
▁tear	-11.3882
▁sees	-11.3885
▁psychologists	-11.3912
▁di	-11.3912
▁march	-11.3913
▁distances	-11.3917
▁landscapes	-11.3917
▁Bangladesh	-11.3919
▁habits	-11.3919
four	-11.3932
▁locations	-11.3939
rew	-11.3941
▁flags	-11.3941
▁agents	-11.3942
▁bet	-11.3945
▁sciences	-11.395
▁grave	-11.3951
▁teenage	-11.3954
▁Mandela	-11.3959
▁phantom	-11.3959
▁Carolina	-11.3959
▁terrified	-11.3959
▁seemingly	-11.396
▁occupy	-11.3962
▁entropy	-11.3962
▁relation	-11.3964
▁momentum	-11.3968
▁viral	-11.397
▁smallest	-11.3974
▁concentrated	-11.3974
▁profession	-11.3977
▁Peace	-11.3978
▁habit	-11.3983
▁Watch	-11.3984
▁resolve	-11.3986
▁estimated	-11.3986
▁yield	-11.3987
▁freely	-11.3987
▁acid	-11.3987
▁replaced	-11.3995
▁estimates	-11.4
▁proposition	-11.4006
▁palm	-11.4006
▁expedition	-11.4007
▁partnership	-11.4007
▁float	-11.4008
▁psychologist	-11.401
▁Gandhi	-11.401
▁devil	-11.4012
▁biologist	-11.4013
▁risky	-11.4017
▁interior	-11.4019
▁addiction	-11.402
▁wires	-11.4022
▁strip	-11.4024
▁reflection	-11.4024
age	-11.4026
▁temperatures	-11.4036
▁jet	-11.4036
▁portrait	-11.4048
J	-11.4054
▁formula	-11.4062
▁cellular	-11.4063
▁finds	-11.407
▁enabled	-11.408
And	-11.4083
▁seeking	-11.4092
▁pole	-11.4092
treating	-11.4103
▁bang	-11.4133
▁enemies	-11.4138
▁Seattle	-11.4138
▁Suddenly	-11.4138
▁ubiquitous	-11.4138
▁Koran	-11.4138
▁mainstream	-11.4139
▁flash	-11.414
led	-11.4142
▁breakfast	-11.4142
▁Anybody	-11.4143
▁predictable	-11.4143
▁Government	-11.4143
▁Industrial	-11.4144
▁calm	-11.4145
▁relief	-11.4147
▁empowered	-11.4147
▁mutual	-11.4147
▁stopping	-11.4148
▁selected	-11.4148
▁Dutch	-11.4149
▁steam	-11.415
▁gained	-11.415
▁trains	-11.4157
▁fallen	-11.4159
▁select	-11.4162
▁troops	-11.4164
▁Media	-11.4166
▁collapsed	-11.4168
▁contributed	-11.4169
▁Open	-11.4169
▁Little	-11.417
▁heading	-11.4171
▁Force	-11.4174
▁alternatives	-11.4175
▁raped	-11.418
▁electrodes	-11.4182
▁tubes	-11.4184
▁wheat	-11.4185
▁rainforest	-11.4189
▁banking	-11.4189
▁hemisphere	-11.4189
▁installation	-11.4189
▁electron	-11.4189
▁hated	-11.419
▁breakthrough	-11.419
▁initiative	-11.4194
▁e	-11.4199
▁pharmaceutical	-11.4204
▁formation	-11.421
▁altitude	-11.4211
▁highway	-11.4214
▁fires	-11.4216
▁measurements	-11.4216
▁slums	-11.4218
▁staring	-11.4228
▁Hall	-11.4229
▁headlines	-11.423
▁vegetables	-11.4233
related	-11.4236
▁Ma	-11.4241
▁cared	-11.4245
long	-11.4251
▁cycles	-11.4252
▁clusters	-11.426
▁bound	-11.4262
▁boats	-11.4265
▁heal	-11.4271
▁readers	-11.4272
ive	-11.4273
two	-11.4274
▁defend	-11.4298
▁despair	-11.4299
▁infections	-11.4305
▁unconscious	-11.4317
▁Bruno	-11.4319
▁cocaine	-11.4319
▁unhappy	-11.432
▁Rather	-11.432
▁devastating	-11.432
▁recycling	-11.432
▁regardless	-11.432
▁Ireland	-11.432
▁describing	-11.432
▁prevention	-11.4321
▁distinction	-11.4321
▁ecology	-11.4324
▁magnificent	-11.4324
▁jellyfish	-11.4324
▁blindness	-11.4326
▁selfish	-11.4326
▁farms	-11.4328
▁installed	-11.4336
▁pot	-11.434
▁ethnic	-11.4343
▁breeding	-11.4343
▁attacked	-11.4345
▁politically	-11.4346
▁officials	-11.4347
▁fusion	-11.4347
He	-11.4347
▁packed	-11.4348
▁asleep	-11.4349
▁locally	-11.4353
▁crossed	-11.4354
ical	-11.4355
▁appeal	-11.4358
▁amazingly	-11.4362
▁bend	-11.4363
▁transforming	-11.4364
▁journal	-11.4365
▁melt	-11.4367
▁institutional	-11.437
▁winds	-11.4371
▁request	-11.4371
▁sensation	-11.4371
▁Sir	-11.4372
▁pizza	-11.4373
▁sexy	-11.4374
▁asteroid	-11.4376
▁diameter	-11.4377
▁punishment	-11.4378
▁valley	-11.4379
▁punch	-11.4386
tropical	-11.4392
▁stored	-11.4394
▁Israeli	-11.4395
▁SS	-11.4399
land	-11.44
▁knock	-11.4404
▁nodes	-11.4405
▁extraordinar	-11.4409
▁dare	-11.4427
▁zones	-11.4428
income	-11.4436
▁offers	-11.4448
▁interviews	-11.4452
▁barriers	-11.4457
▁Turns	-11.4458
▁describes	-11.4485
▁dial	-11.449
▁fibers	-11.4495
▁asks	-11.4497
▁Church	-11.45
▁Syria	-11.4502
▁nerves	-11.4502
▁elegant	-11.4503
▁prior	-11.4504
▁horror	-11.4505
▁Brooklyn	-11.4505
▁November	-11.4505
▁nowadays	-11.4505
▁purple	-11.4505
▁schizophrenia	-11.4505
▁religions	-11.4505
▁Coke	-11.4505
▁prostate	-11.4505
▁spacecraft	-11.4505
▁legitimate	-11.4505
▁paradox	-11.4509
▁knife	-11.4509
▁chase	-11.451
ero	-11.451
▁arguing	-11.451
▁taxes	-11.4513
▁shirt	-11.4513
▁Home	-11.4513
▁College	-11.4514
▁Lincoln	-11.4514
▁weigh	-11.4514
▁drew	-11.4515
▁screaming	-11.4515
▁cooperate	-11.4517
▁variations	-11.4518
▁Swiss	-11.4519
▁infectious	-11.452
▁Ray	-11.4522
▁cricket	-11.4522
▁Someone	-11.4524
▁responded	-11.4525
▁onstage	-11.4528
ble	-11.4532
▁controversial	-11.4536
▁Half	-11.4536
▁scenes	-11.4541
▁advances	-11.455
▁nutrition	-11.4551
allowing	-11.4555
▁orchestra	-11.4556
▁worrying	-11.4559
▁aesthetic	-11.4562
▁supermarket	-11.4562
▁Brazilian	-11.4563
▁rhythm	-11.4563
▁contribution	-11.4563
▁gesture	-11.4564
▁cliff	-11.4564
▁suck	-11.4565
▁workplace	-11.4571
▁equations	-11.4573
▁Lake	-11.4579
▁Lord	-11.458
▁wheels	-11.4586
▁diarrhea	-11.4595
▁coat	-11.4598
▁puzzles	-11.4622
▁aim	-11.4627
powered	-11.463
ists	-11.4632
▁li	-11.4638
▁ink	-11.4666
▁adopt	-11.467
▁Indonesia	-11.4672
▁bold	-11.4675
▁disagree	-11.4679
▁Tanzania	-11.468
▁authentic	-11.4681
▁awkward	-11.4693
▁leather	-11.4693
▁phosphorus	-11.4694
▁inevitably	-11.4694
▁Berlin	-11.4694
▁speaks	-11.4694
▁spiral	-11.4695
▁amazed	-11.4696
▁accuracy	-11.4696
▁embarrassing	-11.4696
▁communicating	-11.4697
▁jazz	-11.4698
▁Gabby	-11.4698
▁smiling	-11.4699
▁regularly	-11.47
▁believing	-11.47
▁correctly	-11.47
▁Anyone	-11.47
▁technically	-11.4701
▁covers	-11.4703
▁seas	-11.4703
▁terrain	-11.4703
▁Leonardo	-11.4704
▁pill	-11.4704
▁halfway	-11.4706
▁tent	-11.471
▁publishing	-11.4711
▁calories	-11.4713
▁accomplish	-11.4723
▁mentally	-11.4724
▁approved	-11.4726
▁minus	-11.473
▁posted	-11.4735
end	-11.4737
▁logo	-11.4737
▁recommend	-11.4739
▁adapted	-11.4752
▁backyard	-11.4755
▁intersection	-11.4756
▁worms	-11.4758
▁syndrome	-11.4758
▁parachute	-11.476
▁drought	-11.4761
▁poll	-11.4766
▁trapped	-11.477
▁shelf	-11.4778
▁shy	-11.4783
▁format	-11.4797
All	-11.48
▁visualize	-11.4822
▁relatives	-11.4822
▁hormones	-11.4843
▁mosquitos	-11.4875
▁sperm	-11.4875
▁predators	-11.4882
▁hyper	-11.4883
▁glimpse	-11.4886
that	-11.4886
▁summarize	-11.4886
▁spinning	-11.4886
▁utterly	-11.4887
▁frequently	-11.4887
▁Hong	-11.4888
▁Nike	-11.4888
▁broader	-11.4889
▁competing	-11.489
▁Kevin	-11.489
▁historically	-11.489
▁slime	-11.489
▁Security	-11.489
▁lonely	-11.4891
▁disabled	-11.4891
▁accomplished	-11.4891
▁injured	-11.4892
▁MK	-11.4892
▁revealed	-11.4894
▁randomly	-11.4894
▁peers	-11.4894
▁priority	-11.4896
▁messy	-11.4899
▁abandoned	-11.4899
▁Brian	-11.49
▁slower	-11.4902
▁consciously	-11.4905
▁belongs	-11.4907
▁demonstrated	-11.4908
Who	-11.4909
▁enjoyed	-11.4909
▁consumed	-11.4912
▁tiles	-11.4922
▁planetary	-11.4927
▁drops	-11.4927
▁empower	-11.4928
▁nights	-11.4929
▁evolving	-11.4932
▁grasp	-11.4932
▁doubled	-11.4934
▁involve	-11.4939
▁simplest	-11.4941
interest	-11.4942
▁automobile	-11.4951
▁candidate	-11.4951
▁Jeff	-11.4951
▁behalf	-11.4952
▁System	-11.4952
▁cousin	-11.4955
▁rent	-11.4955
▁intention	-11.4957
▁cream	-11.4961
▁pulse	-11.4964
▁manual	-11.4965
▁touching	-11.4967
▁bills	-11.4968
▁girlfriend	-11.497
▁Show	-11.4971
▁calculations	-11.4975
ization	-11.4977
▁coin	-11.4978
▁bedroom	-11.498
▁sale	-11.4982
▁stays	-11.4993
▁Andrew	-11.4995
▁organizing	-11.5004
▁sectors	-11.5009
▁pills	-11.501
▁fo	-11.501
▁donor	-11.501
▁item	-11.5016
▁criminals	-11.5024
▁motors	-11.503
over	-11.5035
arely	-11.5049
▁rating	-11.5056
▁foundations	-11.5063
▁emails	-11.5064
▁cheat	-11.507
▁sake	-11.5074
▁analog	-11.5075
▁immense	-11.508
▁peculiar	-11.5081
▁Jupiter	-11.5082
▁welfare	-11.5082
▁Clinton	-11.5082
▁Switzerland	-11.5082
▁therapies	-11.5082
▁sanitation	-11.5082
▁Together	-11.5082
▁equity	-11.5082
▁nitrogen	-11.5083
▁realities	-11.5083
▁frightening	-11.5084
▁likelihood	-11.5086
▁hierarchy	-11.5087
▁remarkably	-11.5087
▁hometown	-11.5088
▁wrapped	-11.5088
▁observations	-11.5088
▁Stage	-11.5088
▁mankind	-11.5088
▁machinery	-11.5089
▁expanded	-11.5093
▁obese	-11.5096
▁switched	-11.5104
▁healing	-11.5108
▁Business	-11.5109
▁wishes	-11.5112
▁sheets	-11.5112
▁ski	-11.5115
▁dominated	-11.512
▁namely	-11.5121
▁destroying	-11.5123
▁accelerate	-11.5129
▁mask	-11.5133
▁audiences	-11.5136
▁stack	-11.5136
▁theme	-11.5137
▁compromise	-11.5139
▁pound	-11.5144
▁atomic	-11.5145
▁mushroom	-11.5149
▁pencil	-11.515
▁microphone	-11.515
▁smartphone	-11.5151
▁limbs	-11.5151
▁excuse	-11.5152
▁intensive	-11.5155
▁icon	-11.516
▁glacier	-11.516
▁bulb	-11.5161
▁bridges	-11.5171
▁colored	-11.5174
▁viewer	-11.518
▁blown	-11.5182
▁engineered	-11.5185
▁drag	-11.5188
▁shoulders	-11.5188
thirds	-11.5194
▁dies	-11.5206
▁distinguish	-11.5211
te	-11.5212
▁sir	-11.5213
▁ma	-11.5219
▁fired	-11.5235
▁trivial	-11.5241
▁crap	-11.5242
▁Coast	-11.5245
▁conduct	-11.5249
▁meals	-11.5261
▁anticipate	-11.527
▁eliminate	-11.527
▁harness	-11.5272
ine	-11.5273
▁employ	-11.5273
▁canvas	-11.5276
aeda	-11.5279
▁Catholic	-11.5282
▁exotic	-11.5282
▁Feynman	-11.5282
▁default	-11.5282
▁gorgeous	-11.5282
▁Organization	-11.5282
▁comic	-11.5283
▁kidding	-11.5284
▁PMS	-11.5285
▁Pretty	-11.5286
▁Saturday	-11.5287
▁deepest	-11.5287
▁stolen	-11.5288
▁ritual	-11.5289
▁integrate	-11.5291
▁lifted	-11.5291
▁Probably	-11.5292
▁Still	-11.5293
▁independence	-11.5296
▁attitudes	-11.5299
▁hacking	-11.5299
▁discussing	-11.5302
▁calculated	-11.5304
U	-11.5307
use	-11.5312
▁SW	-11.5313
▁screens	-11.5313
▁expressed	-11.5316
▁alarm	-11.5327
▁boots	-11.5328
five	-11.5334
▁publicly	-11.5334
▁teaches	-11.5334
▁cluster	-11.5335
▁reporting	-11.534
▁bullet	-11.5343
▁lanes	-11.5351
▁toilets	-11.5353
▁visualization	-11.5354
▁realization	-11.5354
▁stomach	-11.5354
▁kidney	-11.5355
▁summit	-11.5356
▁Telescope	-11.5356
▁Afghan	-11.5358
▁tolerance	-11.5358
b	-11.5361
▁mutation	-11.5361
▁lo	-11.5366
▁instruction	-11.5367
▁regulation	-11.5367
▁feminist	-11.537
▁marker	-11.5377
▁Try	-11.5377
▁laptops	-11.5384
▁worthy	-11.5386
▁reserves	-11.5396
▁stake	-11.5397
▁cows	-11.5401
degree	-11.5402
▁narratives	-11.5413
▁pipe	-11.5414
▁curves	-11.5418
▁whistle	-11.5419
▁topics	-11.5421
▁simpler	-11.5425
▁memes	-11.5425
▁opinions	-11.5428
▁Sure	-11.5435
▁tone	-11.5435
art	-11.5436
▁discussions	-11.5439
▁shower	-11.5447
▁dose	-11.546
▁x	-11.5474
▁foster	-11.5483
▁Watson	-11.5486
▁glucose	-11.5486
▁glamour	-11.5486
▁phenomenal	-11.5486
▁Monterey	-11.5486
▁biomass	-11.5486
▁abundance	-11.5486
▁Atlanta	-11.5486
▁insulin	-11.5486
▁iconic	-11.5486
▁overwhelming	-11.5486
▁Argentina	-11.5486
▁Daniel	-11.5487
▁handful	-11.5487
▁nano	-11.5489
▁flesh	-11.5489
▁collaborate	-11.5489
▁Stephen	-11.5491
▁ceremony	-11.5491
▁batteries	-11.5491
▁boundary	-11.5491
▁Shakespeare	-11.5491
▁typing	-11.5492
▁steppe	-11.5497
▁refused	-11.5498
▁pie	-11.5499
▁reflected	-11.55
▁warmer	-11.5502
▁interventions	-11.5504
▁shoe	-11.5505
▁origins	-11.5505
▁loads	-11.5506
▁discrimination	-11.5507
▁Parkinson	-11.5511
▁denial	-11.5511
▁planned	-11.5512
▁overhead	-11.5515
▁joint	-11.5524
id	-11.5525
▁privileged	-11.553
▁foods	-11.5534
▁kindness	-11.5538
▁compute	-11.5539
Is	-11.5539
▁Amy	-11.554
▁harbor	-11.555
▁Way	-11.5552
▁realistic	-11.5552
▁brush	-11.5557
▁separation	-11.5559
▁burst	-11.556
▁introduction	-11.5561
▁pigeon	-11.5562
▁chamber	-11.5563
▁Abraham	-11.5565
▁division	-11.5567
▁proposal	-11.5568
▁prisoner	-11.5576
▁stones	-11.5577
▁pan	-11.5583
▁principal	-11.5584
▁dropping	-11.5599
▁norms	-11.5602
▁sons	-11.5604
▁shops	-11.5605
▁compounds	-11.5605
three	-11.5606
▁horses	-11.5607
▁textbooks	-11.5608
▁resistant	-11.5641
Are	-11.5651
▁lethal	-11.5657
▁genomes	-11.5657
▁transit	-11.5661
▁investments	-11.5669
▁roles	-11.5672
▁negotiate	-11.5685
▁juice	-11.5688
▁Singapore	-11.569
▁theoretical	-11.5692
▁enhance	-11.5692
▁harmful	-11.5694
▁April	-11.5694
▁Supreme	-11.5694
▁heavily	-11.5694
▁Iceland	-11.5694
▁precision	-11.5694
▁harmony	-11.5694
▁Geographic	-11.5694
▁geography	-11.5694
▁philanthropy	-11.5694
▁offspring	-11.5695
▁cruel	-11.5695
▁fluorescent	-11.5695
▁cosmos	-11.5696
▁coverage	-11.5696
▁scaling	-11.5698
▁deployed	-11.5699
▁Society	-11.5699
▁elaborate	-11.57
▁thrilled	-11.57
▁rings	-11.5704
▁repeated	-11.5704
▁follows	-11.5705
▁Development	-11.5705
▁decent	-11.5706
▁labeled	-11.5706
▁youngest	-11.5707
▁sexually	-11.5708
▁orders	-11.5716
▁buses	-11.5716
▁useless	-11.5719
▁naive	-11.5722
▁maker	-11.5729
▁scanning	-11.5731
▁masses	-11.5742
▁Bell	-11.5742
▁poison	-11.5755
▁AB	-11.5759
▁informal	-11.576
▁carpet	-11.5762
▁spell	-11.577
▁duck	-11.5772
▁optical	-11.5773
▁heritage	-11.5774
▁destination	-11.5774
▁penguin	-11.5775
▁dilemma	-11.5775
▁LED	-11.5775
▁explored	-11.5776
▁suggestion	-11.5777
▁Lego	-11.5778
▁athletes	-11.5779
▁composition	-11.578
▁Olympic	-11.5781
▁medicines	-11.5781
▁enterprise	-11.5781
▁belly	-11.5786
▁fence	-11.5786
▁artwork	-11.5787
▁timing	-11.5791
▁survivors	-11.5793
▁reactor	-11.5799
▁findings	-11.5799
▁bonds	-11.58
▁determines	-11.5805
▁mount	-11.5811
Here	-11.5818
ate	-11.5824
▁meme	-11.5831
▁formal	-11.5835
▁websites	-11.584
▁Nick	-11.5844
▁keys	-11.5857
gotta	-11.5859
▁panic	-11.5862
▁projection	-11.5877
▁pray	-11.5885
▁coach	-11.5889
▁custom	-11.5891
▁shrink	-11.5894
▁investigate	-11.5895
▁bite	-11.5895
▁hunt	-11.5895
▁innovate	-11.5897
▁refuse	-11.5897
▁SP	-11.5899
▁consent	-11.5901
▁expressions	-11.5903
▁Jones	-11.5904
▁threaten	-11.5904
▁lands	-11.5907
▁Greece	-11.5907
▁bamboo	-11.5907
▁maximum	-11.5907
▁convicted	-11.5907
▁ideology	-11.5907
▁coordination	-11.5907
▁fisheries	-11.5907
▁nasty	-11.5907
▁documentary	-11.5907
▁Kong	-11.5907
▁corners	-11.5907
▁overwhelmed	-11.5908
▁consensus	-11.5909
▁contributing	-11.591
▁continuously	-11.591
▁happily	-11.5912
▁wooden	-11.5912
▁democracies	-11.5912
▁delicious	-11.5912
▁intact	-11.5912
▁comedy	-11.5913
▁recycled	-11.5915
▁kicked	-11.5915
▁boost	-11.5917
▁r	-11.5917
▁freezing	-11.5918
▁suspended	-11.5919
▁emotionally	-11.592
▁laughed	-11.5921
▁intensity	-11.5923
▁Co	-11.5924
▁trading	-11.5926
▁Wi	-11.5929
▁IBM	-11.5931
▁lit	-11.5936
▁returns	-11.5938
▁bacterial	-11.5938
▁actively	-11.5945
▁west	-11.5947
▁tight	-11.5947
▁candy	-11.5948
▁imagining	-11.5948
▁Milk	-11.5953
▁pants	-11.5954
▁Whe	-11.5958
▁responding	-11.5963
world	-11.5964
▁computational	-11.5966
▁planted	-11.5967
▁argued	-11.5967
▁visiting	-11.5969
▁strands	-11.5974
▁charged	-11.5976
▁advocate	-11.5978
▁civilizations	-11.5979
▁rotate	-11.598
▁wrist	-11.5983
▁implant	-11.5984
▁tunnel	-11.599
so	-11.599
▁instinct	-11.5992
▁vacation	-11.5996
▁hopeful	-11.5997
▁fraud	-11.5999
▁migration	-11.6
▁gains	-11.6011
▁chronic	-11.602
word	-11.602
▁guards	-11.6026
▁mesh	-11.6027
▁spare	-11.6032
▁metric	-11.6035
▁Steven	-11.6047
▁lion	-11.6048
▁electrons	-11.6068
hat	-11.6077
nt	-11.6078
Please	-11.6083
▁log	-11.6091
▁ant	-11.6105
▁broadcast	-11.6108
▁Part	-11.6109
▁chains	-11.6114
▁jihad	-11.6114
▁Tony	-11.612
▁desperate	-11.6122
▁Trade	-11.6124
▁Copenhagen	-11.6124
▁basketball	-11.6124
▁minority	-11.6124
▁staircase	-11.6124
▁JF	-11.6124
▁livestock	-11.6124
▁History	-11.6125
▁systematically	-11.6125
▁sequencing	-11.6125
▁journalism	-11.6125
▁injuries	-11.6126
▁pleasant	-11.6126
▁emphasize	-11.6127
▁intimate	-11.6128
▁circular	-11.613
▁confronted	-11.6131
▁witnessed	-11.6132
▁remotely	-11.6132
▁irony	-11.6132
▁seal	-11.6134
▁endless	-11.6135
▁cattle	-11.6135
▁index	-11.6136
▁losses	-11.614
▁defining	-11.6142
▁USA	-11.6143
▁trips	-11.6144
▁Arabia	-11.6144
ory	-11.6145
▁deadly	-11.6146
▁occurring	-11.6146
▁sooner	-11.6147
▁subjective	-11.6147
▁deals	-11.6154
red	-11.6154
▁regulate	-11.6154
tail	-11.6159
▁demo	-11.6161
▁duty	-11.6162
▁Jews	-11.6165
skeletal	-11.6169
▁Keep	-11.617
▁Academy	-11.618
▁mines	-11.6182
▁prey	-11.6185
▁returning	-11.6191
▁intent	-11.6192
▁ultra	-11.6193
▁infant	-11.6194
ha	-11.6194
▁texture	-11.6198
▁programmers	-11.6204
▁transcend	-11.6204
▁sweat	-11.6206
▁lap	-11.6208
▁hostile	-11.6209
profit	-11.6211
▁incident	-11.6213
▁strings	-11.6214
▁slice	-11.6214
▁mathematician	-11.6215
▁textbook	-11.6215
▁representative	-11.6223
▁Titan	-11.6224
▁whoever	-11.6224
▁scheme	-11.6224
▁barrel	-11.6227
▁inch	-11.6234
▁Seven	-11.6235
▁h	-11.6239
can	-11.6248
month	-11.6248
un	-11.6249
▁RS	-11.625
▁comics	-11.6251
▁gross	-11.6255
percent	-11.626
▁Korean	-11.6261
z	-11.6263
▁mutations	-11.6264
▁regulations	-11.6265
▁plastics	-11.6269
▁alter	-11.6273
changing	-11.6275
▁pulls	-11.6287
▁disasters	-11.63
▁inject	-11.6305
▁pit	-11.6333
▁attach	-11.6334
▁accumulate	-11.6336
▁fathers	-11.6337
▁concentrate	-11.6339
▁spray	-11.6341
▁Detroit	-11.6346
▁kiss	-11.6346
▁gallery	-11.6346
▁Berkeley	-11.6346
▁Jerusalem	-11.6346
▁lottery	-11.6346
▁Aristotle	-11.6346
▁grocery	-11.6346
▁helium	-11.6347
▁Benjamin	-11.6347
▁transformative	-11.6347
▁LG	-11.6347
▁literacy	-11.6347
▁acquire	-11.6349
▁unfortunate	-11.635
▁recognizing	-11.635
▁managing	-11.6351
▁rejected	-11.6351
▁ooh	-11.6351
▁Virginia	-11.6352
▁accelerating	-11.6352
▁implemented	-11.6354
▁accountability	-11.6354
▁farther	-11.6356
▁NSA	-11.6357
▁attracted	-11.6357
▁eastern	-11.6358
▁Ed	-11.6358
▁inflation	-11.6359
▁trafficking	-11.6366
▁airline	-11.637
▁analyzed	-11.6371
▁asthma	-11.6373
ful	-11.6374
▁Arthur	-11.6375
▁shifted	-11.6376
▁melting	-11.6382
▁assumed	-11.6382
▁inmates	-11.6384
▁passes	-11.6387
▁waited	-11.6391
▁platforms	-11.6396
▁documented	-11.6398
▁smells	-11.6405
▁astronomers	-11.6407
▁cope	-11.6412
▁sticking	-11.6414
▁arrest	-11.6416
▁MR	-11.6417
▁twins	-11.642
▁surgeons	-11.6423
▁compound	-11.6423
▁fault	-11.6436
▁occasion	-11.6436
▁drunk	-11.644
▁dis	-11.644
▁fatal	-11.6442
▁collision	-11.6442
speed	-11.6446
▁mammal	-11.6447
▁Egyptian	-11.6448
▁craft	-11.6455
cause	-11.6456
quality	-11.6479
▁span	-11.6488
▁builds	-11.6495
aking	-11.6497
▁regenerate	-11.6505
V	-11.6508
▁assembly	-11.6508
▁ties	-11.6511
▁rewards	-11.6523
▁protests	-11.6523
▁interconnected	-11.6526
▁ads	-11.655
izing	-11.6551
▁ban	-11.6551
▁bin	-11.6552
▁borrow	-11.6552
▁generates	-11.6553
▁believes	-11.6557
▁clubs	-11.6559
▁simulate	-11.6565
▁apps	-11.6571
▁associate	-11.6572
▁Men	-11.6573
▁blew	-11.6573
▁neocortex	-11.6574
▁surgeries	-11.6574
▁anniversary	-11.6574
▁Netherlands	-11.6574
▁recession	-11.6574
▁criteria	-11.6574
▁transmitted	-11.6575
▁inherently	-11.6576
▁browser	-11.6576
▁carries	-11.658
▁pad	-11.658
▁Cape	-11.6582
▁probe	-11.6583
▁JS	-11.6583
▁FDA	-11.6584
▁SETI	-11.6584
▁headquarters	-11.6585
▁economically	-11.6586
▁talented	-11.659
▁bush	-11.6591
▁achieving	-11.6595
▁longest	-11.66
Y	-11.66
▁acres	-11.6601
▁matched	-11.6607
▁Education	-11.661
chasing	-11.6621
▁forgive	-11.6627
▁filling	-11.6638
human	-11.6641
"?	-11.6641
▁texting	-11.6642
▁surround	-11.6646
digit	-11.6648
▁y	-11.6659
▁prototypes	-11.666
▁Star	-11.6664
▁integration	-11.6665
▁guard	-11.6669
▁reserve	-11.667
▁Jordan	-11.6674
▁lifespan	-11.6674
▁ingredient	-11.6674
▁hoped	-11.6674
▁ambition	-11.6675
▁membrane	-11.6676
▁Gold	-11.6676
▁plates	-11.6679
▁outbreak	-11.668
▁spreads	-11.668
▁flavor	-11.6681
▁bond	-11.6683
▁winner	-11.6684
▁loose	-11.6692
▁detector	-11.6693
▁streams	-11.6693
▁raises	-11.6695
▁submit	-11.6695
▁posed	-11.6698
▁fever	-11.6699
▁deposit	-11.671
▁candidates	-11.6728
▁fees	-11.6729
God	-11.6733
▁scare	-11.6733
▁asteroids	-11.6746
▁Young	-11.6749
▁selves	-11.6753
ent	-11.6754
▁pin	-11.6762
org	-11.677
▁pet	-11.6771
▁belt	-11.6774
▁sizes	-11.6776
▁wore	-11.6776
▁govern	-11.6777
▁portraits	-11.6778
▁thus	-11.6784
▁disgust	-11.6788
▁professors	-11.6792
▁Hawaii	-11.6802
▁Mumbai	-11.6806
▁Public	-11.6806
▁cardiac	-11.6806
▁Bhutan	-11.6806
▁commodity	-11.6806
▁terrific	-11.6806
▁adoption	-11.6807
▁systematic	-11.6807
▁thrive	-11.6808
▁practicing	-11.6808
▁Newton	-11.6808
▁copies	-11.6808
▁horizontal	-11.681
▁exceptions	-11.681
▁Eventually	-11.6812
▁GG	-11.6813
▁opposition	-11.6814
▁vary	-11.6816
▁converted	-11.6817
▁Mount	-11.6817
▁richest	-11.6819
▁approximately	-11.6821
my	-11.6822
▁compar	-11.6823
ist	-11.6829
▁employment	-11.6829
▁visually	-11.683
▁vice	-11.6834
▁owners	-11.6834
▁Gene	-11.6837
▁shorter	-11.6837
▁trans	-11.6842
▁chimps	-11.6844
▁watts	-11.6849
▁jumping	-11.6859
▁spatial	-11.6862
▁voted	-11.6865
▁lists	-11.6866
co	-11.6871
▁Da	-11.6876
ending	-11.6878
▁assemble	-11.6879
▁suits	-11.6881
▁Jane	-11.6899
▁shore	-11.6903
▁generic	-11.6909
▁basement	-11.6909
▁sail	-11.691
▁invitation	-11.6912
▁politician	-11.6912
▁wages	-11.6912
▁fertilizer	-11.6914
▁cylinder	-11.6917
▁weekend	-11.6918
▁loves	-11.6921
▁deception	-11.6921
▁attempts	-11.6925
▁creator	-11.6935
▁atom	-11.6935
▁Palestinian	-11.6936
▁ordered	-11.6948
▁cleaning	-11.6953
▁drum	-11.6955
▁migrate	-11.6958
▁inclusive	-11.6966
▁Nigerian	-11.6967
▁wasted	-11.697
▁donors	-11.6975
▁tables	-11.6977
▁favorites	-11.6978
▁mirrors	-11.6995
▁cart	-11.7001
Man	-11.7003
▁wow	-11.7005
▁scaled	-11.7008
▁Christians	-11.7011
▁screening	-11.7017
▁hopes	-11.702
shaped	-11.7028
▁multiply	-11.7032
▁stimulate	-11.7037
▁Republic	-11.7041
▁philosophical	-11.7042
▁verb	-11.7042
▁dirt	-11.7044
▁Craig	-11.7044
▁Hospital	-11.7044
▁Kingdom	-11.7044
▁Fortunately	-11.7044
▁prostitution	-11.7044
▁digging	-11.7044
▁famine	-11.7045
▁resilient	-11.7045
▁courses	-11.7045
▁deciding	-11.7046
▁Civil	-11.7047
▁entities	-11.7048
▁secondary	-11.7048
▁dishes	-11.7049
▁calculus	-11.7049
▁Lebanon	-11.705
▁progression	-11.705
▁emergence	-11.7051
▁shaking	-11.7053
▁Wright	-11.7053
▁astronomy	-11.7054
▁practically	-11.7057
Having	-11.7058
▁Around	-11.7058
▁racing	-11.706
▁exam	-11.706
▁convenient	-11.7062
▁Harry	-11.7068
▁shocking	-11.707
▁semi	-11.7074
▁rescued	-11.7075
▁sensing	-11.7077
▁shifts	-11.7081
▁siblings	-11.7081
▁stressed	-11.7096
▁trusted	-11.7098
▁folding	-11.7098
▁contained	-11.7098
▁sculptures	-11.7099
▁mud	-11.71
▁preventing	-11.7103
▁delivering	-11.7103
▁Kids	-11.711
▁checking	-11.7112
▁habitats	-11.7114
▁Abou	-11.7115
▁museums	-11.7117
▁harsh	-11.7122
▁answering	-11.7125
▁judges	-11.713
▁Re	-11.7132
▁deploy	-11.7135
▁condoms	-11.7136
▁McDonald	-11.7151
▁bowl	-11.7152
▁Mexican	-11.7156
▁prescription	-11.7156
▁iPod	-11.7156
▁trailer	-11.7156
▁Mountain	-11.7156
▁frontier	-11.7157
▁investigation	-11.7157
▁cage	-11.7157
▁variable	-11.7162
▁Wait	-11.7163
▁editor	-11.717
▁cooling	-11.7178
ring	-11.7179
▁usage	-11.7184
▁server	-11.7185
▁sequences	-11.7188
▁comet	-11.719
▁Olympics	-11.7193
▁complain	-11.721
▁allies	-11.7216
▁stumble	-11.7225
▁assess	-11.7229
▁hack	-11.7232
▁frames	-11.7236
▁cables	-11.7239
▁grades	-11.7249
▁l	-11.726
em	-11.726
▁cuts	-11.7261
▁Alex	-11.7263
AIDS	-11.7269
▁entrance	-11.7273
ey	-11.7273
▁manufacture	-11.7274
▁knees	-11.7275
▁Albert	-11.7279
▁Rick	-11.7281
▁Tokyo	-11.7288
▁soccer	-11.7288
▁Jersey	-11.7288
▁Mozart	-11.7288
▁Sierra	-11.7288
▁cholera	-11.7288
▁clarity	-11.7288
▁penalty	-11.7288
▁Library	-11.7288
▁Luther	-11.7288
▁exquisite	-11.7288
▁celebrity	-11.7288
▁Sarah	-11.7288
▁preparation	-11.7288
▁Philadelphia	-11.7288
▁laboratories	-11.7288
▁Greenland	-11.7288
▁reproductive	-11.7288
▁cardboard	-11.7288
▁authenticity	-11.7288
▁Christopher	-11.7288
▁analyzing	-11.729
▁crude	-11.7291
▁disturbing	-11.7292
▁chess	-11.7293
▁fantasy	-11.7294
▁luckily	-11.7294
▁surgical	-11.7294
▁aliens	-11.7294
▁revolutionary	-11.7295
▁scientifically	-11.7297
▁abroad	-11.7297
▁discussed	-11.7299
▁RM	-11.73
ial	-11.73
▁encountered	-11.73
▁satisfaction	-11.7301
▁mapped	-11.7301
▁Medicine	-11.7301
▁protective	-11.7303
▁couch	-11.7303
▁legally	-11.7305
▁Goals	-11.7306
▁transported	-11.7306
ta	-11.7307
▁modest	-11.7309
▁targeted	-11.7311
▁sufficient	-11.7312
▁Charlie	-11.7313
▁Mac	-11.732
▁Absolutely	-11.7333
▁acquired	-11.7334
▁hugely	-11.7335
▁counted	-11.734
▁damaged	-11.735
▁powered	-11.7359
▁modeling	-11.7359
▁attribute	-11.7371
▁spite	-11.738
ard	-11.738
▁Ted	-11.7383
▁motivate	-11.7392
▁seals	-11.7397
▁Spring	-11.7403
▁prosthetic	-11.7404
▁album	-11.7405
▁Redwood	-11.7405
▁vegetable	-11.7406
▁warehouse	-11.7406
▁therapist	-11.7412
▁parasite	-11.7413
▁Suppose	-11.7413
▁characteristic	-11.7416
law	-11.7417
▁cancers	-11.7418
pound	-11.7421
▁picks	-11.7422
▁spark	-11.7428
▁speeds	-11.7436
ts	-11.7443
▁awake	-11.7445
▁networking	-11.745
▁bulbs	-11.7451
▁visions	-11.7452
▁acids	-11.7453
▁tags	-11.7476
▁wage	-11.7499
ter	-11.7502
▁meets	-11.7517
▁apologize	-11.7523
▁lobby	-11.7524
▁yards	-11.7526
▁careers	-11.7527
▁Office	-11.7532
▁persuade	-11.7532
▁abandon	-11.7532
▁revenues	-11.7536
▁eternal	-11.7536
▁substantial	-11.7536
▁interfaces	-11.7536
▁Joseph	-11.7537
▁Nepal	-11.7538
▁Cyrus	-11.7538
▁Alaska	-11.7538
▁Thailand	-11.7538
▁integrity	-11.7538
▁ultraviolet	-11.7538
▁locomotion	-11.7538
▁Pennsylvania	-11.7538
▁priorities	-11.7538
▁congestion	-11.7538
▁sensitivity	-11.7538
▁shining	-11.7539
▁staggering	-11.7539
▁embracing	-11.7539
▁participating	-11.7539
▁Therefore	-11.754
▁camel	-11.754
▁Montana	-11.7542
▁tangible	-11.7542
▁exponentially	-11.7542
▁lightning	-11.7542
▁tanks	-11.7542
▁longevity	-11.7544
frontal	-11.7545
▁rigid	-11.7548
▁potent	-11.7549
▁helpless	-11.7549
▁regional	-11.755
▁silicon	-11.7551
▁mild	-11.7552
▁Later	-11.7552
▁enormously	-11.7554
▁Alice	-11.7558
▁officers	-11.7558
▁critically	-11.7558
▁significance	-11.7563
▁tar	-11.7564
▁mating	-11.7565
▁spiders	-11.7565
▁filters	-11.7566
▁authors	-11.7566
▁DP	-11.7567
▁nicely	-11.7568
▁inventor	-11.7577
▁parenting	-11.7578
▁texts	-11.7578
▁logging	-11.758
ped	-11.7589
▁acute	-11.7589
▁scans	-11.7589
▁deaf	-11.7597
▁loses	-11.7608
▁Hans	-11.7618
fold	-11.7624
▁squeeze	-11.7626
▁infect	-11.7633
▁carve	-11.7634
▁rolled	-11.7641
▁gate	-11.7643
▁flood	-11.7645
▁pleased	-11.7647
▁sketch	-11.765
▁viewed	-11.7651
▁Monday	-11.7654
▁replacement	-11.7661
▁ancestor	-11.7662
▁frustration	-11.7662
▁translator	-11.7663
▁dreaming	-11.7665
▁screw	-11.7665
▁pathway	-11.7666
▁temple	-11.7666
▁macro	-11.7666
▁mall	-11.7667
▁equals	-11.7668
▁pathways	-11.7669
▁feeds	-11.767
▁functioning	-11.7672
▁headline	-11.7672
▁reasoning	-11.7672
▁Iranian	-11.7675
▁Canadian	-11.7684
▁chickens	-11.7685
▁minimal	-11.7688
▁blowing	-11.7695
▁projections	-11.7696
▁wandering	-11.7703
▁asset	-11.7704
▁intentions	-11.7709
▁magnet	-11.7719
▁Le	-11.772
▁isolation	-11.7724
▁partnerships	-11.7725
▁thinkers	-11.7729
They	-11.7733
per	-11.7735
▁alphabet	-11.7737
▁procedures	-11.7737
▁households	-11.7739
▁rap	-11.7739
enjoying	-11.7739
▁millimeter	-11.774
▁philosophers	-11.7741
▁disciplines	-11.7749
▁strikes	-11.775
▁western	-11.7758
▁processor	-11.776
▁budgets	-11.7768
▁arise	-11.7768
▁medications	-11.7781
▁settle	-11.7782
size	-11.7785
▁Pete	-11.7788
ra	-11.779
▁irrational	-11.7791
▁cooperative	-11.7791
▁punish	-11.7793
▁statistical	-11.7793
▁Disney	-11.7794
▁Hubble	-11.7794
▁Swedish	-11.7794
▁Kennedy	-11.7794
▁gasoline	-11.7794
▁salmon	-11.7794
▁vocabulary	-11.7794
▁Jefferson	-11.7794
▁chemotherapy	-11.7794
▁copied	-11.7794
▁Association	-11.7794
▁altogether	-11.7795
▁Indus	-11.7795
▁disappointed	-11.7795
▁catastrophic	-11.7795
▁disruptive	-11.7796
▁dot	-11.7796
▁observing	-11.7796
responsibilities	-11.7796
▁applies	-11.7797
▁insist	-11.7797
▁metabolic	-11.7798
▁portray	-11.7798
▁internet	-11.7798
▁Abed	-11.7799
▁Georgia	-11.7799
▁obsolete	-11.78
▁empowerment	-11.7801
▁appreciation	-11.7801
▁accurately	-11.7801
▁wives	-11.7802
▁decides	-11.7802
▁profitable	-11.7803
▁steady	-11.7803
▁JA	-11.7805
▁tagged	-11.7807
▁assure	-11.7811
▁uniquely	-11.7811
▁matches	-11.7812
▁famously	-11.7813
▁abundant	-11.7814
▁Cold	-11.7819
▁blast	-11.7822
▁relax	-11.7822
▁counts	-11.7822
▁empowering	-11.7823
▁reforms	-11.7826
▁individually	-11.7828
▁touches	-11.783
▁successes	-11.7831
▁cups	-11.7836
▁researching	-11.7837
▁holy	-11.7842
▁couples	-11.7845
▁ours	-11.7847
▁artifacts	-11.7848
▁edit	-11.7849
▁ca	-11.7849
▁hybrid	-11.785
▁struggled	-11.7851
▁mixing	-11.7854
▁consists	-11.7859
▁filmed	-11.7867
▁motions	-11.7873
▁minerals	-11.7884
▁considering	-11.7899
▁twist	-11.7906
▁heating	-11.7908
▁metabolism	-11.7916
▁cube	-11.7919
▁iceberg	-11.7919
▁chromosomes	-11.792
▁correlation	-11.7922
▁Edward	-11.7924
▁pipeline	-11.7925
▁pedestrian	-11.7925
▁nightmare	-11.7926
▁uniform	-11.7928
▁orientation	-11.793
▁adaptation	-11.7932
▁episode	-11.7933
▁grant	-11.7933
▁segment	-11.7935
house	-11.7935
▁triangle	-11.7939
▁stimulation	-11.7944
▁squares	-11.7948
▁firing	-11.7949
▁Mo	-11.7954
▁presenting	-11.7954
▁greatly	-11.7957
eyed	-11.7958
▁Year	-11.7958
▁projected	-11.7959
▁cousins	-11.7962
▁pose	-11.7974
▁wins	-11.7977
▁Eve	-11.7977
▁traces	-11.7977
▁cinema	-11.7982
▁clues	-11.7983
▁Listen	-11.7989
▁rains	-11.799
▁waters	-11.8004
if	-11.8004
▁ego	-11.8011
▁faint	-11.8014
▁judgments	-11.802
▁sometime	-11.8038
▁deserves	-11.8044
▁unlock	-11.8046
▁Yemen	-11.805
▁millennia	-11.8055
eanwhile	-11.8056
▁slept	-11.8057
▁encode	-11.8057
▁identities	-11.8057
▁Thirty	-11.8057
▁frequencies	-11.8057
▁Norden	-11.8058
▁diplomacy	-11.8058
▁desktop	-11.8058
▁Everest	-11.8058
▁squid	-11.8058
▁noisy	-11.8058
▁rehabilitation	-11.8058
▁assault	-11.8058
▁ironic	-11.8058
▁replacing	-11.8059
▁overseas	-11.8059
▁nonetheless	-11.8059
▁Fifty	-11.8059
▁seawater	-11.8059
▁tightly	-11.806
▁blessed	-11.806
▁surviving	-11.806
▁Notice	-11.806
▁codes	-11.8063
▁playful	-11.8063
▁altered	-11.8064
▁Phoenix	-11.8064
▁humility	-11.8064
▁maintenance	-11.8064
▁biases	-11.8067
▁penis	-11.8067
▁Building	-11.8067
▁utility	-11.8069
▁Apollo	-11.807
▁cheating	-11.8073
▁praying	-11.8074
▁thread	-11.8075
▁UK	-11.8076
▁Matt	-11.8079
▁Pat	-11.8079
▁wa	-11.8079
▁Somalia	-11.8082
▁improvements	-11.8083
▁CEOs	-11.8084
▁stairs	-11.8086
▁fans	-11.8087
▁massively	-11.8095
▁programmed	-11.8096
▁desires	-11.8101
▁beside	-11.8101
ur	-11.8103
▁eighth	-11.8105
▁Heart	-11.8108
▁grains	-11.8109
▁MT	-11.8117
▁dough	-11.8121
▁predicting	-11.813
▁apartments	-11.813
la	-11.8134
▁accounting	-11.8139
▁scream	-11.8144
▁Sahara	-11.8146
▁activated	-11.8147
▁balloons	-11.8152
▁graphs	-11.8157
▁corrupt	-11.816
▁producers	-11.817
mile	-11.817
▁surveys	-11.8172
▁marks	-11.8173
▁relates	-11.818
▁v	-11.8181
▁Super	-11.8184
▁Say	-11.8187
▁Post	-11.8193
▁celebration	-11.8193
▁DVD	-11.8195
▁elevator	-11.8195
▁envelope	-11.8195
▁warrior	-11.8195
▁obstacle	-11.8196
▁diagnostic	-11.8196
▁receptor	-11.8196
▁tattoo	-11.8196
▁beetle	-11.8197
▁multinational	-11.8197
▁friendship	-11.8198
▁glow	-11.82
▁retina	-11.8201
▁monster	-11.8202
▁winners	-11.8207
▁chromosome	-11.821
▁Play	-11.8215
▁floors	-11.823
▁bugs	-11.8232
▁displays	-11.8233
▁mushrooms	-11.8234
▁arrow	-11.8234
▁boards	-11.8236
▁gestures	-11.8243
▁snake	-11.8246
▁pays	-11.8248
▁roofs	-11.8255
pouring	-11.8261
▁Australian	-11.8262
▁lighter	-11.8265
▁weighs	-11.8266
▁fossils	-11.8269
▁node	-11.8276
▁beam	-11.8279
minded	-11.8288
▁intervene	-11.8295
worth	-11.8299
▁crawl	-11.8299
▁renewables	-11.8303
▁Sound	-11.8304
▁Linux	-11.8327
▁CRISPR	-11.8327
▁Joshua	-11.8327
▁Defense	-11.8328
▁Nairobi	-11.8328
▁Tuesday	-11.8328
▁numerous	-11.8328
▁gigantic	-11.8328
▁libraries	-11.8328
▁bacterium	-11.8328
▁beneficial	-11.8328
▁enthusiasm	-11.8328
▁controversy	-11.8328
▁relativity	-11.8328
▁infrared	-11.8328
▁fuzzy	-11.8328
▁intimacy	-11.8328
▁widespread	-11.8328
▁autonomy	-11.8328
▁intriguing	-11.8328
▁Similarly	-11.8328
▁unseen	-11.8328
▁Interestingly	-11.8328
▁retail	-11.8328
▁ashamed	-11.8329
▁convincing	-11.8329
▁sadness	-11.8329
▁angiogenesis	-11.8329
▁deliberately	-11.8329
▁Gius	-11.8329
▁apples	-11.833
▁sexuality	-11.833
▁RNA	-11.8331
▁accountable	-11.8331
▁impressed	-11.8332
▁cracks	-11.8332
▁referred	-11.8333
▁tribal	-11.8334
▁friction	-11.8334
▁liberty	-11.8334
▁dictionaries	-11.8334
▁kindergarten	-11.8334
▁viable	-11.8336
▁junk	-11.8337
▁skeptical	-11.834
▁Party	-11.8341
▁unfair	-11.8341
▁hydro	-11.8342
▁slight	-11.8342
back	-11.8343
ant	-11.8346
▁Consider	-11.8348
▁tricky	-11.8349
▁stealing	-11.835
▁problematic	-11.8351
▁bump	-11.8351
▁lately	-11.8351
▁detected	-11.8353
▁Bali	-11.8354
▁honored	-11.8357
▁folded	-11.8358
▁voters	-11.836
▁attend	-11.8361
▁shortly	-11.8362
▁disappearing	-11.8363
▁sp	-11.8365
▁cement	-11.837
▁angles	-11.8371
na	-11.8372
▁goodness	-11.8373
▁gras	-11.8376
▁checked	-11.8379
▁midst	-11.8381
▁institute	-11.8382
▁Cancer	-11.8383
▁destructive	-11.8384
▁dreamed	-11.8389
▁Humans	-11.8389
▁thermal	-11.8391
▁magazines	-11.8393
right	-11.8397
▁Fund	-11.8398
▁crows	-11.84
are	-11.8402
head	-11.8403
▁brands	-11.8406
▁collaborators	-11.8406
▁corresponds	-11.841
▁slave	-11.8419
school	-11.8421
▁Garden	-11.8421
ling	-11.8423
▁award	-11.8426
▁solo	-11.8447
▁dancers	-11.8456
▁arena	-11.8456
▁explode	-11.8458
▁Rights	-11.846
▁retain	-11.8462
▁archive	-11.8466
▁Ask	-11.8466
▁Canyon	-11.8467
▁execution	-11.8468
▁gardens	-11.8471
▁earned	-11.8472
▁endeavor	-11.8472
▁delay	-11.8473
▁Light	-11.8473
▁taboo	-11.8474
▁survivor	-11.8475
▁variables	-11.8475
▁disk	-11.8477
here	-11.8478
▁hunter	-11.8479
▁hacker	-11.8483
▁clips	-11.8486
▁virtue	-11.8487
▁upward	-11.8489
▁slope	-11.8492
▁reclaim	-11.8494
▁Far	-11.8497
▁bust	-11.8505
▁frogs	-11.8506
risk	-11.8507
▁lean	-11.851
▁dancer	-11.8512
▁sucks	-11.8517
▁operates	-11.8518
▁checks	-11.8519
▁tale	-11.8527
▁hills	-11.8528
▁fame	-11.8535
▁Di	-11.854
▁fool	-11.8547
▁promot	-11.8555
▁passions	-11.8557
▁rays	-11.8568
▁cloth	-11.8569
▁patch	-11.8574
▁EM	-11.858
▁Columbia	-11.8588
▁redesign	-11.859
▁humble	-11.8596
enabling	-11.8599
▁inherent	-11.8603
▁brutal	-11.8603
▁Tesla	-11.8605
▁Laden	-11.8605
▁Stewart	-11.8605
▁Michigan	-11.8605
▁Venus	-11.8605
▁Caribbean	-11.8605
▁ingenuity	-11.8605
▁Clearly	-11.8605
▁Sylvia	-11.8605
▁marijuana	-11.8605
▁prevalence	-11.8605
▁Movement	-11.8605
▁marrow	-11.8605
▁Empire	-11.8606
▁powder	-11.8606
▁goodbye	-11.8606
▁baseline	-11.8606
▁embarrassed	-11.8606
▁symbolic	-11.8607
▁pricing	-11.8607
▁spontaneously	-11.8607
▁shelves	-11.8607
▁authoritarian	-11.8608
▁repeatedly	-11.8608
▁travels	-11.861
▁Beach	-11.861
▁displaced	-11.861
▁flexibility	-11.8612
▁Larry	-11.8612
▁physiology	-11.8612
▁Dallas	-11.8612
▁hatred	-11.8613
▁storms	-11.8614
▁Such	-11.8614
▁symmetrical	-11.8615
▁symmetries	-11.8616
▁humankind	-11.8617
▁urbanization	-11.862
▁autistic	-11.8621
▁drama	-11.8629
▁torture	-11.8629
espite	-11.863
▁Ice	-11.8632
▁settled	-11.8633
▁beef	-11.8634
▁similarly	-11.8634
▁cooler	-11.8635
▁honesty	-11.8637
▁stare	-11.8639
▁talents	-11.864
▁brick	-11.8643
▁affairs	-11.8645
▁hallucinations	-11.8645
▁celebrated	-11.8646
▁addressed	-11.8658
▁ease	-11.8666
▁anytime	-11.8667
▁reader	-11.8668
▁racial	-11.8672
▁aunt	-11.8674
second	-11.8675
▁paths	-11.8678
▁Van	-11.8679
dding	-11.8685
▁seventh	-11.8691
▁Lo	-11.8691
▁gallons	-11.8708
Fi	-11.871
▁remembering	-11.871
▁pressing	-11.8712
▁reject	-11.8721
▁primates	-11.8722
▁Republicans	-11.8724
▁purchase	-11.8727
▁sounded	-11.8731
tion	-11.8733
▁TEDTalks	-11.8735
▁flights	-11.8738
▁alert	-11.8739
▁developers	-11.874
▁beetles	-11.8742
▁marathon	-11.8745
▁reproduction	-11.8747
▁tweet	-11.8748
▁mixture	-11.8754
▁PowerPoint	-11.8754
▁buttons	-11.8755
▁consideration	-11.8757
▁stadium	-11.8757
▁guitar	-11.8757
▁ladder	-11.8757
▁jungle	-11.8757
▁TEDTalk	-11.8759
▁BJ	-11.8762
▁apes	-11.8764
▁odor	-11.8764
▁invasion	-11.8765
▁deficit	-11.8766
▁calculation	-11.8766
▁Egyptians	-11.8769
our	-11.877
▁Simon	-11.877
▁kit	-11.8771
de	-11.8773
▁Ro	-11.8774
▁tiger	-11.8777
▁stamp	-11.8777
▁experimenting	-11.8778
▁differ	-11.8781
▁jaw	-11.8788
▁nuclei	-11.8793
▁trait	-11.8796
▁trap	-11.8802
▁proceed	-11.8804
▁oven	-11.8816
il	-11.8819
▁rises	-11.882
Go	-11.8822
▁metals	-11.8828
▁improvisation	-11.8833
▁columns	-11.8839
▁worm	-11.884
water	-11.8841
▁zeros	-11.8842
▁augment	-11.8846
▁norm	-11.8847
▁Ba	-11.8849
ay	-11.8853
▁fee	-11.8856
▁Water	-11.886
story	-11.8872
▁stigma	-11.8874
▁viewing	-11.8875
▁admire	-11.8876
▁Cuba	-11.8879
▁manifest	-11.888
▁steer	-11.8883
▁gentle	-11.8885
▁excess	-11.8887
▁gravitational	-11.8889
▁exclusive	-11.8889
▁northeast	-11.889
▁eBay	-11.8891
▁gaze	-11.8891
▁salary	-11.8891
▁Climate	-11.8891
▁warfare	-11.8891
▁Carnegie	-11.8891
▁mycelium	-11.8891
▁fishermen	-11.8891
▁quantities	-11.8891
▁generosity	-11.8891
▁disabilities	-11.8891
▁nevertheless	-11.8891
▁fireflies	-11.8891
▁frustrating	-11.8891
▁Native	-11.8891
▁patience	-11.8891
▁citizenship	-11.8892
▁pursuing	-11.8892
▁applause	-11.8892
▁Unlike	-11.8892
▁plankton	-11.8892
▁con	-11.8893
▁confined	-11.8893
▁inherited	-11.8893
▁drift	-11.8893
▁supportive	-11.8895
▁yeast	-11.8896
▁Kepler	-11.8898
▁anatomy	-11.8898
▁Country	-11.8898
▁Data	-11.8898
▁Brad	-11.8898
▁fungi	-11.8899
▁Lagos	-11.89
▁sustained	-11.8901
▁independently	-11.8901
▁devoted	-11.8902
▁Un	-11.8903
▁recovered	-11.8904
▁News	-11.8904
▁Colombia	-11.8905
▁quietly	-11.8906
▁Natural	-11.8907
▁exploded	-11.8909
▁financially	-11.8911
not	-11.8911
▁injustice	-11.8913
▁efficiently	-11.8919
▁Scientists	-11.892
▁qualified	-11.8921
▁skip	-11.8924
▁improvise	-11.8926
▁visitors	-11.8928
▁respected	-11.8932
▁prospect	-11.8932
▁sneakers	-11.8933
▁washed	-11.8935
▁skilled	-11.8941
▁hut	-11.8942
▁slowed	-11.8943
▁Carl	-11.8951
▁illusions	-11.8956
▁tide	-11.8957
▁blocking	-11.8958
sani	-11.8965
▁incorporate	-11.8981
▁slum	-11.8982
▁consuming	-11.8982
▁fruits	-11.8987
▁Has	-11.8989
▁DR	-11.899
▁Ken	-11.9001
▁delight	-11.9001
▁examine	-11.9004
▁vocal	-11.9015
▁rig	-11.902
▁snakes	-11.9027
▁Ha	-11.9028
▁mini	-11.9031
▁volumes	-11.9039
▁aggregate	-11.904
▁passage	-11.9046
▁heroic	-11.9046
▁manipulation	-11.9047
▁ambulance	-11.9047
▁sulfide	-11.9048
▁obsession	-11.905
▁premise	-11.905
▁juvenile	-11.9051
▁NGO	-11.9052
▁crystal	-11.9052
▁illustration	-11.9052
▁ghost	-11.9053
▁Stone	-11.9053
▁freeze	-11.9053
▁filmmaker	-11.9053
▁empire	-11.9054
▁Milo	-11.9055
▁Roman	-11.9055
▁diagnose	-11.9055
▁container	-11.9061
▁mattered	-11.9061
▁amateur	-11.9061
▁magician	-11.9062
▁questioning	-11.9068
▁pipes	-11.9069
▁perceptions	-11.9072
inch	-11.9077
Cola	-11.9081
▁Machine	-11.9081
▁hug	-11.9082
▁fog	-11.9086
▁Syrian	-11.9093
ty	-11.9114
▁kilometer	-11.9116
Ah	-11.9117
wing	-11.9119
▁inventions	-11.9125
stepping	-11.9126
▁caps	-11.9134
▁dump	-11.9136
▁tickets	-11.9139
box	-11.9159
▁hop	-11.916
▁Louis	-11.9161
▁Old	-11.9165
▁parliament	-11.9181
▁shadows	-11.9183
▁OECD	-11.9185
▁easiest	-11.9185
▁Portugal	-11.9185
▁Siberia	-11.9185
▁Secretary	-11.9185
▁Princeton	-11.9185
▁grassroots	-11.9185
▁Connecticut	-11.9185
▁banned	-11.9185
▁horrific	-11.9185
▁electromagnetic	-11.9185
▁entrepreneurial	-11.9185
▁acceptance	-11.9185
▁victory	-11.9185
▁Warren	-11.9186
▁personalities	-11.9186
▁frightened	-11.9186
▁calculating	-11.9187
▁reasonably	-11.9187
▁doubling	-11.9187
▁embodied	-11.9188
▁optimize	-11.9188
▁statistically	-11.9188
▁noticing	-11.9189
▁pervasive	-11.9192
▁Usually	-11.9192
▁Oklahoma	-11.9192
▁equilibrium	-11.9192
▁propaganda	-11.9192
▁microscopic	-11.9192
▁Johnny	-11.9193
▁Prime	-11.9193
▁Golden	-11.9195
▁aluminum	-11.9196
▁cracked	-11.9198
▁adaptive	-11.92
▁depict	-11.92
▁circulation	-11.92
▁Peru	-11.9202
▁towns	-11.9204
▁reflective	-11.9208
▁gait	-11.9208
Come	-11.9209
▁behold	-11.921
Would	-11.9211
▁emit	-11.9212
▁Death	-11.9215
▁blocked	-11.9216
▁sh	-11.9216
▁documenting	-11.9219
▁donated	-11.9225
▁hint	-11.9225
▁sang	-11.9225
▁Paulo	-11.9225
▁lectures	-11.9228
▁mouths	-11.9229
▁equipped	-11.923
▁commonly	-11.9232
▁noble	-11.9234
sensitive	-11.9234
▁assembled	-11.9244
▁accepting	-11.9248
▁scar	-11.9257
Thank	-11.9259
▁jumps	-11.9265
▁upright	-11.9269
▁crank	-11.927
meter	-11.927
▁Neanderthals	-11.9271
▁AM	-11.9273
ook	-11.9275
▁Others	-11.9278
▁fixing	-11.9279
▁inform	-11.9281
▁disappears	-11.9298
▁diamonds	-11.9302
▁zoo	-11.9308
▁cop	-11.9309
▁Hold	-11.931
▁freak	-11.9311
▁understands	-11.9312
million	-11.9316
▁mis	-11.9318
▁ethics	-11.932
▁divorce	-11.933
▁ad	-11.9331
▁retreat	-11.9332
▁attributes	-11.9333
▁grabb	-11.9335
▁bounce	-11.9335
▁sole	-11.9337
▁slaves	-11.9341
▁bribe	-11.9342
iest	-11.9343
▁breed	-11.9344
▁yours	-11.9347
▁candle	-11.9349
▁slip	-11.9349
▁grammar	-11.935
▁register	-11.935
▁cocktail	-11.9354
▁council	-11.9354
▁lips	-11.9355
▁acoustic	-11.9358
▁assessment	-11.9358
▁measurement	-11.9358
▁spouse	-11.9358
▁expectation	-11.9359
▁specialist	-11.9359
▁civilian	-11.9359
▁petition	-11.9361
▁cigarette	-11.9363
▁outdoor	-11.9364
▁association	-11.9365
▁markers	-11.9366
play	-11.9369
▁shout	-11.9369
▁planting	-11.9373
▁folk	-11.9373
▁pressures	-11.9374
▁upload	-11.9374
▁expense	-11.9377
▁jar	-11.9381
▁swing	-11.9384
▁ALS	-11.9386
grade	-11.9396
▁fled	-11.94
▁woods	-11.9401
▁Doctor	-11.9402
▁shed	-11.9409
▁twin	-11.9413
▁processed	-11.942
▁intend	-11.9426
▁hurts	-11.9426
▁universes	-11.9456
▁graduates	-11.9459
▁ridge	-11.946
▁Libya	-11.9467
▁blend	-11.947
▁Sa	-11.948
▁strengths	-11.9481
▁disconnect	-11.9482
▁apparent	-11.9486
▁tomato	-11.9486
▁chaotic	-11.9487
▁Kansas	-11.9488
▁Orleans	-11.9488
▁Kiribati	-11.9488
▁broccoli	-11.9488
▁velocity	-11.9488
▁arbitrary	-11.9488
▁galleries	-11.9488
▁pregnancy	-11.9488
▁Roosevelt	-11.9488
▁Pittsburgh	-11.9488
▁spaghetti	-11.9488
▁internship	-11.9488
▁copper	-11.9488
▁Royal	-11.9489
▁urgent	-11.9489
▁colorful	-11.9489
▁Music	-11.9489
▁societ	-11.9489
▁celebrating	-11.949
▁Accord	-11.949
▁expose	-11.949
▁transferred	-11.9491
▁shaping	-11.9491
▁minor	-11.9492
▁disconnected	-11.9494
▁Tasmanian	-11.9494
▁degraded	-11.9494
▁quantity	-11.9495
▁Coca	-11.9495
▁Danny	-11.9495
▁implanted	-11.9496
▁Cities	-11.9497
▁nonsense	-11.9497
▁disrupt	-11.9497
▁hooked	-11.9498
▁promising	-11.9498
▁wounded	-11.9499
▁insert	-11.9499
▁modified	-11.95
▁acceptable	-11.95
▁crashes	-11.9501
▁illnesses	-11.9501
▁tremendously	-11.9504
▁executed	-11.9504
▁simulated	-11.9505
▁sailing	-11.9507
▁adolescence	-11.9511
▁pops	-11.9512
▁disgusting	-11.9512
▁tips	-11.9512
▁pilots	-11.9513
▁Elizabeth	-11.9514
▁innovators	-11.9515
▁chapters	-11.9516
▁modify	-11.9517
▁reveals	-11.9518
▁entity	-11.9518
▁preserved	-11.9518
▁declared	-11.9519
▁Lee	-11.9521
▁dates	-11.9521
▁Line	-11.9527
▁routes	-11.9528
axis	-11.9529
▁par	-11.9531
▁equator	-11.9534
▁tracked	-11.9535
▁emerges	-11.9536
▁bench	-11.9536
▁fragments	-11.9537
▁accelerated	-11.9539
▁scope	-11.954
▁missions	-11.9541
▁sums	-11.9546
▁marked	-11.9547
▁pumps	-11.9548
▁stereotypes	-11.9549
▁ward	-11.9552
ups	-11.9576
her	-11.9578
▁attacking	-11.9585
▁phrases	-11.9598
imposed	-11.9605
▁sin	-11.961
▁arrows	-11.9631
▁Journal	-11.9633
uite	-11.9643
▁Lot	-11.9644
▁explanations	-11.965
▁romance	-11.9654
▁coordinate	-11.9654
▁editors	-11.9656
▁ethic	-11.9659
▁Stop	-11.9662
▁cops	-11.9664
▁laying	-11.9665
▁Buddha	-11.9665
▁vitamin	-11.9665
▁update	-11.9666
▁paste	-11.9666
▁duration	-11.9667
▁sidewalk	-11.9669
▁impulse	-11.9669
▁antibiotic	-11.9669
▁operator	-11.967
▁Buddhist	-11.967
▁heroin	-11.9671
▁primate	-11.9672
▁Republican	-11.9673
▁configuration	-11.9678
▁jokes	-11.9686
▁quo	-11.9687
▁resort	-11.9689
▁executive	-11.9692
▁sells	-11.9703
▁initiatives	-11.9711
▁mega	-11.9719
▁commands	-11.9722
▁towel	-11.9727
▁passengers	-11.9744
▁retire	-11.9755
▁developmental	-11.9755
▁lakes	-11.9758
▁justify	-11.9768
▁worship	-11.977
▁Greeks	-11.9772
ated	-11.9773
▁firms	-11.9778
▁newly	-11.9781
▁Liberia	-11.9786
▁releas	-11.9787
adding	-11.9792
some	-11.9794
▁bonus	-11.9798
▁anxious	-11.9799
▁Ron	-11.9799
▁Sudan	-11.98
▁Diego	-11.98
▁benign	-11.98
▁Kosovo	-11.98
▁Denmark	-11.98
▁mundane	-11.98
▁Taiwan	-11.98
▁Galapagos	-11.98
▁Lama	-11.98
▁eradication	-11.9801
▁comprehensive	-11.9801
▁rainfall	-11.9801
▁conscience	-11.9801
▁unemployment	-11.9801
▁nucleus	-11.9801
▁SMS	-11.9801
▁Recently	-11.9801
▁presidential	-11.9801
▁courageous	-11.9801
▁scenarios	-11.9801
▁submitted	-11.9801
▁satisfied	-11.9802
▁seafood	-11.9802
▁suburban	-11.9802
▁Alright	-11.9802
▁explicitly	-11.9802
▁marvelous	-11.9803
▁throat	-11.9804
▁shuttle	-11.9804
▁obtained	-11.9804
▁Leone	-11.9805
▁TEDx	-11.9805
▁scarce	-11.9805
▁firmly	-11.9805
▁introducing	-11.9807
▁Snowden	-11.9808
▁sadly	-11.9809
▁reviews	-11.981
▁auditorium	-11.981
▁insisted	-11.9811
▁composed	-11.9811
▁Justice	-11.9812
▁singular	-11.9812
▁myths	-11.9813
▁revolutionize	-11.9813
▁eco	-11.9814
▁Chuck	-11.9815
▁Less	-11.9816
▁countryside	-11.9819
▁organizational	-11.982
▁depths	-11.982
▁Too	-11.982
▁voluntary	-11.9821
▁geographic	-11.9821
▁blink	-11.9823
▁guaranteed	-11.9824
▁morally	-11.9828
▁parameters	-11.983
▁prevented	-11.9831
▁frontal	-11.9833
▁accuse	-11.9833
▁conceptual	-11.9833
▁biased	-11.9834
▁thrust	-11.9835
▁Jobs	-11.9838
▁poorly	-11.9845
▁kilos	-11.9846
▁embraced	-11.9849
▁fails	-11.9849
▁wonderfully	-11.985
▁Brothers	-11.9862
▁finite	-11.9865
▁charter	-11.9866
▁copying	-11.9866
▁perspectives	-11.987
don	-11.9874
▁commons	-11.9875
▁riots	-11.9875
▁strains	-11.9876
▁linking	-11.9877
▁demanding	-11.9879
▁revolutions	-11.9882
▁sections	-11.9884
▁meaningless	-11.9886
▁angels	-11.9894
▁yard	-11.9898
edge	-11.9898
▁bloody	-11.9902
▁aspirations	-11.9904
▁mature	-11.9912
▁tuned	-11.9915
een	-11.9917
▁practiced	-11.9921
▁bananas	-11.9921
▁squared	-11.9927
▁threatening	-11.9931
▁absurd	-11.9935
▁owe	-11.9936
▁civilians	-11.9936
▁needles	-11.9937
▁instances	-11.9941
how	-11.9949
▁antenna	-11.9962
ton	-11.997
▁distribute	-11.997
AG	-11.9979
▁spike	-11.998
▁confusion	-11.9981
▁convention	-11.9982
▁ratings	-11.9982
▁chemist	-11.9982
▁flock	-11.9983
▁lure	-11.9985
▁imperative	-11.9988
▁slogan	-11.9988
▁mustache	-11.9989
▁undergraduate	-11.999
▁helmet	-11.999
▁contradiction	-11.9991
▁requirement	-11.9992
▁connectome	-11.9992
▁elbow	-11.9992
▁bucket	-11.9992
▁workshop	-11.9994
▁afterward	-11.9995
▁prayer	-11.9997
▁worldview	-12
▁cafe	-12.0002
governmental	-12.0003
ak	-12.0005
▁assistant	-12.0006
▁storyteller	-12.0006
▁chef	-12.0008
▁blade	-12.0011
ri	-12.0015
▁goat	-12.0021
▁contributions	-12.0022
war	-12.0024
▁rainforests	-12.0031
▁geo	-12.0035
One	-12.0037
▁existential	-12.0042
▁issued	-12.0043
▁menu	-12.0045
▁unite	-12.0046
▁CD	-12.0047
ier	-12.0054
▁chop	-12.0058
▁psycho	-12.0061
ating	-12.0064
▁impose	-12.0089
▁producer	-12.0094
going	-12.0096
▁po	-12.0098
▁recruit	-12.0099
▁Namibia	-12.0109
board	-12.0111
▁redefine	-12.0111
▁promises	-12.0112
imbabwe	-12.0116
▁conferences	-12.0118
▁differentiate	-12.0118
▁evaluate	-12.0121
▁LGBT	-12.0122
▁wolves	-12.0122
▁radar	-12.0122
▁Arizona	-12.0123
▁calcium	-12.0123
▁octopus	-12.0123
▁voyage	-12.0123
▁Edinburgh	-12.0123
▁tennis	-12.0123
▁resonance	-12.0123
▁hypotheses	-12.0123
▁Parliament	-12.0123
▁paralysis	-12.0123
▁jewelry	-12.0123
▁altruism	-12.0123
▁commodities	-12.0123
▁Michelangelo	-12.0123
▁Walk	-12.0123
▁vegetation	-12.0123
▁disruption	-12.0125
▁approval	-12.0125
Keith	-12.0126
▁intangible	-12.0127
▁activism	-12.0128
▁consistently	-12.0128
▁crushed	-12.0128
▁delighted	-12.0129
▁Top	-12.0129
▁comparable	-12.013
▁anesthesia	-12.013
▁puberty	-12.0131
▁gratitude	-12.0131
▁knocked	-12.0131
▁midnight	-12.0131
▁infinitely	-12.0131
▁shipped	-12.0131
▁unacceptable	-12.0131
▁auto	-12.0133
▁stratosphere	-12.0133
▁jury	-12.0134
▁dependence	-12.0135
▁keen	-12.0135
▁certainty	-12.0135
▁piles	-12.0138
▁merit	-12.0138
▁weighed	-12.0139
▁Amsterdam	-12.0139
▁complaining	-12.014
▁lenses	-12.0141
▁confirmed	-12.0142
▁Jay	-12.0142
▁biologically	-12.0143
▁Camp	-12.0144
▁earning	-12.0147
▁Freedom	-12.0147
ka	-12.0149
▁daylight	-12.0151
▁themes	-12.0151
▁Power	-12.0152
▁attempted	-12.0155
▁Information	-12.0156
▁Lady	-12.0156
specific	-12.0161
▁assigned	-12.0163
▁Dave	-12.0166
▁Ross	-12.0166
▁sticky	-12.0166
▁temporal	-12.0171
▁cleaned	-12.0173
style	-12.0177
▁gaining	-12.018
▁Ooh	-12.0181
work	-12.0182
controlled	-12.0185
lethal	-12.0186
▁constitution	-12.0188
▁Small	-12.0189
▁wished	-12.019
▁enters	-12.019
▁elders	-12.019
friendly	-12.0192
Did	-12.0193
▁lane	-12.0204
▁corridors	-12.0204
▁identifying	-12.0205
▁toxins	-12.021
third	-12.0219
▁characterize	-12.0227
▁valid	-12.023
▁hey	-12.0235
iness	-12.0235
volving	-12.0237
▁manufacturers	-12.0239
▁supports	-12.0247
▁Start	-12.025
▁operated	-12.0256
▁maximize	-12.0258
▁Find	-12.0259
▁fights	-12.0265
▁poses	-12.0265
▁cigarettes	-12.0266
▁n	-12.0271
▁taxi	-12.0285
▁draws	-12.029
▁PR	-12.0292
▁Cup	-12.0301
▁defeat	-12.0302
▁Philip	-12.0302
▁wasting	-12.0304
▁utter	-12.0305
▁forecast	-12.0307
▁weekends	-12.0308
▁champion	-12.031
▁bay	-12.0314
face	-12.0314
▁coincidence	-12.0317
▁posture	-12.0318
▁hallway	-12.0319
▁leopard	-12.0319
▁playground	-12.0319
▁iPad	-12.032
▁breakdown	-12.0322
▁captain	-12.0322
▁funeral	-12.0322
▁encyclopedia	-12.0323
▁injection	-12.0323
▁protocell	-12.0324
▁catastrophe	-12.0324
▁lesbian	-12.0325
▁Norman	-12.0327
▁condom	-12.0328
▁refrigerator	-12.0331
op	-12.0332
▁basket	-12.0332
▁crab	-12.0335
▁observer	-12.0336
▁glaciers	-12.0339
▁Maria	-12.0342
▁guest	-12.0348
▁pe	-12.0349
▁towers	-12.0358
▁terminal	-12.0361
▁breakthroughs	-12.0362
ability	-12.0366
new	-12.0366
▁operational	-12.0369
ese	-12.0372
▁suppress	-12.0377
▁illustrates	-12.0379
social	-12.0385
away	-12.0389
▁smiles	-12.04
▁germ	-12.0402
shirt	-12.0407
▁gifts	-12.0415
▁spine	-12.0415
ranging	-12.0421
▁Ho	-12.0422
▁regrets	-12.0425
▁exercises	-12.0431
▁halls	-12.0432
▁reconstruct	-12.0437
▁posters	-12.0437
fish	-12.0438
▁stole	-12.0445
Now	-12.0447
▁bulk	-12.045
▁deserts	-12.0451
▁triumph	-12.0455
▁Sydney	-12.0455
▁debris	-12.0455
▁orgasm	-12.0455
▁Guinea	-12.0455
▁Emily	-12.0455
▁Yale	-12.0455
▁Often	-12.0456
▁athletic	-12.0456
▁Arduino	-12.0456
▁Natasha	-12.0456
▁Teszler	-12.0456
▁Luckily	-12.0456
▁Finland	-12.0456
▁happiest	-12.0456
▁summary	-12.0456
▁Bangalore	-12.0456
▁cartilage	-12.0456
▁unintended	-12.0456
▁unstable	-12.0456
▁loneliness	-12.0456
▁multiverse	-12.0456
▁Democratic	-12.0457
▁tuberculosis	-12.0457
▁similarities	-12.0457
▁irrelevant	-12.0457
▁inviting	-12.0457
▁fi	-12.0458
▁depressing	-12.0458
▁Station	-12.0458
▁emergent	-12.0459
▁Jill	-12.0459
▁offshore	-12.0459
▁guilt	-12.046
▁taller	-12.046
▁Intel	-12.046
▁attraction	-12.046
▁delicate	-12.046
▁histories	-12.0462
▁Virgin	-12.0464
▁ethanol	-12.0464
▁permanently	-12.0464
▁cerebral	-12.0464
▁Exactly	-12.0464
▁surplus	-12.0464
▁censorship	-12.0464
▁Skype	-12.0464
▁compressed	-12.0464
▁Company	-12.0465
person	-12.0465
▁scanned	-12.0465
▁glorious	-12.0465
▁Victorian	-12.0465
▁glory	-12.0465
▁exhausted	-12.0466
▁appropriately	-12.0466
▁mathematically	-12.0468
▁verge	-12.0469
entrepreneurship	-12.047
▁photographers	-12.0472
▁minimize	-12.0472
▁meditation	-12.0473
▁declining	-12.0473
▁fingertips	-12.0477
▁experimentation	-12.0478
body	-12.048
▁sync	-12.048
▁impaired	-12.0482
llowing	-12.0482
▁Lewis	-12.0482
▁notions	-12.0483
▁jacket	-12.0483
▁followers	-12.0484
▁coding	-12.0485
▁preventable	-12.0486
▁environmentally	-12.049
▁competitors	-12.0491
▁loaded	-12.0497
▁automatic	-12.05
▁suburbs	-12.0502
▁educators	-12.0503
▁maintaining	-12.0503
▁Large	-12.0503
▁mo	-12.0504
▁resolved	-12.0505
page	-12.051
▁rooted	-12.051
▁strengthen	-12.0512
▁Under	-12.0513
▁Democrats	-12.0514
▁tenth	-12.0514
▁orbiting	-12.0516
▁gosh	-12.0517
▁harvesting	-12.0526
▁Change	-12.0528
▁preferences	-12.0536
growing	-12.0536
▁avoiding	-12.0537
▁spheres	-12.0537
▁pathogens	-12.0539
resistant	-12.054
Hi	-12.0541
istic	-12.0548
▁cues	-12.0548
▁listed	-12.0549
▁exceptional	-12.0549
▁TEDsters	-12.055
▁swallow	-12.0553
▁remix	-12.0555
▁bankers	-12.0564
▁beds	-12.0565
▁obey	-12.0572
▁Desert	-12.0573
▁obscure	-12.0578
▁goats	-12.058
▁secondly	-12.0582
▁balanced	-12.0582
▁hollow	-12.0582
▁astronauts	-12.0582
▁lasted	-12.0601
▁specialists	-12.0605
▁contacts	-12.0608
▁mentors	-12.0613
Because	-12.0627
▁parasites	-12.0635
▁export	-12.0645
▁shepherd	-12.0645
▁tastes	-12.0649
▁abortion	-12.0652
▁temptation	-12.0653
resolution	-12.0653
▁stunt	-12.0655
▁conception	-12.0658
▁mum	-12.0659
▁responds	-12.066
▁statistic	-12.0661
▁violin	-12.0661
▁biosphere	-12.0662
▁masters	-12.0662
▁chunk	-12.0663
▁calendar	-12.0664
▁avatar	-12.0666
▁holiday	-12.0666
▁symptom	-12.0667
▁banana	-12.0668
▁corporation	-12.067
▁reuse	-12.0671
▁mammoth	-12.0671
▁cookie	-12.0671
▁publication	-12.0674
▁accent	-12.0674
▁mosque	-12.0678
▁Hill	-12.0689
▁Rover	-12.069
▁capitalist	-12.069
▁receiver	-12.069
▁singer	-12.0691
▁rhythms	-12.0697
▁belonging	-12.0701
▁ruin	-12.0702
centric	-12.0708
▁fe	-12.071
▁pond	-12.0712
▁Turn	-12.0714
▁jam	-12.0715
▁developer	-12.0723
▁Austria	-12.0735
▁triple	-12.0735
▁Costa	-12.0736
▁Mall	-12.0751
▁Wal	-12.0755
▁files	-12.0757
▁partial	-12.0763
▁recycle	-12.0769
▁chat	-12.077
▁miracles	-12.0774
▁eats	-12.0776
▁Use	-12.0782
▁Cambodia	-12.0786
▁Bosnia	-12.0786
▁epidemics	-12.0788
▁underestimate	-12.0792
ripped	-12.0795
▁cockroach	-12.0797
▁vivid	-12.0798
type	-12.0798
▁envision	-12.0799
▁mobilize	-12.0799
▁Alabama	-12.08
▁grief	-12.08
▁nectar	-12.08
▁replied	-12.08
▁symphony	-12.08
▁Babbage	-12.08
▁Ministry	-12.08
▁UCLA	-12.08
▁guidance	-12.08
▁sulfur	-12.08
▁LHC	-12.08
▁Jerry	-12.08
▁Francis	-12.08
▁imaginary	-12.08
▁continuum	-12.08
▁Doaa	-12.08
▁mythology	-12.08
▁entitled	-12.0801
▁denied	-12.0801
▁limestone	-12.0801
▁varieties	-12.0801
▁unemployed	-12.0801
▁Ultimately	-12.0801
▁dragonflies	-12.0801
▁visionary	-12.0801
▁exploitation	-12.0802
▁methodology	-12.0802
▁cried	-12.0803
▁standpoint	-12.0803
▁restricted	-12.0803
▁rented	-12.0805
▁dug	-12.0805
▁sketches	-12.0806
▁synthesis	-12.0806
▁larvae	-12.0806
▁incidentally	-12.0808
▁Cairo	-12.0809
▁sweeping	-12.0809
▁dome	-12.081
▁shouting	-12.081
▁beloved	-12.081
▁instability	-12.0811
▁skies	-12.0812
▁annoying	-12.0813
▁literal	-12.0814
▁analytical	-12.0814
▁nurture	-12.0814
▁Rule	-12.0815
▁resemble	-12.0816
▁Hundreds	-12.0817
▁graffiti	-12.0818
▁monsoon	-12.0818
▁Katrina	-12.0818
▁beaches	-12.0819
▁distinctive	-12.0819
▁divine	-12.0823
▁truths	-12.0827
Uncle	-12.0828
▁crowded	-12.0829
▁inexpensive	-12.083
▁heel	-12.0831
▁traditionally	-12.0831
▁editing	-12.0832
▁SB	-12.084
▁port	-12.0842
▁registered	-12.0842
▁hung	-12.0843
▁Forest	-12.0844
ca	-12.0844
▁polite	-12.0845
▁restrictions	-12.0851
ping	-12.0852
Be	-12.0858
▁fuck	-12.0861
▁strict	-12.0862
▁treaty	-12.0862
▁armor	-12.0863
▁reduces	-12.0865
▁releases	-12.0868
▁Best	-12.0872
▁Point	-12.0874
▁compact	-12.0878
▁import	-12.0882
fully	-12.0883
▁matching	-12.0887
▁feared	-12.0894
▁articulate	-12.0894
vascular	-12.0896
▁prevents	-12.0897
▁Side	-12.0898
great	-12.0898
▁grounded	-12.0905
▁veterans	-12.0905
▁founder	-12.0909
▁bind	-12.0909
MG	-12.0916
▁employers	-12.0918
▁singers	-12.0932
▁Julian	-12.094
▁gangs	-12.0944
▁slowing	-12.0947
▁k	-12.0948
▁wonders	-12.0951
▁titles	-12.0954
aving	-12.0959
assembly	-12.0964
▁conditioning	-12.0966
▁stocks	-12.0976
▁memorial	-12.0979
▁statements	-12.0981
▁conclusions	-12.099
▁critic	-12.0991
▁verbal	-12.0995
▁races	-12.0997
▁MS	-12.1
▁sovereign	-12.1002
cellular	-12.1002
▁lined	-12.1017
▁Roger	-12.1019
▁Norwegian	-12.102
▁bionic	-12.102
fashioned	-12.1022
▁scholarship	-12.1023
▁abstraction	-12.1024
▁negotiation	-12.1025
▁diamond	-12.1025
▁blueprint	-12.1025
▁priest	-12.1026
▁prejudice	-12.1026
▁indication	-12.1026
▁employee	-12.1027
▁nerd	-12.1028
▁Tower	-12.1029
▁curator	-12.103
▁Report	-12.1032
▁contents	-12.1034
▁hammer	-12.1037
▁fur	-12.1037
▁whisper	-12.1039
▁hub	-12.1041
▁vibration	-12.1042
▁assign	-12.1042
▁steep	-12.1047
▁conductor	-12.1051
▁trail	-12.1054
▁numb	-12.1058
▁Radio	-12.1066
▁confirm	-12.107
▁rail	-12.1071
▁Help	-12.1074
▁surroundings	-12.1075
aged	-12.1079
▁gallon	-12.1081
▁promotion	-12.1082
▁kite	-12.1084
efficient	-12.1084
These	-12.1089
erial	-12.1093
▁exit	-12.1097
▁indoor	-12.1107
▁transformations	-12.1124
▁surf	-12.1134
▁poetic	-12.1134
▁Tunisia	-12.1141
▁Venezuela	-12.1144
▁satisfy	-12.1144
▁eradicate	-12.1144
▁Jean	-12.1152
▁potato	-12.1153
▁Tibet	-12.1153
with	-12.1155
▁st	-12.1156
▁shade	-12.1156
▁intrinsic	-12.1156
▁superior	-12.1157
▁Fast	-12.1157
▁Baltimore	-12.1157
▁Mediterranean	-12.1157
▁Muhammad	-12.1157
▁improbable	-12.1157
▁repertoire	-12.1157
▁census	-12.1157
▁Vegas	-12.1157
▁contagious	-12.1157
▁malnutrition	-12.1157
▁unpredictable	-12.1157
▁pristine	-12.1157
▁laundry	-12.1157
▁encryption	-12.1157
▁abusive	-12.1157
▁Scottish	-12.1157
▁swap	-12.1157
▁Index	-12.1157
▁Kelly	-12.1157
▁Certainly	-12.1158
▁progressive	-12.1158
▁worthwhile	-12.1158
▁rotating	-12.1158
▁continually	-12.1158
▁arriving	-12.1158
▁Emma	-12.1158
▁boson	-12.1158
▁negotiating	-12.1158
▁nanotechnology	-12.1158
▁portable	-12.1159
▁Franklin	-12.1159
▁incarceration	-12.1159
▁relevance	-12.1159
▁thriving	-12.1159
Barack	-12.116
▁ozone	-12.116
▁acceleration	-12.1161
▁mentality	-12.1161
▁policing	-12.1162
▁Eighty	-12.1162
▁adjacent	-12.1162
▁occupied	-12.1163
▁reache	-12.1163
▁coined	-12.1163
▁globalized	-12.1164
▁lazy	-12.1166
▁aquatic	-12.1166
▁hopeless	-12.1166
▁Venice	-12.1166
▁unequal	-12.1166
▁Massachusetts	-12.1167
▁Especially	-12.1167
▁stressful	-12.1167
▁Somehow	-12.1168
▁selective	-12.1168
▁algebra	-12.117
section	-12.117
▁cabin	-12.1171
▁crawling	-12.1173
▁retired	-12.1173
▁forcing	-12.1173
▁tropics	-12.1173
step	-12.1174
▁flooding	-12.1174
▁Turing	-12.1175
▁bandwidth	-12.1176
▁simplistic	-12.1178
▁bitter	-12.1178
▁vaccinated	-12.1181
▁employed	-12.1182
▁suspicious	-12.1183
▁Believe	-12.1183
▁pools	-12.1184
▁Along	-12.1185
▁incomplete	-12.1186
▁rolls	-12.1188
▁anticipated	-12.1189
▁constructive	-12.119
▁recreation	-12.119
▁votes	-12.1191
▁digitally	-12.1193
▁culturally	-12.1194
▁courts	-12.1199
▁sought	-12.12
▁reacting	-12.1201
sh	-12.1204
▁arose	-12.1205
▁firsthand	-12.1205
esteem	-12.1206
▁united	-12.1206
▁crashing	-12.1212
▁marriages	-12.1212
▁digits	-12.1213
▁determination	-12.1213
▁meantime	-12.1215
▁bands	-12.1215
▁mastery	-12.1219
▁addicted	-12.122
▁streaming	-12.1222
▁excite	-12.1224
▁folds	-12.1224
▁pesticides	-12.1228
conflict	-12.1234
▁Allen	-12.1234
▁fulfilling	-12.1236
▁accompanie	-12.1238
Great	-12.1238
▁kilograms	-12.1243
▁sequenced	-12.1245
▁watches	-12.1248
ying	-12.1255
▁lawn	-12.1257
▁migrants	-12.1261
▁axes	-12.1268
▁cue	-12.1269
hose	-12.1283
air	-12.1285
▁enzymes	-12.1286
▁bumps	-12.1304
▁spends	-12.1305
▁requirements	-12.1306
▁heights	-12.1311
eval	-12.1334
▁friendships	-12.1336
▁rockets	-12.1336
▁fulfill	-12.1338
▁triangles	-12.1339
▁presentations	-12.1353
▁backgrounds	-12.1355
point	-12.1355
▁fictional	-12.1359
▁campaigns	-12.1361
▁commission	-12.1365
▁signing	-12.137
power	-12.1377
▁instincts	-12.1379
have	-12.1385
▁bombsight	-12.1388
▁toast	-12.1388
▁cathedral	-12.1392
▁essay	-12.1393
▁cellphone	-12.1394
▁stereo	-12.1395
▁arrangement	-12.1395
▁excuses	-12.1395
▁enzyme	-12.1395
▁superpower	-12.1395
▁programmer	-12.1398
▁neuro	-12.1399
▁statue	-12.1401
▁blob	-12.1403
▁manufacturer	-12.1404
ina	-12.1406
▁reactors	-12.141
▁combin	-12.1412
▁doses	-12.1413
▁cleaner	-12.142
▁scroll	-12.1421
positive	-12.1422
▁painter	-12.1423
MW	-12.1425
▁PC	-12.1426
▁highways	-12.1428
his	-12.1428
▁stabilize	-12.1429
▁leak	-12.1432
▁rank	-12.144
▁rage	-12.1445
For	-12.1446
▁lobe	-12.1448
▁AT	-12.1455
▁herd	-12.1456
▁tourist	-12.1461
ia	-12.1463
▁demographics	-12.1473
ck	-12.1478
▁collar	-12.1484
▁Real	-12.1484
▁Russians	-12.1489
▁unity	-12.1492
▁rear	-12.1496
▁flourish	-12.1504
rays	-12.1505
▁distress	-12.1509
▁prioritize	-12.1516
▁penetrate	-12.152
▁wreck	-12.1521
▁dominate	-12.1522
▁recreate	-12.1524
▁governor	-12.1524
▁hypothetical	-12.1525
▁visceral	-12.1525
▁compass	-12.1525
▁cultivate	-12.1527
▁Alpha	-12.1527
▁Beethoven	-12.1527
▁DARPA	-12.1527
▁Kyoto	-12.1527
▁Ushahidi	-12.1527
▁faculty	-12.1527
▁mysteries	-12.1527
▁pancreatic	-12.1527
▁estrogen	-12.1527
▁Renaissance	-12.1527
▁erosion	-12.1527
▁Bruce	-12.1527
▁racism	-12.1527
▁charities	-12.1527
▁SARS	-12.1527
▁perceptual	-12.1527
▁forbid	-12.1527
▁Agency	-12.1527
▁biotech	-12.1528
▁sensible	-12.1528
▁misery	-12.1528
▁nurturing	-12.1528
▁Fox	-12.1528
▁Marcus	-12.1528
▁teddy	-12.1528
▁investigating	-12.1528
▁cardio	-12.1528
▁Ninety	-12.1528
▁crises	-12.1528
▁novelty	-12.1528
▁volcano	-12.1528
▁excellence	-12.1528
▁Nicole	-12.1528
▁Already	-12.1529
▁prototyping	-12.1529
▁preferred	-12.1529
▁Much	-12.1529
▁EDI	-12.1529
▁Hawking	-12.153
▁hotter	-12.153
▁randomness	-12.153
▁aviation	-12.153
▁partially	-12.153
▁PhD	-12.153
▁potatoes	-12.1531
▁wander	-12.1531
▁dining	-12.1532
sea	-12.1534
▁broadly	-12.1534
▁smartest	-12.1534
▁geometric	-12.1534
▁integrating	-12.1535
▁urine	-12.1535
▁louder	-12.1535
▁spontaneous	-12.1535
▁relaxed	-12.1535
▁borrowed	-12.1536
▁Wilson	-12.1537
▁bleeding	-12.1537
▁Scotland	-12.1537
▁meanwhile	-12.1537
▁neurogenesis	-12.1537
▁fundraising	-12.1537
▁packaging	-12.1538
▁criticized	-12.1538
▁vicious	-12.1538
▁Perfect	-12.1538
▁automated	-12.1539
▁outrageous	-12.154
▁murdered	-12.154
▁sessions	-12.1541
▁embark	-12.1544
▁petals	-12.1544
▁refined	-12.1544
▁tortured	-12.1545
▁Sputnik	-12.1547
▁Palestine	-12.1547
▁optimal	-12.1547
▁underway	-12.1549
▁constrained	-12.1549
▁Patient	-12.1551
▁pollutants	-12.1551
▁preservation	-12.1553
▁cares	-12.1553
▁internationally	-12.1557
▁attending	-12.1557
▁crosses	-12.1558
▁loops	-12.1559
▁rediscover	-12.1559
▁lifelong	-12.1563
▁acknowledged	-12.1567
▁searches	-12.1567
▁Bad	-12.1571
▁bicycles	-12.1573
▁honeybees	-12.1576
▁escaped	-12.1576
▁climbers	-12.1578
▁pity	-12.1578
▁joyful	-12.1582
▁fighters	-12.1583
▁backup	-12.1585
▁costly	-12.1585
▁Virtual	-12.1586
uring	-12.1588
▁county	-12.1589
▁Li	-12.1589
▁warn	-12.1589
▁reflecting	-12.1589
▁serial	-12.1589
▁Students	-12.1591
▁uncertain	-12.1591
▁invasive	-12.1592
▁weekly	-12.1594
▁modules	-12.1595
▁Live	-12.1597
▁nonviolen	-12.1602
▁schooling	-12.1608
▁favelas	-12.1611
them	-12.1611
▁hello	-12.1613
▁poke	-12.1615
engineering	-12.1619
▁margins	-12.1629
▁advantages	-12.1631
Good	-12.1632
▁Abu	-12.1632
Listen	-12.1635
▁appreciated	-12.1636
ompanies	-12.1638
▁explorers	-12.1647
oriented	-12.1648
▁quad	-12.1648
▁Mind	-12.1649
▁ruins	-12.1651
▁flown	-12.1666
▁deer	-12.1678
▁inefficient	-12.1678
▁departments	-12.1682
▁seasons	-12.1686
▁executives	-12.1687
▁heated	-12.1688
▁amateurs	-12.1699
▁Code	-12.1701
▁hunters	-12.1703
▁sands	-12.172
▁timber	-12.172
ge	-12.1729
▁Mountains	-12.1732
▁floods	-12.1732
▁inventors	-12.1734
peer	-12.1734
▁Modern	-12.1736
▁en	-12.1742
▁receives	-12.1744
▁strand	-12.1749
▁Pro	-12.1749
ot	-12.175
▁dangers	-12.1753
▁tick	-12.1753
▁influences	-12.1766
▁schedule	-12.1771
▁Marine	-12.1772
▁generalize	-12.1776
▁icons	-12.1777
▁rectangle	-12.1777
▁hamburger	-12.1777
▁placebo	-12.1779
▁Computer	-12.1779
▁astronaut	-12.178
performing	-12.1781
more	-12.1782
▁swamp	-12.1782
▁tooth	-12.1783
wood	-12.1784
▁composer	-12.1784
▁battlefield	-12.1785
▁scholar	-12.1785
▁employer	-12.1787
▁contest	-12.1788
▁limitation	-12.179
▁requests	-12.1792
▁fractal	-12.1792
▁zip	-12.1801
▁trunk	-12.1801
▁reporter	-12.1803
▁emission	-12.1807
ably	-12.1809
▁Food	-12.181
▁lander	-12.181
▁developments	-12.182
dragging	-12.1821
▁grim	-12.1823
▁lied	-12.1824
▁flame	-12.1826
▁hairs	-12.183
▁labels	-12.1831
▁psychiatri	-12.184
▁combinations	-12.1841
regulating	-12.1846
▁valued	-12.1849
▁thumbs	-12.185
▁bath	-12.1855
▁secular	-12.1862
▁centimeter	-12.1869
makers	-12.1873
▁heck	-12.1877
▁donation	-12.1877
KA	-12.188
▁wax	-12.1885
▁Down	-12.1886
▁backpack	-12.1887
▁agrees	-12.189
▁thesis	-12.189
▁rip	-12.1894
▁elites	-12.1894
built	-12.1898
▁hats	-12.1898
▁Susan	-12.1902
▁imitate	-12.1905
▁intricate	-12.1909
▁geological	-12.191
▁neurological	-12.191
▁cubic	-12.1911
▁Guatemala	-12.1912
▁Jazeera	-12.1912
▁Pantheon	-12.1912
▁Toronto	-12.1912
▁pneumonia	-12.1912
▁Margaret	-12.1912
▁Samuel	-12.1912
▁paradise	-12.1912
▁Pixar	-12.1912
▁Hopefully	-12.1912
▁Otherwise	-12.1912
▁solemn	-12.1912
▁adulthood	-12.1912
▁foreground	-12.1912
▁rubble	-12.1912
▁melody	-12.1912
▁respiratory	-12.1912
▁scuba	-12.1912
▁testosterone	-12.1912
▁bluefin	-12.1912
▁checklist	-12.1912
▁erectus	-12.1912
▁unified	-12.1912
▁establishment	-12.1913
▁radius	-12.1913
▁nickname	-12.1913
▁confusing	-12.1913
▁ignorant	-12.1913
▁Depression	-12.1913
▁Marshall	-12.1914
▁conceive	-12.1914
▁strictly	-12.1914
▁Poland	-12.1915
▁convenience	-12.1915
▁abnormal	-12.1915
▁Nine	-12.1915
▁portal	-12.1915
▁drowning	-12.1915
ns	-12.1915
▁distorted	-12.1916
▁intrigued	-12.1916
▁Th	-12.1917
▁undermine	-12.1919
▁sapiens	-12.192
▁accidental	-12.1921
▁worries	-12.1921
▁Eight	-12.1921
▁MoMA	-12.1922
▁League	-12.1922
▁Lawrence	-12.1922
▁Simple	-12.1922
▁Several	-12.1922
▁personnel	-12.1922
▁biotechnology	-12.1922
▁difficulties	-12.1922
▁metropolitan	-12.1923
▁specialize	-12.1923
▁vibrating	-12.1923
▁Uber	-12.1923
▁blogging	-12.1924
▁solitary	-12.1924
▁satisfying	-12.1925
▁steering	-12.1926
▁Solar	-12.1926
▁Slow	-12.1927
▁insecure	-12.1927
▁lightweight	-12.1931
▁Easter	-12.1931
▁bury	-12.1932
▁shrinking	-12.1935
counterintuitive	-12.1935
▁Learning	-12.1937
▁Free	-12.1941
▁cognition	-12.1942
▁responsive	-12.1942
▁rewarded	-12.1942
▁Better	-12.1943
▁align	-12.1944
▁Dean	-12.1946
▁appliances	-12.1947
▁drinks	-12.195
▁monthly	-12.195
forward	-12.1951
▁Deep	-12.1954
▁contracts	-12.1958
▁addresses	-12.1959
▁setup	-12.196
▁interfere	-12.1961
▁parked	-12.1962
▁revealing	-12.1963
generation	-12.1964
▁Had	-12.1964
▁biofuels	-12.1968
▁moth	-12.1969
▁poorer	-12.197
▁abused	-12.1971
▁synapses	-12.1973
sharing	-12.1973
▁brakes	-12.1975
▁interviewing	-12.1977
▁hi	-12.1987
▁huh	-12.199
▁torn	-12.1994
green	-12.1997
▁descend	-12.2
▁sneak	-12.2001
▁Miss	-12.2005
▁appearing	-12.2009
▁adolescents	-12.2014
▁overlap	-12.2015
▁ideals	-12.2024
▁inventing	-12.2025
▁providers	-12.2027
Americans	-12.2028
▁geeks	-12.2046
what	-12.2047
▁negotiations	-12.2056
▁inputs	-12.206
▁indoors	-12.2065
assuming	-12.2066
▁centimeters	-12.2067
▁astronomical	-12.2074
▁translates	-12.2079
ir	-12.2082
Not	-12.2083
▁directors	-12.2086
▁Step	-12.209
ke	-12.2094
▁camels	-12.2103
▁facilitate	-12.2109
▁electro	-12.2109
▁manages	-12.2113
▁whip	-12.2123
but	-12.2126
▁IM	-12.2136
▁clap	-12.2137
▁arises	-12.2143
▁Medica	-12.2143
▁lastly	-12.2145
▁filming	-12.2152
▁Julia	-12.2154
▁innate	-12.2159
▁reconstruction	-12.216
▁mandate	-12.2162
▁barrels	-12.2164
▁burial	-12.2164
▁pirate	-12.2165
▁mustard	-12.2165
▁kidneys	-12.2166
▁Nor	-12.217
▁smartphones	-12.2172
▁customs	-12.2172
▁boil	-12.2173
▁fade	-12.2175
▁migraine	-12.2175
▁niece	-12.2175
▁criticism	-12.2176
▁shield	-12.2177
▁Language	-12.2178
▁obligation	-12.2178
▁shortage	-12.2178
▁implication	-12.2179
▁textile	-12.2179
▁manifestation	-12.2179
▁protocol	-12.2179
▁festival	-12.2179
▁makeup	-12.2179
▁committee	-12.2181
▁reminder	-12.2183
▁psychiatrist	-12.2184
▁legend	-12.2185
▁CMU	-12.2187
▁newborn	-12.2187
▁shallow	-12.2188
ding	-12.2189
▁Darwinian	-12.2189
▁tablet	-12.2189
▁backward	-12.219
▁mineral	-12.219
▁Iraqi	-12.2192
▁aspiration	-12.2193
▁attorney	-12.2193
▁conquer	-12.2196
▁wounds	-12.2198
▁Williams	-12.2202
▁timeline	-12.2206
▁journals	-12.2207
▁athlete	-12.221
▁extremes	-12.2213
▁cease	-12.2221
generated	-12.2224
▁payment	-12.2225
▁Bu	-12.2225
▁Net	-12.226
▁Prince	-12.2262
▁angel	-12.2263
▁bombing	-12.2265
ley	-12.2266
▁rides	-12.2267
▁Kenyan	-12.2271
ery	-12.2273
home	-12.2276
▁echo	-12.2277
▁exams	-12.2283
shift	-12.2291
▁strokes	-12.2296
▁accommodate	-12.2299
hether	-12.2299
eye	-12.23
▁Model	-12.23
▁deny	-12.2306
▁divers	-12.2306
▁synthesize	-12.2307
▁extensive	-12.231
▁explicit	-12.231
▁incremental	-12.231
▁praise	-12.2311
Sweeney	-12.2312
▁Colorado	-12.2312
▁Darfur	-12.2312
▁Dylan	-12.2312
▁Oregon	-12.2312
▁RISD	-12.2312
▁Wolfram	-12.2312
▁ambiguity	-12.2312
▁illiterate	-12.2312
▁Idaho	-12.2312
▁humiliation	-12.2312
▁Club	-12.2312
▁sympathy	-12.2312
▁Compassion	-12.2312
▁Corporation	-12.2312
▁unaware	-12.2312
▁Murray	-12.2312
▁literary	-12.2312
▁decentralized	-12.2312
▁Pepsi	-12.2312
▁irrigation	-12.2312
▁solidarity	-12.2312
▁hippocampus	-12.2312
▁discourse	-12.2312
▁Avenue	-12.2312
▁conspiracy	-12.2312
▁resurrection	-12.2312
▁hobby	-12.2312
▁Sadly	-12.2312
▁amino	-12.2312
▁envy	-12.2313
▁Grace	-12.2313
▁undercover	-12.2313
▁unsustainable	-12.2313
▁devastated	-12.2313
▁flipped	-12.2313
▁Village	-12.2313
▁drowned	-12.2313
▁inadequate	-12.2314
▁Ella	-12.2314
▁liberation	-12.2314
▁hiring	-12.2315
▁fishery	-12.2315
▁exclusively	-12.2315
▁jeans	-12.2315
▁ruling	-12.2315
▁educating	-12.2317
▁accidentally	-12.2317
▁humanities	-12.2317
▁coherent	-12.2318
▁elevated	-12.2318
▁chalk	-12.2318
▁simplify	-12.2318
▁enjoyable	-12.2318
▁bent	-12.2318
▁reply	-12.2319
▁recruited	-12.2319
▁Type	-12.2319
▁devised	-12.2319
▁identification	-12.232
▁fairness	-12.232
▁periodic	-12.2321
▁frequent	-12.2321
▁corresponding	-12.2321
▁erotic	-12.2321
▁severely	-12.2321
▁gecko	-12.2322
▁grace	-12.2322
▁Behind	-12.2322
▁scalable	-12.2322
▁juggling	-12.2322
▁unfinished	-12.2322
▁fatty	-12.2323
▁Forty	-12.2325
▁regain	-12.2326
▁Irish	-12.2326
▁industrialized	-12.2326
▁eradicated	-12.2326
▁invaded	-12.2327
▁ideological	-12.233
▁downloaded	-12.233
To	-12.2331
▁Vinci	-12.2332
▁Neither	-12.2333
▁protesters	-12.2333
▁Incredible	-12.2333
▁Justine	-12.2333
▁dried	-12.2334
▁NL	-12.2334
▁secretly	-12.2336
▁switches	-12.2337
▁absorbed	-12.2337
▁eliminated	-12.2338
▁defending	-12.2339
▁Mama	-12.2342
▁cybercriminals	-12.2343
▁offensive	-12.2343
▁Hy	-12.2345
▁contaminated	-12.2348
▁Poor	-12.2348
▁appealing	-12.2348
▁quarters	-12.235
▁demanded	-12.2351
▁animations	-12.2353
▁drilling	-12.2354
▁behaving	-12.2355
▁Teacher	-12.2366
▁Himalayas	-12.237
▁questioned	-12.2371
▁Las	-12.2375
▁teens	-12.238
ow	-12.2383
▁stretched	-12.2391
▁Christ	-12.2391
▁caregivers	-12.2403
▁indicators	-12.2413
▁addicts	-12.2414
▁openly	-12.2423
wide	-12.2429
driving	-12.2429
▁academics	-12.2432
▁grip	-12.2433
▁neuroscientists	-12.2435
industrial	-12.2442
▁snap	-12.2445
▁leaks	-12.2446
▁worn	-12.246
▁blows	-12.2461
▁medi	-12.2463
▁noises	-12.2464
▁ruled	-12.2467
▁souls	-12.2467
wandering	-12.2467
▁donations	-12.2469
▁gram	-12.2472
▁dodo	-12.2475
▁bo	-12.2491
▁pets	-12.2496
▁peaks	-12.2497
▁Germans	-12.2503
most	-12.251
▁upwards	-12.2515
▁trusting	-12.2515
ize	-12.2516
▁hotels	-12.2518
▁magnets	-12.2519
▁quotes	-12.2524
▁creators	-12.2526
ional	-12.2534
et	-12.2543
▁Rob	-12.2544
▁Fred	-12.2546
▁guessing	-12.2547
▁arc	-12.2548
form	-12.255
▁husbands	-12.2552
▁Whoa	-12.2552
▁representatives	-12.2555
▁Us	-12.2556
▁poles	-12.2556
▁sew	-12.2561
Your	-12.2563
▁suggestions	-12.2566
han	-12.2573
▁racist	-12.2576
▁unfold	-12.2576
▁BMW	-12.2579
▁joints	-12.258
▁delete	-12.2584
▁presents	-12.2587
▁announcement	-12.2587
▁forehead	-12.2588
▁attachment	-12.2589
▁orphanage	-12.2591
▁automobiles	-12.2593
▁janitor	-12.2594
▁passport	-12.2594
▁certificate	-12.2595
▁transistor	-12.2596
▁Wars	-12.2596
▁Dead	-12.2597
▁historian	-12.2597
▁cartoonist	-12.2598
organizing	-12.2599
▁freeway	-12.2599
▁province	-12.2599
▁cabinet	-12.2599
▁lever	-12.2599
▁geek	-12.26
▁choir	-12.26
▁wallet	-12.2602
▁Cooper	-12.2603
rushed	-12.2603
▁blessing	-12.2604
▁settlement	-12.2604
▁dude	-12.2605
▁idiot	-12.2606
▁thermo	-12.261
▁dim	-12.261
▁ringing	-12.261
▁settings	-12.2611
▁bull	-12.2612
good	-12.2612
▁BC	-12.2612
▁Jo	-12.2614
▁rendering	-12.2615
▁peel	-12.2616
▁yields	-12.2617
▁banker	-12.2617
▁aged	-12.2623
au	-12.2632
ology	-12.2633
▁handy	-12.2641
▁Buy	-12.2655
rich	-12.2655
▁explorer	-12.2656
▁achievements	-12.2666
win	-12.2672
▁conservatives	-12.2678
Star	-12.2684
▁airports	-12.2685
▁descriptions	-12.2691
nterviewer	-12.2695
▁metaphors	-12.2706
▁ba	-12.2707
▁lump	-12.2712
▁invade	-12.2715
▁digitize	-12.2716
▁plunge	-12.2716
▁devote	-12.2718
▁reconcile	-12.2718
▁Commission	-12.2719
▁confuse	-12.2721
▁heavens	-12.2722
▁inhabit	-12.2724
▁Got	-12.2724
▁quantitative	-12.2726
▁fierce	-12.2726
▁deliberate	-12.2727
▁Glass	-12.2728
▁provision	-12.2728
▁Holocaust	-12.2729
▁Magazine	-12.2729
▁Mississippi	-12.2729
▁Reagan	-12.2729
▁Starbucks	-12.2729
▁Tahrir	-12.2729
▁Taylor	-12.2729
▁Tennessee	-12.2729
▁Vancouver	-12.2729
▁asylum	-12.2729
▁bioluminescence	-12.2729
▁emphasis	-12.2729
▁Armstrong	-12.2729
▁Conference	-12.2729
▁Rosetta	-12.2729
▁tiniest	-12.2729
▁alpha	-12.2729
▁vibrant	-12.2729
▁Energy	-12.2729
▁AIMS	-12.2729
▁capacities	-12.2729
▁Guardian	-12.2729
▁acronym	-12.2729
▁Goliath	-12.2729
▁CNN	-12.2729
▁antibodies	-12.2729
▁Oakland	-12.2729
▁ingenious	-12.2729
▁Federal	-12.2729
▁stunning	-12.2729
▁sterile	-12.2729
▁immortality	-12.2729
▁Economist	-12.2729
▁mammography	-12.2729
▁immigration	-12.2729
▁intrinsically	-12.2729
▁auditory	-12.2729
▁payload	-12.2729
▁admitted	-12.2729
▁damaging	-12.273
▁geese	-12.273
▁functionality	-12.273
▁starving	-12.273
▁rejection	-12.273
▁fertility	-12.273
▁Hope	-12.273
▁dominance	-12.2731
▁mantra	-12.2731
▁adequate	-12.2731
▁ancestry	-12.2731
▁prevalent	-12.2732
▁motto	-12.2732
▁toughest	-12.2732
▁creepy	-12.2732
▁varied	-12.2732
▁immersed	-12.2733
▁hurry	-12.2733
▁immensely	-12.2733
▁tipping	-12.2734
▁richness	-12.2734
▁swallowed	-12.2735
▁epic	-12.2735
▁residential	-12.2736
▁rendered	-12.2736
▁kings	-12.2736
▁Doug	-12.2737
▁veil	-12.2737
▁Everglades	-12.2738
▁complained	-12.2738
▁stimulus	-12.2738
▁Scratch	-12.2739
▁disparate	-12.2739
▁uploaded	-12.2739
▁mama	-12.2739
▁mill	-12.274
▁Titanic	-12.274
▁fleet	-12.2741
▁boiling	-12.2741
▁poets	-12.2743
▁flourishing	-12.2743
Mart	-12.2743
▁officially	-12.2743
▁Rica	-12.2745
▁TR	-12.2745
▁sealed	-12.2749
▁efficacy	-12.275
▁extracted	-12.2752
▁hacked	-12.2753
▁broadcasting	-12.2753
▁effectiveness	-12.2754
▁strangely	-12.2757
▁crashed	-12.2757
▁Sri	-12.2758
lin	-12.2758
▁certified	-12.2761
▁tourism	-12.2762
▁Police	-12.2762
▁Sh	-12.2762
▁alarming	-12.2763
▁Windows	-12.2765
▁speeches	-12.2765
▁cruise	-12.2767
▁correspond	-12.2769
▁expressive	-12.277
▁tails	-12.277
▁PH	-12.277
▁wiring	-12.2772
▁monitored	-12.2772
▁AO	-12.2774
▁Million	-12.2775
▁spades	-12.2775
▁contexts	-12.2777
▁Mahat	-12.2778
▁CC	-12.2779
▁databases	-12.2779
▁Bond	-12.2787
▁fluctuations	-12.2789
▁struggles	-12.2794
▁cooked	-12.2795
▁draft	-12.2797
ucked	-12.2801
▁lava	-12.2805
▁claimed	-12.2805
white	-12.2807
▁Inside	-12.2818
▁Arts	-12.2818
▁bikes	-12.2819
▁searched	-12.2821
borne	-12.2824
ities	-12.2828
▁relational	-12.2829
▁pixels	-12.283
▁Sony	-12.283
▁moms	-12.2834
▁du	-12.2841
▁tapirs	-12.2841
▁occupation	-12.2846
▁dismiss	-12.2847
RL	-12.2857
growth	-12.2857
▁coma	-12.2863
▁improves	-12.2865
▁ray	-12.2867
▁digest	-12.2877
▁Add	-12.2879
▁poop	-12.2879
▁lover	-12.288
Jeopardy	-12.288
▁rightly	-12.2881
low	-12.2882
Give	-12.2882
light	-12.2882
▁bell	-12.2889
▁chunks	-12.2891
▁seasonal	-12.2899
▁Truth	-12.2902
ned	-12.2903
Stop	-12.2904
▁uh	-12.2909
Mr	-12.2922
▁Ca	-12.2923
▁bricks	-12.2924
▁tweets	-12.2924
▁virtues	-12.2924
▁gates	-12.2926
▁shove	-12.2927
▁merge	-12.2929
▁surprises	-12.2931
▁diagnostics	-12.2937
▁stated	-12.2938
▁Port	-12.2943
▁tilt	-12.2947
▁Compare	-12.2948
ging	-12.2949
▁novels	-12.2953
▁crush	-12.2955
▁servers	-12.2956
lived	-12.2961
▁tales	-12.2969
▁detectors	-12.2971
▁polls	-12.2991
▁founding	-12.3014
▁catalyst	-12.3021
▁interrupt	-12.3021
▁scrap	-12.3021
▁rows	-12.3022
▁Fly	-12.3026
▁Bring	-12.3026
▁syringe	-12.3028
▁Economic	-12.3028
▁motorcycle	-12.3029
kin	-12.3029
▁accomplishment	-12.3029
▁circumstance	-12.3029
▁neuroscientist	-12.3031
▁headache	-12.3031
▁veteran	-12.3031
▁lamb	-12.3032
▁clicks	-12.3033
▁aesthetics	-12.3034
▁dictator	-12.3034
▁chord	-12.3035
▁installations	-12.3039
▁Bridge	-12.3045
▁converge	-12.3047
▁throws	-12.3054
▁carrot	-12.3055
▁sticker	-12.3057
▁Book	-12.3063
▁boyfriend	-12.3086
▁liberals	-12.3087
▁insult	-12.3091
▁butter	-12.3093
▁speculate	-12.3117
▁Brain	-12.3128
▁liar	-12.3141
▁adventures	-12.3141
effective	-12.3143
▁shells	-12.3147
▁regimes	-12.3147
▁UN	-12.3147
▁tolerate	-12.3148
▁beats	-12.315
▁swear	-12.3154
▁Sex	-12.3157
▁mite	-12.3158
▁inflate	-12.3158
▁rigorous	-12.3161
▁rhetoric	-12.3161
▁render	-12.3162
▁Hitler	-12.3163
▁Madagascar	-12.3163
▁Pentagon	-12.3163
▁StoryCorps	-12.3163
▁Tamiflu	-12.3163
▁Tehran	-12.3163
▁Toyota	-12.3163
▁desperation	-12.3163
▁periphery	-12.3163
▁presumably	-12.3163
▁Falcon	-12.3163
▁Nevada	-12.3163
▁bioluminescent	-12.3163
▁Dubai	-12.3163
▁Miami	-12.3163
▁charcoal	-12.3163
▁starvation	-12.3163
▁Digital	-12.3163
▁unpleasant	-12.3163
▁vague	-12.3163
▁Edison	-12.3163
▁Essentially	-12.3163
▁Gaza	-12.3163
▁casualties	-12.3163
▁disbelief	-12.3163
▁moisture	-12.3163
ipcar	-12.3163
▁banjo	-12.3163
▁unnecessary	-12.3163
▁Cameron	-12.3164
▁incubator	-12.3164
▁degradation	-12.3164
▁fission	-12.3164
▁Russell	-12.3164
▁Witness	-12.3164
▁confession	-12.3164
▁horrified	-12.3164
▁downstairs	-12.3164
▁apparatus	-12.3164
▁involvement	-12.3164
▁Left	-12.3164
▁sewage	-12.3164
▁arteries	-12.3164
▁drank	-12.3164
▁Josh	-12.3164
▁swirl	-12.3164
▁Christianity	-12.3164
▁ninth	-12.3164
▁Nathan	-12.3164
▁brink	-12.3164
▁Ohio	-12.3164
▁primal	-12.3165
▁whistling	-12.3165
▁Oliver	-12.3165
▁Ground	-12.3166
▁unimaginable	-12.3166
▁instinctively	-12.3166
▁messaging	-12.3167
▁modular	-12.3167
▁populated	-12.3167
▁Europa	-12.3167
▁circuitry	-12.3169
▁Kibera	-12.3169
▁ballot	-12.3172
▁dunes	-12.3172
▁erase	-12.3173
▁strongest	-12.3173
▁availability	-12.3173
▁dumped	-12.3173
▁classmates	-12.3173
▁Agnes	-12.3174
▁BBC	-12.3174
▁Isaac	-12.3174
▁revenge	-12.3174
▁Circle	-12.3174
▁virtuous	-12.3174
▁Fahrenheit	-12.3174
▁susceptible	-12.3174
▁disposal	-12.3174
▁memorable	-12.3175
▁Fortune	-12.3175
▁translating	-12.3176
▁balancing	-12.3176
▁intentional	-12.3176
▁suitable	-12.3176
▁brute	-12.3177
▁Fourth	-12.3177
▁Han	-12.3178
▁inhabitants	-12.3179
▁centralized	-12.3181
was	-12.3182
▁Raise	-12.3182
▁commissioned	-12.3182
▁Pope	-12.3185
▁beekeepers	-12.3185
saving	-12.3187
▁bombard	-12.3189
▁animated	-12.3189
▁enhanced	-12.319
▁arithmetic	-12.3191
▁guidelines	-12.3191
▁arranged	-12.3196
ink	-12.3196
▁ministers	-12.3197
▁fonts	-12.3198
▁rainy	-12.3202
▁oxide	-12.3205
▁learner	-12.3206
▁edited	-12.3207
▁rebuilding	-12.3208
▁Veronica	-12.3208
▁veins	-12.3209
▁concluded	-12.3211
▁dragge	-12.3213
▁claws	-12.3216
▁scripts	-12.3216
▁surfing	-12.3218
trapped	-12.3219
▁gifted	-12.3224
▁Anything	-12.3225
ning	-12.3226
▁declined	-12.3227
▁Sub	-12.3237
▁powerfully	-12.324
▁Ear	-12.3244
▁End	-12.3244
▁cult	-12.3249
▁wrestle	-12.3253
▁switching	-12.3254
▁Welcome	-12.3255
▁Nice	-12.3262
Just	-12.3267
ol	-12.3269
▁boot	-12.3272
▁versa	-12.3275
▁derived	-12.3276
▁Stay	-12.3278
▁immigrants	-12.328
▁levers	-12.33
▁preserv	-12.3303
▁transistors	-12.3304
▁scholars	-12.3309
▁prizes	-12.3311
▁traded	-12.3316
▁troubled	-12.3317
this	-12.332
▁stunts	-12.3324
▁beans	-12.3326
▁traumatic	-12.3334
illennium	-12.3337
▁carbonate	-12.3342
▁reviewed	-12.3343
▁workshops	-12.3346
etween	-12.3351
▁grabs	-12.3364
▁filmmakers	-12.3364
▁collapses	-12.3372
▁Band	-12.3373
funded	-12.3375
▁DE	-12.3377
dy	-12.3378
▁Rose	-12.338
▁tattoos	-12.3381
▁SR	-12.3381
mer	-12.3383
▁Iranians	-12.3393
▁founders	-12.3404
▁suffers	-12.3406
▁scars	-12.3412
pressed	-12.3422
▁rabbi	-12.3427
▁Europeans	-12.3436
▁ho	-12.3437
linear	-12.3437
proof	-12.3441
▁metrics	-12.3447
▁Among	-12.3449
▁bullets	-12.3455
▁alike	-12.3458
▁plague	-12.346
▁embarrassment	-12.3464
▁integral	-12.3465
▁discomfort	-12.3465
▁lasting	-12.3466
▁catalog	-12.3468
▁Saint	-12.3469
▁straw	-12.3471
▁respects	-12.3471
▁psychic	-12.3475
▁snapshot	-12.3481
▁hurricane	-12.3481
▁supercomputer	-12.3482
▁puppet	-12.3482
▁waterfall	-12.3483
▁mortgage	-12.3483
▁flap	-12.3483
▁currents	-12.3483
▁substitute	-12.3484
▁billboard	-12.3484
▁spaceship	-12.3484
▁curtain	-12.3485
▁calculator	-12.3486
▁blanket	-12.3486
▁upgrade	-12.3493
▁buzz	-12.3493
▁strive	-12.3494
▁Neanderthal	-12.3496
▁revelation	-12.3496
▁tensions	-12.3496
▁spills	-12.3497
▁psychopath	-12.3498
▁collaborator	-12.35
ors	-12.3508
▁booth	-12.3521
▁plaster	-12.3523
▁swarm	-12.3526
▁treasure	-12.3532
▁obtain	-12.3541
▁rabbit	-12.3545
▁agnostic	-12.3549
▁Though	-12.3561
▁Grow	-12.3572
▁announce	-12.3574
▁sniff	-12.3578
▁trillions	-12.3582
▁simulations	-12.3588
▁wi	-12.3589
▁shuffle	-12.3595
▁whil	-12.3597
▁Ge	-12.3599
▁provider	-12.3601
▁reflex	-12.3602
▁printers	-12.3603
▁writes	-12.3605
da	-12.3605
▁dye	-12.3606
▁prescribe	-12.3606
▁criticize	-12.3607
▁awe	-12.3607
▁bleed	-12.3607
que	-12.3609
▁pedal	-12.3611
▁enthusiastic	-12.3611
▁dedicate	-12.3612
▁seize	-12.3613
▁browse	-12.3614
odd	-12.3614
▁affection	-12.3615
▁persistent	-12.3616
▁weakness	-12.3616
▁competent	-12.3617
▁intellect	-12.3618
▁CERN	-12.3618
▁Collider	-12.3618
▁Enceladus	-12.3618
▁Exxon	-12.3618
▁Jonathan	-12.3618
▁Lakota	-12.3618
▁Nanopatch	-12.3618
▁centigrade	-12.3618
▁epiphany	-12.3618
▁junior	-12.3618
▁lithium	-12.3618
▁primordial	-12.3618
▁unthinkable	-12.3618
▁yogurt	-12.3618
▁Malawi	-12.3618
▁butterflies	-12.3618
▁uranium	-12.3618
▁variability	-12.3618
▁Excellent	-12.3618
▁penicillin	-12.3618
▁cochlea	-12.3618
▁deceased	-12.3618
▁Senate	-12.3618
▁daunting	-12.3618
▁CIA	-12.3618
▁Caltech	-12.3618
▁courtyard	-12.3618
▁recruitment	-12.3618
▁unlimited	-12.3618
▁arrival	-12.3618
▁fungus	-12.3618
▁Gordon	-12.3618
▁Jesse	-12.3618
▁Galileo	-12.3618
▁Venter	-12.3618
▁propulsion	-12.3618
▁commentary	-12.3618
▁communal	-12.3618
▁Vietnamese	-12.3618
▁nursing	-12.3618
▁participatory	-12.3619
▁Southeast	-12.3619
▁Potter	-12.3619
▁browsing	-12.3619
▁Barry	-12.3619
▁Achilles	-12.3619
▁eliminating	-12.3619
▁rainwater	-12.3619
▁shiny	-12.3619
▁Portland	-12.3619
▁advancing	-12.3619
▁zoning	-12.3619
▁refers	-12.3619
▁Antarctic	-12.3619
▁captur	-12.362
▁proposing	-12.362
▁wastewater	-12.362
▁Glenn	-12.362
▁encrypted	-12.362
▁artery	-12.3621
▁shattered	-12.3621
▁urgency	-12.3621
▁plotted	-12.3621
▁spotted	-12.3621
▁Wired	-12.3621
▁gently	-12.3622
▁substantially	-12.3622
▁Plan	-12.3622
▁standardized	-12.3622
▁IMF	-12.3622
▁exposing	-12.3623
▁Eden	-12.3623
▁subset	-12.3623
▁seriousness	-12.3624
▁Joel	-12.3624
▁amplify	-12.3624
▁magnify	-12.3626
▁Cross	-12.3626
▁spirits	-12.3626
▁destined	-12.3627
▁collections	-12.3628
▁intuitively	-12.3628
▁unfamiliar	-12.3629
▁Captain	-12.3629
▁Channel	-12.3629
▁Flickr	-12.3629
▁Houston	-12.3629
▁Jennifer	-12.3629
▁loyalty	-12.3629
▁desertification	-12.3629
▁Sebastian	-12.3629
▁Maryland	-12.363
▁Beyond	-12.363
▁clapping	-12.363
▁enlightened	-12.363
▁preschool	-12.363
▁sunny	-12.3631
▁Moses	-12.3631
▁melted	-12.3631
▁tougher	-12.3633
▁systemic	-12.3635
▁sank	-12.3635
▁universally	-12.3636
▁Progress	-12.3637
▁gel	-12.3639
▁sucked	-12.3639
▁handsome	-12.3639
▁Working	-12.364
▁twenty	-12.364
▁execute	-12.364
▁governed	-12.3641
▁maze	-12.3642
▁shares	-12.3642
▁Baby	-12.3643
▁popping	-12.3643
▁belonged	-12.3645
▁tactics	-12.3646
▁opt	-12.3647
▁agile	-12.3647
▁Westerners	-12.3647
▁villagers	-12.3647
▁flashing	-12.365
She	-12.3651
▁tearing	-12.3652
▁badge	-12.3652
▁determining	-12.3654
▁MM	-12.3655
▁Theater	-12.3656
▁collaborat	-12.3656
▁supposedly	-12.3657
▁perpetual	-12.3658
▁diffuse	-12.366
▁Lesters	-12.366
▁watt	-12.3666
▁filed	-12.3667
▁possess	-12.3668
living	-12.3673
▁greed	-12.3673
▁extending	-12.3675
▁understandable	-12.3681
offs	-12.3688
▁Ivan	-12.3693
▁curved	-12.3696
▁packing	-12.3697
▁gloves	-12.3698
▁hence	-12.3698
species	-12.3698
▁evident	-12.3701
▁Trust	-12.3704
▁Excuse	-12.3713
▁clicking	-12.372
DL	-12.3724
▁swarms	-12.3732
alactic	-12.3733
▁transactions	-12.3735
▁Ali	-12.3739
▁performers	-12.374
▁shocks	-12.3741
bound	-12.3742
Our	-12.3743
▁fairy	-12.3743
▁Pe	-12.3745
▁cleared	-12.3746
plus	-12.3753
▁Convention	-12.3756
▁forum	-12.3757
▁headaches	-12.3759
▁resulted	-12.376
▁rabbits	-12.3763
▁blobs	-12.3773
▁aspire	-12.3775
party	-12.3778
▁earnings	-12.3783
▁dictate	-12.3789
▁germs	-12.3793
▁notation	-12.3807
▁sidewalks	-12.3815
▁surge	-12.3827
▁expands	-12.3829
Mom	-12.383
Day	-12.383
Hello	-12.3833
▁crystals	-12.384
▁AV	-12.3841
▁Hadr	-12.3848
▁assist	-12.3862
▁meanings	-12.3865
▁donate	-12.388
▁Pa	-12.388
disciplinary	-12.3882
▁aura	-12.3882
▁transforms	-12.3885
▁formats	-12.3891
▁slices	-12.3891
▁beginnings	-12.3894
▁thirds	-12.3895
▁burns	-12.3895
▁incidents	-12.3896
▁Tree	-12.3898
solving	-12.39
▁Whitopia	-12.3905
▁LEDs	-12.3908
▁spit	-12.3908
▁mortal	-12.3909
reating	-12.3912
▁Call	-12.3917
▁Soon	-12.3919
ended	-12.3922
ner	-12.3923
▁union	-12.3923
▁Self	-12.3926
▁distill	-12.3934
▁BP	-12.3936
▁extraction	-12.3938
▁cheer	-12.3942
▁cliffs	-12.3942
▁MBA	-12.3942
▁scaffold	-12.3943
▁pepper	-12.3943
▁excerpt	-12.3947
▁marvel	-12.3947
▁pinpoint	-12.3948
▁suitcase	-12.3948
▁wh	-12.3949
▁Move	-12.3951
▁semester	-12.3952
▁persist	-12.3953
▁servant	-12.3957
▁compliment	-12.3957
▁wetsuit	-12.3958
▁railroad	-12.3958
▁crocodile	-12.3959
▁simulator	-12.3959
▁submarine	-12.396
▁manuscript	-12.396
▁thylacine	-12.396
▁conviction	-12.3961
▁restoration	-12.3961
▁snail	-12.3961
▁payoff	-12.3962
▁TEDster	-12.3963
▁rainbow	-12.3964
field	-12.3965
▁anthropologist	-12.3966
▁migrant	-12.3966
▁stakes	-12.3967
proving	-12.3967
▁Snow	-12.3967
▁Innovation	-12.3968
▁valve	-12.3968
wept	-12.3969
▁generator	-12.3969
▁virgin	-12.3971
▁missile	-12.3972
▁oyster	-12.3973
▁Ages	-12.3975
▁ac	-12.3978
▁Word	-12.3983
▁strain	-12.3985
▁inability	-12.3988
▁lymph	-12.3988
▁moderate	-12.3989
▁Evan	-12.3991
▁jets	-12.3994
▁visualiz	-12.3996
▁predicts	-12.4005
▁Wide	-12.4005
▁profiles	-12.4014
▁Girls	-12.4022
▁SM	-12.4027
▁controller	-12.4028
ah	-12.4033
▁ham	-12.4039
▁develops	-12.405
born	-12.4052
▁structured	-12.4054
▁atheist	-12.4059
▁believer	-12.4064
▁meta	-12.4069
▁BL	-12.407
▁collide	-12.4075
▁ignor	-12.4075
▁nests	-12.4077
▁Fair	-12.4078
▁supernova	-12.4081
▁neglect	-12.4089
▁slaughter	-12.4089
▁Forget	-12.4089
▁cumulative	-12.4091
▁imaginative	-12.4092
▁compose	-12.4094
▁royal	-12.4094
▁Bahamas	-12.4094
▁Cassini	-12.4094
▁Financial	-12.4094
▁Panbanisha	-12.4094
▁Raisuddin	-12.4094
▁anonymity	-12.4094
▁treadmill	-12.4094
▁Bonica	-12.4094
▁proliferation	-12.4094
▁Philippines	-12.4094
▁socioeconomic	-12.4094
▁desalination	-12.4094
▁crochet	-12.4094
▁WHO	-12.4094
▁bronze	-12.4094
▁accumulation	-12.4094
▁proxy	-12.4094
▁prosperous	-12.4094
▁humidity	-12.4094
▁subsidies	-12.4094
▁Friedman	-12.4094
▁Ryan	-12.4094
▁scarcity	-12.4094
▁continuity	-12.4094
▁ultrasound	-12.4094
▁interference	-12.4094
▁Duke	-12.4094
▁pornography	-12.4095
▁Jason	-12.4095
▁cosmology	-12.4095
▁policymakers	-12.4095
▁Jackson	-12.4095
▁immunity	-12.4095
▁freshwater	-12.4095
▁Normally	-12.4095
▁hygiene	-12.4095
▁incarcerated	-12.4095
▁maize	-12.4095
▁atrazine	-12.4095
▁arrives	-12.4095
▁Ever	-12.4095
▁thoroughly	-12.4095
▁committing	-12.4096
▁outdated	-12.4096
▁predictive	-12.4097
▁thankfully	-12.4097
▁Rachel	-12.4097
▁adversity	-12.4097
▁clash	-12.4098
▁comprised	-12.4098
▁pissed	-12.4098
▁stiff	-12.4099
▁flawed	-12.4099
▁Walker	-12.4099
▁endlessly	-12.41
▁width	-12.41
▁overweight	-12.4101
▁durable	-12.4101
▁pale	-12.4102
▁chewing	-12.4102
▁distracted	-12.4103
▁drifted	-12.4103
▁bless	-12.4103
▁comets	-12.4104
▁upstream	-12.4104
▁convergence	-12.4105
▁immortal	-12.4105
▁vertically	-12.4105
▁tutoring	-12.4105
▁Carol	-12.4105
▁Turkish	-12.4106
▁imbalance	-12.4106
▁Movember	-12.4106
▁supermassive	-12.4106
▁navigation	-12.4106
▁Anonymous	-12.4106
▁mainframe	-12.4106
▁stripped	-12.4107
▁accumulating	-12.4107
▁dreadful	-12.4107
▁differential	-12.4107
▁classified	-12.4108
▁Road	-12.4108
▁Bono	-12.4108
▁Fear	-12.4108
▁automotive	-12.4108
▁True	-12.4108
▁shortest	-12.4108
▁extends	-12.4108
▁fragmented	-12.4109
▁aquaculture	-12.4109
▁marched	-12.4109
▁Online	-12.411
▁compatible	-12.411
▁FO	-12.411
▁enlist	-12.411
▁Oil	-12.411
▁startling	-12.4111
▁Neil	-12.4112
▁begging	-12.4114
▁disc	-12.4115
▁clinically	-12.4115
▁punished	-12.4115
▁Cuban	-12.4115
▁Creative	-12.4116
▁stark	-12.4117
▁weaker	-12.4117
▁measurable	-12.4118
lasting	-12.4119
▁stimulated	-12.4119
▁waving	-12.4124
sanitary	-12.4126
▁conducting	-12.4126
▁displayed	-12.4128
years	-12.413
▁apartheid	-12.4131
▁testimony	-12.4131
▁colder	-12.4131
▁accumulated	-12.4133
▁finest	-12.4135
▁regulated	-12.4136
▁remittances	-12.4137
▁pub	-12.4138
▁packaged	-12.4143
▁hypertension	-12.4143
▁void	-12.4144
▁lining	-12.4146
▁dysfunctional	-12.4147
▁welcomed	-12.4149
▁loser	-12.4149
▁diver	-12.4153
▁terrestrial	-12.4154
take	-12.4157
▁technologists	-12.4161
▁attempting	-12.4165
▁Midwest	-12.4174
▁forgetting	-12.4176
▁thou	-12.4178
▁hosts	-12.4179
▁relie	-12.418
▁KS	-12.4185
▁Kal	-12.419
lapse	-12.4196
▁Mov	-12.4196
▁Kim	-12.4198
▁genomics	-12.42
▁cured	-12.4201
paid	-12.4204
▁optics	-12.4205
heart	-12.4205
▁Bear	-12.4205
▁Rich	-12.4206
▁Khan	-12.4206
▁Dick	-12.4207
▁prosecutors	-12.4209
▁closet	-12.421
▁mites	-12.4212
People	-12.4213
▁feathers	-12.4213
▁psyche	-12.4215
▁baker	-12.4216
▁technicians	-12.4216
▁flaws	-12.4216
▁guessed	-12.4217
▁telephones	-12.4229
▁directed	-12.4232
▁survives	-12.4243
▁flames	-12.4245
▁photographing	-12.4253
▁Cal	-12.4254
▁vents	-12.4255
▁hedge	-12.4259
▁pluck	-12.4259
Maybe	-12.426
▁Brand	-12.4261
▁bites	-12.4261
▁worthless	-12.4265
▁Save	-12.4265
▁guests	-12.4266
▁forage	-12.4267
▁cling	-12.4267
▁references	-12.4268
top	-12.4269
▁cookies	-12.4279
▁toaster	-12.428
Of	-12.4282
ung	-12.4288
▁spines	-12.4291
▁MO	-12.4296
▁liking	-12.43
▁flee	-12.4303
▁associations	-12.4307
Wait	-12.4307
▁RG	-12.4309
▁containers	-12.4314
ely	-12.4318
▁archives	-12.4326
▁tribute	-12.4332
med	-12.4332
▁Com	-12.4336
▁Photoshop	-12.434
▁pedestrians	-12.434
▁shores	-12.4341
▁receptors	-12.4342
▁charts	-12.4344
why	-12.4349
round	-12.4351
▁motivates	-12.4359
▁membranes	-12.4372
▁Romo	-12.4372
▁bi	-12.4374
▁Pick	-12.4377
▁Control	-12.4378
▁occasions	-12.4387
▁weave	-12.4389
▁ropes	-12.4391
▁Check	-12.4392
▁lengths	-12.4394
▁surrounds	-12.4395
▁olive	-12.44
▁deflect	-12.4413
▁Differen	-12.4414
ide	-12.4416
city	-12.4434
▁sponsor	-12.4439
▁shoreline	-12.4439
▁Survey	-12.444
▁pension	-12.4441
▁typeface	-12.4442
▁savanna	-12.4443
▁Arabs	-12.4444
▁linguistic	-12.4448
▁battles	-12.4449
▁drain	-12.4451
▁raft	-12.4452
▁Award	-12.4455
▁mammogram	-12.4456
▁Group	-12.4456
▁surrender	-12.4456
▁capsule	-12.4457
▁expeditions	-12.4457
▁embryo	-12.4459
▁polymer	-12.4459
▁Service	-12.4459
▁deployment	-12.446
▁Town	-12.446
▁Mayor	-12.4461
▁turtle	-12.4461
▁pioneers	-12.4462
▁tapir	-12.4464
▁evaluation	-12.4464
▁curate	-12.4467
▁DJ	-12.4468
▁submersible	-12.4471
▁companion	-12.4472
▁immigrant	-12.4473
▁queens	-12.4473
▁visits	-12.4474
▁adolescent	-12.4474
▁crowds	-12.4474
▁Pakistani	-12.4479
▁performer	-12.4482
▁recipes	-12.4487
▁outward	-12.4487
▁vibrate	-12.4488
▁bass	-12.4489
▁feather	-12.449
▁impress	-12.4491
▁bark	-12.4493
▁stance	-12.4493
onary	-12.4498
▁slate	-12.45
▁peril	-12.4501
▁landfill	-12.4502
▁professions	-12.4507
▁underlie	-12.4508
▁queue	-12.4514
only	-12.4519
▁helicopters	-12.4527
▁tunas	-12.4532
▁Marx	-12.4536
▁Julie	-12.4542
▁Pan	-12.4545
▁sweep	-12.4547
▁lifetimes	-12.4548
▁confrontation	-12.455
▁z	-12.4552
▁Unit	-12.4553
▁Mc	-12.4554
▁admission	-12.4558
berg	-12.4567
▁quiz	-12.4577
▁sprawl	-12.4579
▁memorize	-12.4584
▁declare	-12.4589
▁astounding	-12.4591
▁discrete	-12.4592
▁miraculous	-12.4592
▁empirical	-12.4592
▁causal	-12.4592
▁excessive	-12.4592
▁liberate	-12.4592
▁unnatural	-12.4592
▁derive	-12.4593
▁energetic	-12.4594
▁elusive	-12.4594
▁holistic	-12.4594
▁Aaron	-12.4594
▁Amazing	-12.4594
▁Ecuador	-12.4594
▁Melinda	-12.4594
▁monopoly	-12.4594
▁prominent	-12.4594
▁Hudson	-12.4594
▁arguably	-12.4594
▁Moscow	-12.4594
▁Lesterland	-12.4594
▁energies	-12.4594
▁embryonic	-12.4594
▁stunned	-12.4594
▁descendants	-12.4594
▁gyrus	-12.4594
▁rotten	-12.4594
▁attendance	-12.4594
▁Maldives	-12.4594
▁fascination	-12.4594
▁Hebrew	-12.4594
▁broadband	-12.4594
▁clarify	-12.4594
▁pragmatic	-12.4594
▁serotonin	-12.4594
▁scissors	-12.4594
▁synesthesia	-12.4594
▁tires	-12.4594
▁marginalized	-12.4594
▁Titus	-12.4594
▁widow	-12.4594
▁Harlem	-12.4594
▁infinity	-12.4594
▁knitting	-12.4594
▁unhealthy	-12.4594
▁Tracy	-12.4594
▁radioactive	-12.4595
▁toothbrush	-12.4595
▁exhilarating	-12.4595
▁ethnicity	-12.4595
▁wilderness	-12.4595
▁nanoscale	-12.4595
▁photosynthesis	-12.4595
▁Karl	-12.4595
▁yo	-12.4595
▁forgiveness	-12.4595
▁millennium	-12.4596
▁announcing	-12.4596
▁madness	-12.4596
▁Yves	-12.4597
▁ironically	-12.4598
▁foolish	-12.4598
▁downstream	-12.4598
▁volcanoes	-12.4599
▁oftentimes	-12.4599
▁advocacy	-12.46
▁thoughtful	-12.46
▁Papua	-12.4601
▁offense	-12.4601
▁allocate	-12.4601
▁simplified	-12.4601
▁counseling	-12.4602
▁reimagine	-12.4602
▁defeated	-12.4602
▁eager	-12.4603
▁rode	-12.4604
▁twisted	-12.4605
▁dune	-12.4605
▁correlate	-12.4605
▁sparked	-12.4605
▁diffusion	-12.4606
▁feminine	-12.4606
▁yelling	-12.4606
▁violated	-12.4606
▁Hurricane	-12.4606
▁Pearl	-12.4606
▁dashboard	-12.4606
▁doodling	-12.4606
▁plasma	-12.4607
▁competence	-12.4607
▁Night	-12.4607
▁scaffolding	-12.4607
▁separating	-12.4609
▁inertia	-12.4609
▁Judge	-12.4609
▁physiological	-12.4609
▁optimist	-12.4609
▁detriment	-12.461
▁commute	-12.4611
▁volunteered	-12.4611
▁sediment	-12.4611
▁Everywhere	-12.4612
▁pollinators	-12.4612
▁charging	-12.4612
▁prints	-12.4614
▁reluctant	-12.4614
▁churches	-12.4617
▁suspected	-12.4617
▁purchased	-12.4618
▁mechanically	-12.4619
▁crust	-12.462
▁denser	-12.4621
fire	-12.4622
▁quicker	-12.4628
▁tease	-12.4629
▁enduring	-12.463
▁analytics	-12.4631
▁marching	-12.4631
▁catches	-12.4632
▁antennae	-12.4634
▁manipulated	-12.4636
▁stretching	-12.4637
▁regarded	-12.4638
▁hid	-12.4639
▁footprints	-12.4639
▁foraging	-12.464
▁antidepressants	-12.464
▁replicated	-12.464
▁Thousands	-12.4644
▁milliseconds	-12.4646
▁handling	-12.4648
▁commerce	-12.4648
▁coordinated	-12.4649
tories	-12.4649
▁similarity	-12.4652
▁perpetrators	-12.4653
▁plots	-12.4657
▁messed	-12.4658
▁sued	-12.466
▁hectares	-12.466
▁guides	-12.466
care	-12.4666
▁Kh	-12.4668
▁atmospheres	-12.467
▁rushing	-12.4675
▁breasts	-12.4678
▁withstand	-12.4679
▁Drugs	-12.4681
▁wetlands	-12.4681
▁gadgets	-12.4681
▁protons	-12.4684
▁opponents	-12.4688
▁vapor	-12.4691
▁bypass	-12.4692
▁hives	-12.4692
▁flick	-12.4696
▁onset	-12.4697
hop	-12.4703
pe	-12.4705
▁guerrillas	-12.4709
▁constitute	-12.4712
▁planners	-12.4713
▁monitors	-12.4713
▁leaning	-12.4722
ile	-12.4726
ler	-12.4728
▁commitments	-12.473
transformational	-12.4732
▁cooled	-12.4733
▁quoted	-12.4734
▁beard	-12.4738
▁slid	-12.4738
▁slot	-12.4742
▁credible	-12.4743
▁Land	-12.4752
▁historians	-12.4755
▁boils	-12.4756
▁sights	-12.4758
designed	-12.4762
atar	-12.4763
▁Run	-12.4765
carbon	-12.477
▁vibrations	-12.477
▁commercials	-12.4774
▁experimenter	-12.4774
▁arrangements	-12.4777
▁Speak	-12.4778
▁arrange	-12.4783
▁contacted	-12.4783
▁loyal	-12.4786
▁Work	-12.4789
son	-12.4791
▁Beck	-12.4794
▁theft	-12.4798
▁protocells	-12.4798
▁impos	-12.4798
ological	-12.4799
▁pads	-12.4803
▁prayers	-12.4805
▁payments	-12.4805
▁tire	-12.4806
▁Um	-12.481
▁impulses	-12.481
ither	-12.4812
▁bending	-12.4817
Am	-12.4817
▁chemists	-12.4818
▁hive	-12.482
▁empires	-12.4823
▁critics	-12.4824
ho	-12.4826
▁projecting	-12.4828
▁Doctors	-12.4831
legged	-12.4838
▁monsters	-12.4845
▁pits	-12.4853
▁evolves	-12.4857
ld	-12.4857
blowing	-12.4859
ver	-12.4867
▁modeled	-12.4872
▁mighty	-12.4872
▁fertilizers	-12.4879
▁Palestinians	-12.4881
▁rally	-12.4886
▁dealer	-12.4889
▁fences	-12.4891
warded	-12.4891
▁usable	-12.4893
▁dip	-12.4905
▁ducks	-12.4909
▁Legos	-12.491
▁polish	-12.4912
▁enterprises	-12.4913
▁centered	-12.4929
▁likes	-12.4942
▁Osa	-12.4944
haired	-12.4944
▁compress	-12.4948
▁rearrange	-12.495
ance	-12.495
▁orchestras	-12.4961
▁heartbeat	-12.4965
▁puncture	-12.4966
▁reinforce	-12.4974
▁microwave	-12.4978
▁scandal	-12.4978
▁communist	-12.498
▁cereal	-12.498
▁porn	-12.498
▁fingerprint	-12.498
▁flaw	-12.4981
ut	-12.4981
▁bookstore	-12.4982
▁paragraph	-12.4983
▁Network	-12.4984
▁transaction	-12.4985
▁drip	-12.4985
▁freedoms	-12.4985
▁concerts	-12.4986
▁te	-12.4986
▁distraction	-12.4987
▁technician	-12.4987
▁corridor	-12.4988
▁consist	-12.4988
▁electrode	-12.4988
▁indicator	-12.499
▁toxin	-12.4992
▁Hindu	-12.4993
▁riot	-12.4994
well	-12.4996
▁rotation	-12.4996
▁commander	-12.4997
▁wavelength	-12.4999
▁peanut	-12.4999
▁signatures	-12.4999
▁publisher	-12.5003
▁auction	-12.5006
▁gears	-12.5008
▁tense	-12.5008
ai	-12.5009
▁vector	-12.5009
▁mic	-12.5009
▁Nazi	-12.5013
ern	-12.5015
▁resident	-12.5016
▁elect	-12.5019
▁tweak	-12.5024
▁explosions	-12.5031
▁concentrations	-12.5031
▁listener	-12.504
▁perfection	-12.5044
▁Du	-12.5049
group	-12.5061
space	-12.5071
lly	-12.5077
▁outlet	-12.5077
▁margin	-12.5083
sing	-12.5085
▁atmospher	-12.509
▁peek	-12.5102
▁uncover	-12.5103
▁synchronize	-12.511
▁Gu	-12.511
▁violate	-12.5112
▁representations	-12.5114
▁Jamaica	-12.5116
▁distort	-12.5117
▁respectful	-12.5119
▁Personal	-12.5119
▁refine	-12.5119
▁gossip	-12.5119
▁unveil	-12.5119
▁outrage	-12.512
▁Film	-12.512
▁imperfect	-12.512
▁Botswana	-12.512
▁Brilliant	-12.512
▁Campaign	-12.512
▁Fibonacci	-12.512
▁Judaism	-12.512
▁Kentucky	-12.512
▁Picasso	-12.512
▁Sergio	-12.512
▁bureaucracy	-12.512
▁legitimacy	-12.512
▁wondrous	-12.512
▁Dublin	-12.512
▁Laboratory	-12.512
▁Stirling	-12.512
▁illumination	-12.512
▁Graham	-12.512
▁Walmart	-12.512
▁brilliance	-12.512
▁dairy	-12.512
▁anthropology	-12.512
▁deprivation	-12.512
▁measles	-12.512
▁diplomatic	-12.512
▁puppy	-12.512
▁desirable	-12.5121
▁hostility	-12.5121
▁leisure	-12.5121
▁biomedical	-12.5121
▁Genome	-12.5121
▁unbelievably	-12.5121
▁frugal	-12.5121
▁Generation	-12.5121
▁menstruation	-12.5121
▁reception	-12.5121
▁inquiry	-12.5121
▁skepticism	-12.5121
▁astonished	-12.5121
▁Voyager	-12.5121
▁endemic	-12.5121
▁trustworthy	-12.5121
▁Diana	-12.5121
▁regenerative	-12.5121
▁Carter	-12.5121
▁spores	-12.5121
▁foremost	-12.5121
▁Shortly	-12.5121
▁entrenche	-12.5122
▁degrading	-12.5122
run	-12.5122
▁puzzling	-12.5122
▁annoyed	-12.5122
▁Navy	-12.5122
▁hike	-12.5122
▁examining	-12.5122
▁subsequently	-12.5122
▁startup	-12.5123
▁guiding	-12.5123
▁Jonas	-12.5123
▁logistics	-12.5123
▁Worldchanging	-12.5123
▁troubling	-12.5123
▁encompass	-12.5124
▁regulatory	-12.5125
▁Hopkins	-12.5125
ification	-12.5125
▁cockroaches	-12.5126
▁realizes	-12.5126
▁overwhelmingly	-12.5126
▁cloned	-12.5127
▁interrupted	-12.5127
▁readily	-12.5127
▁policemen	-12.5128
▁nerdy	-12.5128
▁sideways	-12.5128
▁fulfilled	-12.5128
▁domains	-12.513
▁latter	-12.513
▁mantis	-12.513
▁fax	-12.5131
▁flour	-12.5132
▁Chief	-12.5132
▁Yellow	-12.5132
▁Amanda	-12.5133
▁influential	-12.5133
▁temporarily	-12.5133
▁liberated	-12.5133
▁intensely	-12.5133
▁blaming	-12.5133
▁liberating	-12.5134
▁Jimmy	-12.5135
▁cheated	-12.5135
▁fabrication	-12.5135
▁fitness	-12.5136
▁mates	-12.5136
▁Ready	-12.5136
▁joking	-12.5136
▁framing	-12.5138
▁adverse	-12.5138
▁dividing	-12.5138
▁tagging	-12.5139
▁offline	-12.5139
▁aimed	-12.514
▁Knowing	-12.514
▁sandwiches	-12.5141
▁artificially	-12.5141
▁posts	-12.5143
▁bundle	-12.5143
▁dumping	-12.5144
▁Chad	-12.5144
▁passionately	-12.5144
▁correlated	-12.5144
▁updated	-12.5144
▁Special	-12.5145
▁warmth	-12.5146
eight	-12.5146
▁pollination	-12.5147
▁postcards	-12.5147
▁sampling	-12.5148
▁reacted	-12.5148
▁reactive	-12.5149
▁piss	-12.515
▁disturbed	-12.515
▁steak	-12.515
▁kissing	-12.515
▁pitches	-12.5151
▁flush	-12.5152
▁reptiles	-12.5154
▁raging	-12.5155
Me	-12.5155
▁commercially	-12.5156
▁attended	-12.5157
▁adopting	-12.5157
▁ticking	-12.5159
▁Living	-12.5161
▁curse	-12.5162
▁ideally	-12.5163
▁Mostly	-12.5166
▁sponsored	-12.5166
▁foragers	-12.517
▁recovering	-12.5171
▁IT	-12.5172
▁complications	-12.5175
security	-12.5176
▁Father	-12.5177
▁Con	-12.5178
▁Mid	-12.5178
view	-12.518
▁avian	-12.5181
▁bombed	-12.5185
▁presidents	-12.5186
▁infamous	-12.5188
▁Fantastic	-12.5189
▁heh	-12.5191
▁motivations	-12.5191
▁adapting	-12.5192
▁Penn	-12.5193
▁incomes	-12.5194
▁succeeding	-12.5198
▁pastor	-12.5198
▁Inter	-12.5202
▁imitation	-12.5205
▁KT	-12.5206
▁distract	-12.5207
▁modes	-12.5209
performance	-12.521
▁guesses	-12.5211
▁HP	-12.5213
▁assured	-12.5214
▁holders	-12.5216
▁complaints	-12.522
▁titled	-12.522
▁participated	-12.5225
▁contemplate	-12.5228
rt	-12.5231
▁learns	-12.5233
▁bloggers	-12.5233
▁Birds	-12.5237
▁liters	-12.5237
▁alternate	-12.5244
▁pillars	-12.5247
▁publishers	-12.5253
▁lacking	-12.5254
▁temperat	-12.5256
hi	-12.5257
▁Fish	-12.5258
▁campaigning	-12.526
▁sustaining	-12.526
▁targeting	-12.5262
▁curl	-12.5267
screen	-12.5267
▁Planet	-12.5277
▁exhibitions	-12.5283
oo	-12.5286
▁settlements	-12.5292
death	-12.5294
▁pixel	-12.5296
▁festivals	-12.5299
▁Cars	-12.5301
ney	-12.5303
▁reporters	-12.531
▁hat	-12.531
then	-12.5314
▁crabs	-12.5317
▁beg	-12.5318
▁Mar	-12.532
▁rebel	-12.5323
▁recordings	-12.5327
▁dated	-12.5329
▁oral	-12.5331
▁phases	-12.5334
▁champions	-12.5336
Getting	-12.5336
▁spikes	-12.5337
▁rub	-12.5343
▁contradictions	-12.5343
▁learners	-12.5344
▁monument	-12.535
square	-12.5353
▁conventions	-12.5354
▁infer	-12.5355
▁dice	-12.5362
▁tigers	-12.5363
On	-12.5364
▁outdoors	-12.5365
▁oiled	-12.5372
▁crest	-12.5376
▁verbs	-12.5381
bo	-12.5382
cy	-12.5391
▁Map	-12.5393
▁outweigh	-12.5397
▁leverag	-12.5398
Get	-12.5402
educated	-12.5405
▁assumes	-12.5407
▁saves	-12.5409
building	-12.541
rhythm	-12.5412
▁EC	-12.5415
▁frontiers	-12.5415
lecommunications	-12.5416
▁Ne	-12.5416
Hmm	-12.5416
enabled	-12.5417
▁pies	-12.5422
▁Max	-12.5426
▁ecologist	-12.5433
shelf	-12.5434
▁masks	-12.5435
asking	-12.5441
▁definitions	-12.5445
quarters	-12.5446
speaking	-12.5448
▁VR	-12.5449
▁implants	-12.5456
▁lend	-12.5457
▁pigeons	-12.5466
▁Turk	-12.5476
▁oppos	-12.5476
there	-12.5481
▁southwest	-12.5482
▁pulses	-12.5488
▁Pop	-12.55
▁tutor	-12.551
▁sensations	-12.5511
ad	-12.5518
▁strips	-12.552
▁Oscar	-12.552
▁manipulat	-12.5523
▁persons	-12.5524
▁enclosure	-12.5529
tted	-12.5529
▁addict	-12.5529
▁dissolve	-12.553
▁Nation	-12.5531
▁assignments	-12.5531
▁aerodynamic	-12.5533
▁acquisition	-12.5533
▁hummingbird	-12.5533
▁facade	-12.5534
▁cubicle	-12.5534
▁cafeteria	-12.5535
▁nutritional	-12.5535
▁dictatorship	-12.5536
▁castle	-12.5536
▁salad	-12.5536
▁notebook	-12.5538
▁Walter	-12.5538
▁deadline	-12.5538
▁instructor	-12.5539
oh	-12.5539
▁ambassador	-12.554
▁homicide	-12.554
▁anecdote	-12.5541
▁latitude	-12.5541
▁fridge	-12.5541
▁railway	-12.5541
▁alliance	-12.5542
▁mutant	-12.5542
▁demonstrat	-12.5542
▁masterpiece	-12.5542
▁prosecutor	-12.5543
▁astronomer	-12.5544
▁preference	-12.5544
▁carrier	-12.5546
▁planner	-12.5547
▁delusion	-12.5548
▁pillar	-12.5549
▁Uh	-12.5552
▁meadow	-12.5553
▁Director	-12.5554
▁violation	-12.5555
▁socket	-12.5555
ship	-12.5555
▁kilogram	-12.5555
▁TB	-12.5556
▁Page	-12.5559
▁iteration	-12.5564
DG	-12.5564
▁Labs	-12.5567
▁grind	-12.5572
▁Game	-12.5577
▁ah	-12.5577
▁genomic	-12.5583
yo	-12.5586
▁nail	-12.5587
▁Ch	-12.5605
net	-12.5607
▁dragon	-12.561
▁hull	-12.5612
▁dysfunction	-12.5614
▁rob	-12.5615
▁Se	-12.5629
▁poo	-12.5629
▁j	-12.5634
▁ruler	-12.5635
▁supplement	-12.5639
▁haul	-12.5639
▁demonstrations	-12.564
▁vest	-12.5641
▁skeletons	-12.5654
▁buck	-12.5655
▁decode	-12.5658
▁pun	-12.5658
▁preach	-12.5659
▁acted	-12.5659
▁quantify	-12.5663
▁benchmark	-12.5663
▁Mario	-12.5663
▁sting	-12.5663
▁exile	-12.5664
▁proportional	-12.5667
▁oblivio	-12.5669
▁applaud	-12.5671
▁killers	-12.5673
▁massage	-12.5674
▁Babylon	-12.5676
▁ADHD	-12.5676
▁Baghdad	-12.5676
▁Bureau	-12.5676
▁Celsius	-12.5676
▁Conservation	-12.5676
▁Embassy	-12.5676
▁Galois	-12.5676
▁Helvetica	-12.5676
▁Mahmoud	-12.5676
▁McGowan	-12.5676
▁Missouri	-12.5676
▁Nicholas	-12.5676
▁Stockholm	-12.5676
▁Ukraine	-12.5676
▁Uruguay	-12.5676
▁albeit	-12.5676
▁anomaly	-12.5676
▁antidote	-12.5676
▁audacious	-12.5676
▁plywood	-12.5676
▁precursor	-12.5676
▁Malaysia	-12.5676
▁Mongolia	-12.5676
▁Nowadays	-12.5676
▁secrecy	-12.5676
▁Chicken	-12.5676
▁IDEO	-12.5676
▁Rouge	-12.5676
▁malware	-12.5676
▁occurrence	-12.5676
▁sophistication	-12.5676
▁Kanzi	-12.5676
▁lousy	-12.5676
▁shrunk	-12.5676
▁Bassem	-12.5676
▁epilepsy	-12.5676
▁gratification	-12.5676
▁divergence	-12.5676
▁biography	-12.5676
▁Bueno	-12.5676
▁oppression	-12.5676
▁Alfred	-12.5676
▁abalone	-12.5676
▁pessimistic	-12.5676
▁evolutionarily	-12.5676
▁Bertie	-12.5676
▁Disease	-12.5676
▁litigation	-12.5676
▁provocative	-12.5676
▁Gwen	-12.5676
▁synonymous	-12.5676
▁kidnapped	-12.5676
▁reconciliation	-12.5676
▁exploding	-12.5676
▁sanctuary	-12.5676
▁persistence	-12.5676
▁bipolar	-12.5676
▁Rift	-12.5676
▁academia	-12.5676
▁buddy	-12.5676
▁Airport	-12.5676
▁hottest	-12.5677
▁trafficked	-12.5677
▁goggles	-12.5677
▁imprisoned	-12.5677
▁anticipation	-12.5677
▁Copernicus	-12.5677
▁repetitive	-12.5677
▁upstairs	-12.5677
▁speculation	-12.5677
▁Reserve	-12.5677
▁bloodstream	-12.5677
▁activation	-12.5677
▁spirituality	-12.5678
▁wealthier	-12.5678
▁multiplied	-12.5678
▁algorithmic	-12.5678
▁tackling	-12.5679
▁personalization	-12.5679
▁brightness	-12.5679
▁condemned	-12.5679
▁tragically	-12.5679
▁selectively	-12.568
▁progressively	-12.568
▁adaptable	-12.568
▁brightest	-12.568
▁poker	-12.5681
▁thermostat	-12.5681
▁intimately	-12.5682
▁aligned	-12.5682
▁shelters	-12.5683
▁ambiguous	-12.5683
▁decipher	-12.5683
▁Independent	-12.5683
▁daddy	-12.5683
▁relieved	-12.5684
▁leaked	-12.5684
▁fooled	-12.5684
▁habitable	-12.5684
▁coaches	-12.5685
▁entertaining	-12.5686
▁implicit	-12.5686
▁Shoots	-12.5687
▁locate	-12.5688
▁Batman	-12.5689
▁dementia	-12.5689
▁Illinois	-12.5689
▁Acumen	-12.5689
▁persuasive	-12.5689
▁Mandarin	-12.5689
▁Thanksgiving	-12.5689
▁fulfillment	-12.5689
▁inventory	-12.5689
▁underwear	-12.5689
▁sufficiently	-12.5691
Sook	-12.5691
▁Parker	-12.5691
▁recommended	-12.5692
▁funders	-12.5693
▁unfolding	-12.5693
▁Roy	-12.5694
▁Magic	-12.5695
▁abyss	-12.5695
▁technologically	-12.5696
▁cognitively	-12.5697
▁divorced	-12.57
▁drifting	-12.5701
▁predominant	-12.5701
▁glowing	-12.5701
▁admired	-12.5702
▁proudly	-12.5702
▁misses	-12.5703
▁harvested	-12.5703
▁inorganic	-12.5704
▁Enlightenment	-12.5704
▁Spider	-12.5704
▁pots	-12.5704
▁kindly	-12.5704
▁Cohen	-12.5705
▁Pink	-12.5706
▁waist	-12.5706
▁Environmental	-12.5707
▁persuaded	-12.5708
▁sweating	-12.5708
▁defy	-12.5708
▁offenders	-12.5709
▁tunneling	-12.5709
▁cargo	-12.571
▁maintained	-12.571
▁alignment	-12.571
▁stakeholders	-12.5711
▁Ri	-12.5712
▁Leo	-12.5715
▁Von	-12.5715
▁rude	-12.5716
▁scheduled	-12.5723
▁fundamentalism	-12.5724
▁Cura	-12.5726
▁inappropriate	-12.5727
ingness	-12.5731
▁Fort	-12.5733
▁medicinal	-12.5734
▁borrowing	-12.5735
▁Nico	-12.574
▁glands	-12.5743
▁Close	-12.5743
▁Billy	-12.5743
▁locking	-12.5744
billion	-12.5745
▁darker	-12.5745
▁Yesterday	-12.5748
▁projector	-12.575
▁fracture	-12.5751
▁flowering	-12.5754
▁promoted	-12.5754
▁stripes	-12.5755
control	-12.5755
▁TM	-12.5767
▁puzzled	-12.5772
▁judged	-12.5776
▁socks	-12.5778
eating	-12.578
▁journeys	-12.578
▁artisan	-12.578
▁oneself	-12.5782
ccording	-12.5782
▁Jon	-12.5782
▁encounters	-12.5783
▁Stein	-12.5783
▁Rand	-12.5783
▁liars	-12.5786
▁specimens	-12.5787
▁instrumental	-12.5787
▁builder	-12.5789
▁Sue	-12.5789
▁enrich	-12.579
▁sampled	-12.5791
▁soils	-12.5792
▁monks	-12.5792
▁Happy	-12.5793
▁Maps	-12.5802
▁Commons	-12.5802
▁diplomats	-12.5805
▁diagrams	-12.581
▁fishes	-12.5817
▁sighted	-12.5825
using	-12.5825
▁ar	-12.5826
▁turtles	-12.5826
▁hood	-12.5828
▁impacted	-12.583
Aid	-12.5833
▁Near	-12.5836
▁networked	-12.5837
▁lobes	-12.5838
▁atheists	-12.5839
▁puppets	-12.5843
▁NM	-12.5848
▁protocols	-12.5865
▁psychiatrists	-12.5865
▁halt	-12.5865
▁op	-12.5869
▁anchor	-12.5869
▁tourists	-12.5869
▁grad	-12.5871
▁Tel	-12.5875
hey	-12.5879
▁viewers	-12.5881
▁microscopes	-12.5883
As	-12.5887
World	-12.5898
▁mock	-12.5904
▁Cap	-12.5914
▁wears	-12.5914
▁candles	-12.5927
▁induced	-12.5929
organization	-12.5932
▁Mu	-12.5941
▁beep	-12.595
▁shoots	-12.5951
▁Read	-12.5959
li	-12.5959
▁Mathematica	-12.5964
▁Years	-12.597
▁pasted	-12.5973
▁millimeters	-12.5974
▁Fire	-12.5974
named	-12.5979
now	-12.5986
Have	-12.5987
▁iPods	-12.5988
engineered	-12.6005
atomic	-12.6005
▁collisions	-12.6011
▁den	-12.6012
▁pee	-12.6014
shot	-12.602
▁customize	-12.6021
cell	-12.6024
▁whistles	-12.6027
ga	-12.6028
▁Po	-12.6032
▁dials	-12.6038
▁cod	-12.6038
people	-12.6039
▁degrade	-12.6039
▁chambers	-12.604
NG	-12.6052
▁vent	-12.6061
▁inspirational	-12.6062
▁laughs	-12.6068
▁droughts	-12.6068
ti	-12.6073
▁intersections	-12.6074
▁embed	-12.6074
▁enroll	-12.6076
▁AI	-12.6077
▁pat	-12.6088
▁Su	-12.6098
▁Ar	-12.61
▁peripheral	-12.6107
▁engulf	-12.6107
▁Rosling	-12.6107
ul	-12.6108
▁dispute	-12.6115
▁appointment	-12.6117
▁resonate	-12.6118
▁hippie	-12.6121
▁barbershop	-12.6121
▁PDF	-12.6121
▁superconductor	-12.6122
just	-12.6122
▁webcam	-12.6122
▁pillow	-12.6123
▁appetite	-12.6125
▁carpenter	-12.6125
▁replicator	-12.6126
▁hostage	-12.6126
▁giraffe	-12.6126
▁counselor	-12.6128
etic	-12.6128
▁roommate	-12.6128
▁superstar	-12.6129
▁precedent	-12.613
▁shortcut	-12.613
▁guerrilla	-12.6131
▁favela	-12.6131
▁caregiver	-12.6131
▁Common	-12.6132
▁dropout	-12.6134
▁awards	-12.6136
▁Mola	-12.6136
cientific	-12.6143
▁sword	-12.6145
▁template	-12.6147
▁Face	-12.6147
▁crow	-12.6148
▁murderer	-12.6151
▁bake	-12.6155
stage	-12.6157
▁recipient	-12.6158
▁constraint	-12.6159
▁diplomat	-12.6162
ties	-12.6162
▁optic	-12.6164
▁booms	-12.6165
▁Evolution	-12.6165
▁fitting	-12.617
▁comparisons	-12.6172
punched	-12.6175
▁hunch	-12.6177
▁crisp	-12.6178
▁reconnect	-12.6179
▁Bio	-12.618
▁animate	-12.618
▁bladder	-12.6181
▁chiefs	-12.6184
▁league	-12.6186
▁tailor	-12.619
▁NB	-12.6192
▁beast	-12.6192
▁grandmothers	-12.6201
▁Car	-12.6202
▁suspects	-12.6204
▁glance	-12.6205
▁Brit	-12.6205
ro	-12.6209
▁buyer	-12.6219
▁tile	-12.622
▁Row	-12.6221
▁ripe	-12.6224
▁thre	-12.6229
▁influenza	-12.6235
▁Si	-12.6237
ons	-12.6241
▁crave	-12.6243
▁Juan	-12.6248
▁evoke	-12.6249
▁embody	-12.625
▁verify	-12.625
▁disclose	-12.6252
▁Lu	-12.6253
▁emulate	-12.6253
▁chew	-12.6258
▁sequester	-12.6259
▁Gues	-12.626
▁superhero	-12.6261
▁Grey	-12.6262
▁Rush	-12.6263
▁Senegal	-12.6264
▁Congolese	-12.6264
▁Democracy	-12.6264
▁Hampshire	-12.6264
▁IKEA	-12.6264
▁Kabul	-12.6264
▁Management	-12.6264
▁Minnesota	-12.6264
▁heterosexual	-12.6264
▁petroleum	-12.6264
▁pinnacle	-12.6264
▁preliminary	-12.6264
▁NIH	-12.6264
▁zodiac	-12.6264
▁leukemia	-12.6264
▁butterfly	-12.6264
▁pianist	-12.6264
▁cockpit	-12.6264
▁misunderstood	-12.6264
▁antiangiogenic	-12.6264
▁forbidden	-12.6264
▁USDA	-12.6264
▁biomimicry	-12.6264
▁Hiroshima	-12.6264
▁lexicon	-12.6264
▁Archimedes	-12.6264
▁Delta	-12.6264
▁Mitchell	-12.6264
▁unexplored	-12.6264
▁Maslow	-12.6264
▁examination	-12.6264
▁administrative	-12.6264
▁Benki	-12.6264
▁Barbara	-12.6265
▁Trek	-12.6265
▁ominous	-12.6265
▁penny	-12.6265
▁geology	-12.6265
▁wrapping	-12.6265
▁yoga	-12.6265
▁pathology	-12.6265
▁considerably	-12.6265
▁analogies	-12.6265
▁Lisa	-12.6266
▁tallest	-12.6266
▁multimedia	-12.6266
▁campfire	-12.6266
▁immoral	-12.6266
▁Miller	-12.6266
▁hardwired	-12.6266
▁secretary	-12.6266
▁Forbes	-12.6266
▁collapsing	-12.6266
▁reversal	-12.6266
▁Constitution	-12.6266
▁palace	-12.6266
▁Sobule	-12.6266
▁emitted	-12.6266
▁Mellon	-12.6266
▁casually	-12.6267
▁mainland	-12.6267
▁occasional	-12.6267
▁discarded	-12.6267
▁specialization	-12.6267
▁Archie	-12.6267
▁bouncing	-12.6267
▁cursor	-12.6267
▁seductive	-12.6268
▁Saul	-12.6268
▁vividly	-12.6268
▁suey	-12.6269
▁Beatles	-12.6269
▁legislators	-12.6269
▁districts	-12.6269
▁Bowl	-12.627
▁incidence	-12.6272
▁motivating	-12.6272
▁ruined	-12.6272
▁furthermore	-12.6273
▁tempting	-12.6273
▁Plus	-12.6274
▁originated	-12.6275
▁Huge	-12.6275
▁charming	-12.6275
▁manure	-12.6276
▁flooded	-12.6277
▁opaque	-12.6277
▁arrogant	-12.6277
▁Jacques	-12.6277
▁slippery	-12.6277
▁Portuguese	-12.6278
▁pennies	-12.6278
▁denominator	-12.6278
▁sweater	-12.6278
▁isolate	-12.6279
▁Needles	-12.6279
▁diminished	-12.6279
▁wirelessly	-12.6279
▁Sixty	-12.6279
▁qualify	-12.6279
▁overlooked	-12.628
▁stimulating	-12.628
▁adore	-12.628
▁intentionally	-12.6282
▁intractable	-12.6282
▁highlighted	-12.6284
▁erased	-12.6284
▁librarians	-12.6285
▁grasses	-12.6286
▁boreal	-12.6287
▁nothingness	-12.6288
▁yearning	-12.6288
▁cheaply	-12.6288
▁Build	-12.629
▁Austin	-12.6293
▁rupees	-12.6294
▁grabbing	-12.6294
▁geographical	-12.6294
▁prescribed	-12.6294
▁Fifth	-12.6295
▁circus	-12.6295
...	-12.6295
▁powerless	-12.6297
▁Week	-12.6298
▁saddle	-12.6299
▁dispersed	-12.63
▁gaming	-12.63
▁headphones	-12.6302
▁patented	-12.6303
▁trance	-12.6304
▁walkable	-12.6306
▁Universe	-12.6306
▁Oprah	-12.6308
▁clicked	-12.6309
▁vocation	-12.631
▁supporters	-12.6311
▁decreased	-12.6311
▁scratching	-12.6311
▁indirectly	-12.6311
▁branching	-12.6312
▁launches	-12.6312
▁greet	-12.6312
▁posting	-12.6315
▁creatively	-12.6317
▁IV	-12.6318
▁echoe	-12.632
▁sinking	-12.632
▁seniors	-12.6321
▁restored	-12.6322
▁photons	-12.6322
▁dances	-12.6322
▁lifting	-12.6322
▁NP	-12.6324
▁exceeding	-12.6325
▁Mission	-12.6325
▁avoided	-12.6326
▁pheromones	-12.6326
range	-12.6328
▁broaden	-12.6329
▁crown	-12.6334
La	-12.6336
▁multicultural	-12.6338
▁blinded	-12.6339
▁fitted	-12.6341
▁Hotel	-12.6341
ko	-12.6341
stranded	-12.6344
▁delightful	-12.6346
▁gum	-12.6349
▁financed	-12.635
▁gardening	-12.6353
▁forged	-12.6356
▁cores	-12.6358
▁pest	-12.6358
▁edition	-12.6362
▁volcani	-12.6368
▁jack	-12.6369
▁mitigate	-12.637
▁rewarding	-12.637
▁turbines	-12.6375
▁wield	-12.6376
standing	-12.6378
▁trickle	-12.6379
▁wholly	-12.638
ball	-12.6381
freaking	-12.6383
▁MA	-12.6384
▁relay	-12.6393
▁classify	-12.6396
▁cliche	-12.6399
▁requir	-12.64
▁bureaucratic	-12.641
▁utilize	-12.6416
▁peanuts	-12.6416
flipping	-12.6419
piece	-12.642
▁edible	-12.6421
▁generators	-12.6428
▁batch	-12.6428
▁tides	-12.643
▁snails	-12.6432
▁unto	-12.6434
▁TS	-12.6435
lan	-12.6437
▁desks	-12.6446
ious	-12.6446
six	-12.6448
▁mere	-12.6453
▁smash	-12.6454
▁tolerant	-12.6456
▁ponds	-12.6458
▁anthropologists	-12.6458
▁trunks	-12.6466
▁danced	-12.6467
▁ineffective	-12.6472
▁performances	-12.6479
▁lawns	-12.6484
▁Computers	-12.6486
os	-12.6486
▁lesser	-12.6495
▁tofu	-12.6499
▁poly	-12.6511
▁chin	-12.6513
▁threads	-12.6514
▁electora	-12.6516
▁drums	-12.6518
▁antennas	-12.6521
▁Len	-12.6522
▁MP	-12.6523
▁Hmm	-12.6528
bit	-12.6529
▁resting	-12.6535
▁Market	-12.6536
▁springs	-12.6537
▁CDs	-12.6543
▁ballet	-12.6544
▁Per	-12.6545
touch	-12.6546
▁casual	-12.6546
▁jails	-12.6559
▁bait	-12.656
▁warriors	-12.6563
▁coins	-12.6566
▁temples	-12.657
star	-12.6571
▁pipelines	-12.6571
definition	-12.6572
▁twists	-12.6574
▁plea	-12.6575
▁hump	-12.6576
Take	-12.6583
▁tickle	-12.6583
▁spy	-12.6587
estial	-12.6591
Life	-12.6595
ville	-12.6608
Tell	-12.661
▁stain	-12.6611
▁Plato	-12.6623
▁aims	-12.6626
▁infants	-12.6626
induced	-12.6631
▁advocates	-12.6636
▁rotates	-12.6638
come	-12.6645
▁tunnels	-12.6653
wise	-12.6661
▁hatch	-12.6663
▁underpin	-12.6667
▁Jose	-12.6668
ill	-12.6671
▁Medic	-12.6673
▁flop	-12.6683
▁stacks	-12.6684
▁pathogen	-12.6684
▁prop	-12.6692
▁supermarkets	-12.6694
▁ne	-12.67
Isn	-12.6703
▁yell	-12.6703
technology	-12.6718
▁Johns	-12.6721
▁CT	-12.6726
▁elevation	-12.673
▁Festival	-12.6731
▁Thursday	-12.6731
▁umbrella	-12.6731
▁Laptop	-12.6731
▁Studio	-12.6733
tar	-12.6733
▁maneuver	-12.6735
▁evaporate	-12.6738
▁marginal	-12.6738
▁portfolio	-12.6741
▁ribbon	-12.6741
▁Matthew	-12.6741
▁republic	-12.6741
▁pharmaceuticals	-12.6743
▁impatient	-12.6745
▁CAPTCHA	-12.6746
▁decoration	-12.6748
▁Cat	-12.6749
▁tectonic	-12.675
▁sunset	-12.675
▁buffer	-12.675
▁coalition	-12.6751
▁chick	-12.6752
▁toddler	-12.6752
▁fin	-12.6754
▁lawsuit	-12.6755
▁censor	-12.6755
▁proportions	-12.6755
▁pearl	-12.6756
▁consultant	-12.6756
▁blogger	-12.6756
▁cosmetic	-12.6757
▁intestine	-12.6757
▁dataset	-12.6759
gated	-12.6759
▁valleys	-12.676
▁uprising	-12.6764
▁napkin	-12.6765
▁possession	-12.6766
▁objection	-12.6766
▁purse	-12.6766
force	-12.6768
▁teapot	-12.677
▁Board	-12.6772
▁Israelis	-12.6775
▁Hungarian	-12.6778
▁bomber	-12.6779
▁swam	-12.6779
▁Stand	-12.6779
▁composite	-12.6787
ik	-12.6792
▁bloom	-12.6792
om	-12.6793
▁rang	-12.6795
▁nutrient	-12.68
▁gravel	-12.6802
▁defect	-12.6802
▁crater	-12.6804
▁extinctions	-12.6816
▁Rock	-12.6816
▁thunder	-12.6817
▁dire	-12.682
town	-12.683
ou	-12.6831
--	-12.6832
▁kicks	-12.6851
▁dealers	-12.6854
▁Cha	-12.6855
▁Harbor	-12.6856
ana	-12.6858
sex	-12.6859
▁fuse	-12.6864
▁deepen	-12.6865
▁Ok	-12.6868
▁Lanka	-12.6871
ambia	-12.6872
▁Bulgaria	-12.6874
▁advertise	-12.6876
ft	-12.6876
▁crease	-12.6877
▁ignite	-12.6879
real	-12.6879
▁TD	-12.6879
▁ridicule	-12.6881
▁foam	-12.6884
▁fatigue	-12.6888
▁altruistic	-12.6889
▁Airbnb	-12.6889
▁Arkansas	-12.6889
▁Asperger	-12.6889
▁Aurora	-12.6889
▁Cochrane	-12.6889
▁FreeSpeech	-12.6889
▁Gallery	-12.6889
▁HeForShe	-12.6889
▁Mubarak	-12.6889
▁Myriad	-12.6889
▁NATO	-12.6889
▁Nollywood	-12.6889
▁Rockefeller	-12.6889
▁Vermeer	-12.6889
▁arthritis	-12.6889
▁cholesterol	-12.6889
▁credibility	-12.6889
▁disguise	-12.6889
▁ghetto	-12.6889
▁hierarchical	-12.6889
▁suspicion	-12.6889
▁swollen	-12.6889
▁synchrony	-12.6889
▁tragedies	-12.6889
▁Langley	-12.6889
▁Madison	-12.6889
▁Sudhir	-12.6889
▁dengue	-12.6889
▁refrigeration	-12.6889
▁sabbatical	-12.6889
▁embodiment	-12.6889
▁miniature	-12.6889
▁necessity	-12.6889
▁surrogate	-12.6889
▁advent	-12.6889
▁crux	-12.6889
▁malignant	-12.6889
▁palette	-12.6889
▁porridge	-12.6889
▁venom	-12.6889
▁absent	-12.6889
▁champagne	-12.6889
▁extremism	-12.6889
▁persuasion	-12.6889
▁Geneva	-12.6889
▁OPEC	-12.6889
▁automation	-12.6889
▁Broadway	-12.6889
▁crappy	-12.6889
▁exterior	-12.6889
▁suburbia	-12.6889
▁proximity	-12.6889
▁substrate	-12.6889
▁empathize	-12.6889
▁graduation	-12.6889
▁Alexandria	-12.6889
▁appalling	-12.6889
▁intermediate	-12.6889
▁metadata	-12.6889
▁sequel	-12.6889
▁crammed	-12.6889
▁bedrock	-12.6889
▁communism	-12.6889
▁pigmentation	-12.6889
▁innocence	-12.6889
▁suicidal	-12.6889
▁Anthony	-12.6889
▁TEDGlobal	-12.6889
▁fifty	-12.6889
▁sovereignty	-12.6889
▁advocating	-12.689
▁polarization	-12.689
▁customization	-12.689
▁Newtonian	-12.689
▁Species	-12.689
▁striving	-12.689
▁saltwater	-12.689
▁classification	-12.689
▁entries	-12.689
▁Likewise	-12.689
▁CPU	-12.689
▁Seventy	-12.689
▁Blair	-12.689
▁nationwide	-12.689
▁welcoming	-12.689
▁sentient	-12.689
▁seaweed	-12.689
▁Vienna	-12.689
▁Unless	-12.689
▁Eames	-12.689
▁Biosphere	-12.689
▁Superman	-12.689
▁membership	-12.689
▁carriage	-12.689
▁Luke	-12.689
▁mutilated	-12.6891
▁tobacco	-12.6891
▁Gando	-12.6891
▁purchasing	-12.6891
▁mystical	-12.6891
▁Morocco	-12.6891
▁complexities	-12.6891
▁Riverside	-12.6891
▁Barbie	-12.6891
▁judging	-12.6891
▁dragline	-12.6891
▁sushi	-12.6891
▁dissent	-12.6891
▁misuse	-12.6892
▁residual	-12.6892
▁bra	-12.6892
▁visibility	-12.6892
▁JR	-12.6893
▁overfishing	-12.6893
▁battl	-12.6893
▁philanthropic	-12.6893
▁nuanced	-12.6893
▁swimmer	-12.6893
▁tedious	-12.6893
▁scarf	-12.6894
▁commonplace	-12.6894
▁sunshine	-12.6895
▁maggots	-12.6895
▁Thankfully	-12.6895
▁neatly	-12.6895
▁Orwell	-12.6896
▁waterfront	-12.6896
▁Intelligence	-12.6896
▁neglected	-12.6896
▁policeman	-12.6897
▁Wales	-12.6897
▁fearless	-12.6897
▁fashionable	-12.6897
▁adage	-12.6898
▁passively	-12.6898
▁rebuilt	-12.6898
▁mercy	-12.6898
▁Vision	-12.6899
▁autonomously	-12.69
▁reconstructed	-12.69
connected	-12.6901
▁harmless	-12.6901
▁Doha	-12.6902
▁Color	-12.6902
▁metaphorical	-12.6902
▁knives	-12.6902
▁Saddam	-12.6903
▁Eleanor	-12.6903
▁Mermaid	-12.6903
▁Stanley	-12.6903
▁token	-12.6903
▁Wednesday	-12.6903
▁ventilation	-12.6903
▁Operations	-12.6903
▁hyperbolic	-12.6903
▁Satan	-12.6904
▁volts	-12.6904
▁Noah	-12.6904
▁Mao	-12.6905
▁outreach	-12.6905
hearted	-12.6906
▁Aires	-12.6906
▁mosquitoes	-12.6906
▁Farmer	-12.6907
▁psychologically	-12.6907
▁Hunter	-12.6907
active	-12.6907
▁specialty	-12.6908
▁magically	-12.6908
▁nut	-12.6908
▁screwed	-12.6909
▁illuminate	-12.6909
▁Visual	-12.691
▁bakery	-12.691
▁geniuses	-12.6911
▁Balkans	-12.6912
▁curiously	-12.6913
▁underestimated	-12.6914
▁blinking	-12.6914
▁recruiting	-12.6914
tenth	-12.6915
let	-12.6915
▁Rice	-12.6915
▁jumble	-12.6915
▁tenure	-12.6916
▁dull	-12.6918
▁saturated	-12.6919
▁indirect	-12.692
▁quarks	-12.692
▁Player	-12.692
▁wearable	-12.692
▁phthalates	-12.6921
▁ABC	-12.6921
▁crushing	-12.6922
▁diary	-12.6922
▁shaming	-12.6924
▁remov	-12.6925
▁spraying	-12.6925
▁sliced	-12.6927
graders	-12.693
▁blended	-12.693
▁insignificant	-12.6931
▁toolbox	-12.6931
▁outstanding	-12.6932
▁mastered	-12.6932
▁ribs	-12.6934
▁grazing	-12.6934
ically	-12.6936
▁lasers	-12.6937
▁Case	-12.6937
▁princess	-12.6939
▁dresses	-12.694
v	-12.694
▁positively	-12.6942
▁Study	-12.6944
Africa	-12.6944
▁Farm	-12.6944
▁Rat	-12.6946
▁skiing	-12.6948
▁blur	-12.6948
▁Canal	-12.6948
▁skier	-12.6949
▁Fall	-12.695
▁reserved	-12.6951
▁smelled	-12.6952
▁bases	-12.6952
▁runway	-12.6952
▁debut	-12.6953
▁cradle	-12.6953
[...]
